1fffe1111f11211f1121fffff
111ef121ee121ff1121f11111
ffff11ff11f122f111ff111ff
111f1ff111ff1111f11ff11ff
1111ff211f122f1122fff11f1
fff11f12211111ff1f11f1111
ff1ff1ffffffffffff111ff1f
ffff1ff1ffff11ff11fff111f
ff11fff1111ff1f1fffff111f
f11f1f11fff1ffffff11f111f
f11111f11fff1fff11fff11ff
111fff11fff11fff1ffff1fff
f111fff11f1111ffff11f1ff1
f1fffff11fff1ffffff1fff11
1111ff111f11fff1f111f111f
f1ff1111ff11f111111f11fff
ff1ff11f1ff1fff1ff11ff11f
f1f1f1111f1f1fff1ff1f1111
ff1f1f1111ff111f1111f11f1
f111ff1111f1f111ff11fffff
ff1ff1f11fffffff1fff111ff
111ff11f11ffff1f1f11f1ff1
1fffffff1ffff11fff1111ff1
1f1fff111f1f1111ff11f1fff
f1f11ff11111111f1111f1f11
ffff11fffff1111f1f111ffff
f111f1ff1f1ffffff111ff1ff
1ff1f1fff1fffff1111ff111f
f11f111ffff11fff1f11ffff1
1ff111f1fff11ff1111111ff1
11ffff1ff1fffffffffffffff
ffff1fff1fff11ff11ff111f1
f1f11f1111111ff11fffffff1
1ff1f1f11f111fffff1fffff1
ffff1ff111f111f111fff1fff
ff11ff1111111ff11fff1ff1f
fff1f11111111111f1ff1111f
ff1ff1111f11111fffffff1ff
111fffff11f1111fffffff111
1f1fff1fff11ff11ff1fffff1
fffff111111111fffffffffff
f11fff1f111111111ffffff11
111111f111fff111ffff11111
11111fff11fff11fffff1f1f1
1111f1fff1ffff1111fff1f11
1f1ff1111f11111fffff1ffff
1111f11111ffff1fffff111ff
1111111111fff11ffff1111ff
f1ff1fff111fffffffffffff1
1111fff1fff1fff11ff111f11
f111111f1f11ff111111ff11f
1111f11ff111f11ff111f1111
f111ff11ff11fff1fff1ff111
1f1f111fff1fffffff11ff111
f11111f11f111fffff1111111
ff1fff11ffff1f1fff1ffffff
1ff111ffff111f1f1111f1111
f111f1f1f111ff1f1ff111fff
1f1f1111ff11fff11f1ffff1f
11ffffff111111fffffffff11
f111f1f11111ff11f11111111
fff11111111ffffff11f1f111
111fff11f1ff1fffff11ff111
f1f11ff111f11ff111ff1f11f
11f11fff1111ffff11fff1111
f11f1f1f1111ffff11ff11111
1ffff11ff1ff111ff11111f11
1f1f1ff11fffffffff1ff11f1
1f11ff11ff1f111111111ffff
1f11fff1ffff1f11111ff111f
fff11ff1fffff11f111f111ff
ff11fff1ff1f1f1f1111111ff
f1f1f11f1ff111f1f111f11f1
f11ff11ff1f1ff1fff11f11f1
1f1ff1ff111f1ffff1f1111f1
1fff1ffff1ff111fff11111f1
f1f1f111f1ff11ff1ffff1fff
1f1f111fffff1ffff1ffff1ff
ff11ffff11ff11ff11fff1fff
f1ffff11f111ff111ffff11f1
f1ff1f1fff1fff1ff1ffffff1
11f11111ff1ff1ffff1111f1f
f11ff11ff111ff1111f1f1f1f
1f1f11ffff1ffff1ffff111f1
ffffffff1fff1f1f1111111ff
ff111ff111f11f1f111111f11
111fff11f111ff11ff1ffff1f
f111f11ff11ffff1111ff1f1f
ff11ff111ff1f1ff1f1f11fff
ff1ff11ff111fff1fff1fffff
fffff1fff111ffff1111f1111
ffff1f11ff111fff1111f1f11
1ffff1ff11fff1f1f11f1ff1f
f11f11ffff1ff1f111fff1111
fffff11fff111ff1111111111
fff1f1fff1fffff1ff1f1111f
f11f1ff111fff11ff1ff1f11f
f111fff11f1f1111f111ff111
1ffffff111fff1fffffffffff
1f1f1ff11f1111111ff1f11ff
f11ff1f1ffff11fff11fff11f
f1f1ff11f1f111ff11f1ff1f1
f11ff1f1f11f1f1111f11ff11
1111f1111111f11f1f11f11ff
1ff11f1f11111ff1111fff1f1
1ffff1f11ff1111f111f11f11
ff1f1ff1111f1f1f1f1f1ff11
1f11f1f11ff111fff1f1ff1f1
f1f11fff1111ff11ff1111ff1
1111ffff1f11f1f1f1ff1f11f
f1f1f1fff1f11fff111ff1ff1
1ff11ff1111111fff1f11f11f
111f11f1f1ff1f1f1ff1fffff
1f1ffffff1111f1ffffff111f
11f11f111ff111ff11f1111f1
11f1f1111111f1f111fff11f1
1f111f111fff1111f1ff11fff
1ffff1fffff11ffff11fff1ff
1f1f1ff1f11ff1111f1f11ff1
11f1111f1f1f1fff11f1fffff
11f1fff1f11fff1f1ff111f1f
11ff11ff1111f11f11111ff1f
1ff1111111f11f111ff1f1111
ff1fff1f11f1fff11111f11f1
fffffff11ff11fff1fff11f11
f1f11f1f1111fff111f11ffff
f1f1f111ffff1ff1f1f11ff1f
111f11fff11f1f1fff1ff1ff1
ff111f1ff11f1f111f1111f1f
1fffffff111f11f111fff1fff
ff111ff11111111f11f1f1fff
ff1f1f11f1111f11111f1ff1f
ff1f11ffff111ff1f1ffff1f1
111f11f11f1fffff11ff1f1ff
f111f1f1111fff1fff11f1f11
ff1f1ff1fff111111f11f1111
ff1f1fff1f11f11111f1f111f
1ff1ff1111ff11111ffff1fff
1ff11f1f1ff1f1fffffffff11
1111ffff11f111f1f111f111f
1fff1fffff1ff1ff1ff111fff
1f11f1111111ffffff11ffff1
1f1ffffff1ffff1111f1ff11f
11fffff1f11f11f11f1ff111f
f1f111111f1f1ff111ff1f1f1
1f11ffff1f111f1f1f1f1fff1
1f11ff11f1f1f1111f11f1111
f11111111111111111ff1ffff
f1fff11ff1fff11111f1ff1f1
1fff11fff1ff1111f1ff11f1f
11f1fff11fff11f1ffff1fff1
11fff111fff11f11f1f1ff11f
11f1ff1fff11ff1f1fff1ffff
f1fff1ff1f111111fff111ff1
fffffff11111111ff11ffff11
1111f11fff11111f111ff1f1f
11ff11f111f1111f111f111f1
f1ff1ff1f11ff1111111ff11f
ff11f111ff1f1f1f111ff1f11
1ff1ff11ff11ff1f1ff1ffff1
1ffff1ff11111ff11fff111f1
f11f111f11f1f1111f1ffff11
1f1111ff11f111111fff11ff1
ff111f1ff1ff111ff11ff11f1
111f11f1f1f1f1111f1111fff
fff11ff1ffff1ff1111ff1ff1
11f11ff11f1111f1f11f1ff1f
1111ffff1ffff1f1f1f11ff1f
fff1ff11ff11f1f11f1ff1f11
f1f1f1ffffff1ffff1f1f1111
ff1f1ff1111ff111f11ff11f1
11ffffffff1ff1111f11f1fff
f111f1fff1ffffffff1ff11ff
1f1ff111ff1f1ffff11ff111f
111111ffff1f11f1f11ff1fff
11f1f1f1ff11fff1f11fff1f1
1f11ff111ff111f111f1f1f11
1ff1f1111ffff11fff111f11f
f1f11f1ff1f1f1ff11111ff1f
f1f1ff1f1111f111fff1ff1ff
f1ffff11111ff1f1ff111ff1f
1111f11111f111111f1f11fff
1ff1ffff111ff1ff1111fff1f
f1ffff111f1111111ff11f11f
f1111111fff1f1f1111f111f1
1ffff11fff11111f1f111ff11
fff11fff11ffff11f1fffff11
1111f11fff111fff1111f1111
111f111ff111111ff11ff1f1f
1ff11fff11111fff111111111
11fff1ffff111fff11f11f11f
1ff1f1ff1f1111f11ff1f1f1f
1ffff1ff111111f1f11ff11ff
f1111f111ff1111f11ff11ff1
fff1ffff1ffff11f1ff11f111
1111f11ff1ff111ffff1f1111
111ff11fff1111ff1f111ff1f
1ff11f1ffffffff1ff11fffff
f1f1ffff1ffffffff1f1ff111
1111f11f111111ff111111f11
ff1ff1f1ff1111f11f11fffff
1f11fff1111111f11ff11ff11
1ff1ff1f111ff1ffff1111f11
1ff11fff11f1111f111f1ffff
fff11ff111f1ff11111ff1fff
ff1fff1f1ffff1f111ff11f1f
1f11f1f11f1ff1ff111f1111f
fff11f111f1111ff1fffff1f1
1111f1111ffffff11ffff11f1
ff1ff1f11ff111f1f1fffff1f
f1ffffff11111f11f1111f111
1f11f111f111111f1ff11f111
fff11ff111f1f11ff1ff1f111
1f1fff11ff1fff11ff1f1f11f
111f11f11f111f111ff11f11f
ff1f1ffff11ff1f11111ff1ff
ff1111ff1ffff11111ff11ff1
ff1f11f111fff111f1f1ff1f1
f1111111ff1ffffff1111f11f
11ff11ff1fffffff1111ff111
fff1f1f11ffffffffff111111
ff11f1ffff1ff1f11111ff111
1f111f1f11ff1fff11111f111
ff1fffff1fff1f11111f1ff1f
1fff11f11f1111f111f11fff1
f11f1f1f11fff11f11f111f1f
1f11f1f111f111f11ff11ffff
f1f1f1f11ff11f11111f1f1ff
ffffff111f111111f11fff1ff
111ff1fffff11f1111ff11f1f
f11f1f111f1ff11ff1111f1ff
111111f1f1ff11f11ff11ff11
f1ff11ff1f1ff111f11f11f11
1f1ffff11111f1f111f11fff1
1111f1f1ff1ffffffff11ffff
11f1f1fff1f11f111f1f1f1f1
fff11f111ff11ff1111ff1fff
111ff11111fff11f11f1f1ff1
ff1fff1f1f1ffff11fff1111f
1ffffff11f11ff1111111f111
1111f1f11ff1ff1f1f1f111ff
11f11fffffff111111f11fff1
f1f1111f1f1111f1ff1ffff11
ff11f1f11f11fff1fffffff1f
11ff1fff111fff1fff1f1111f
1f111111f1f1ff1fff11111f1
11f1fff1f1ffff1fff1f11ff1
ff1111f11f1fff1f1fff1f1ff
11ffff1f1ffffff1f1111f11f
1f11fff1fff11f11111f1ff11
111f1ff1ff11fff111fff11f1
111f11f1ff11ffff1111f1fff
f11f1ff1111fffff111ff1f11
ff1111f11fffffff111ff1ff1
f1ff1f1ff1f1f1ff1ff1f1f11
1fff1f11f111111f1fff111f1
fffff11fff11f1f11f11fff11
1ff1f11111ff1f11fffffffff
11ff11fff1ffff1f1ff11ffff
11ffffff1fff11f111f11ffff
fffff1111111111ff11f1fff1
1ff11111fff111111f1ff1f11
ff1ff11111111ff111111f11f
111ff11f1fff11111ff11ff1f
1f1f1f1ff11ff1f1111ffff11
f11111fff11ff1fff1f11fff1
f1f1fff11ff1fff1f11fff1ff
fffff1f1111f1ff1111ffffff
fff1f11ff1fff11f1ffffff11
11ff1f111111ffff11ff111f1
ff1f11fff111f1f1ffffffff1
1f11f111fff1fff1fffffff1f
ff1ff1f11111f11fff1f1f111
f11f1f1f1ff11fff1fff11fff
ff11f1ff11111ff1111f1f111
1fffffff11ff1f11ff1ffff1f
f111f1f1111ff1f1ffff1fff1
ff11f1f1111f1f1f1fff1f11f
f111fff1ff1f1f1f1ff11ff11
f11fff111ffffff111ff11ff1
111111111fff1ff1f1f111111
11111f1111fff11fff111f11f
fff1111ff1f11f1f1ffff1ff1
ff1ffff1fff111fff1f11f111
1111ff1ffff1ffff11fff1ff1
ff1111ff11ff11ff1f111111f
ff1111f1ff1111f1f11ffff11
1fff1fffff1ff1f1f1f11ff1f
1f1fff11fff11ffff1f1f11f1
fff1f1f11f1f11ff11111f11f
f111ff1f1111f1ff1ffffff1f
f11ff111ffff1ff11ff11f1ff
111fff111f1f11ffff1fffff1
11fff1fff11f111f1111ffff1
f111ff1ff1111f1111f1ff111
11f11f111f11f111111ff1111
f1ff111fff1ff11f1111fffff
11f11f111ff1f11ff1111fff1
f111f1f1ff1f1f11f1f11f111
f1111111111f11f1f1111f1f1
ff1f11f1f111ff1f11f1ff11f
1f1ff1f11f1f1ff1f1ff1f111
fff11111f11ff1f1fffff1f1f
ff1fff1111fff1111f1111fff
1f1fff1ff1ffffff1111fff11
1f111f1ff1fffff11f1ff1fff
fff1f111111f1ff111f1f1ff1
1f1ff111ff1ffffff1f111f11
f111ff1f11ff1111111f111ff
1f1fffff1f1ff11ff1ff1ff1f
1f1111111f11f11fff1ffffff
fff1f1ff111fff1f1fffff1ff
f1fff11f1f1f11111f1111f11
1f1fff11111f11ff1ffffff11
11ff111f1f1ff1111fff1fff1
f1ff1f111fff1fff11fffff1f
1ffff11fff11ffff1111f111f
1f1ffff1fffff1ffff11ffff1
1f1ff11ff1fffff11f11f11ff
11111ffff1f11f1ff111ff11f
fff1ff1ffff1fff1ffff1f1f1
fff1ff111ff11f111fffffff1
ff11ffff11ff1ff1fff1f11f1
fffffff11f1fff1111ff111f1
1f11f111ffff11fff1f11ff11
f11f1f111ff1ffff1ff11fff1
fffff1111f1fff1ff1fff1f11
ff11f1111fffff11fff11f1ff
1111111ff1111fff1f11f111f
f1f11fff1f11ff1f1ff1ffff1
11fffff11ff1ff1f1ffff11f1
ff11111ffff1111111f111111
1f1ff1fff1111ff111fff1ff1
fff1111f1fff1ff1f11f11f11
1f11111111fff11fff1111f1f
ff111f1fffffff1f1f1ff1fff
1ff111f1ff1ff1fffff1ffff1
1ff11f1f1fff11f1111f111f1
f1ff1fff1f1f11ff1f1f1ffff
1f1f1ff1f1ff1f11ff1111f1f
1ff111ff11ff11fffff1fff1f
f11111fffff1f111f1ff1111f
1f11fff111f1f1111f11f1f1f
1ff1111ff111fff1ffff11f11
f111f111fff1ffffffff11f1f
111f111f1f1f1f111f1f1ff11
fff111fff11ffff1ff111111f
f111ff11f111f1f11111f1f11
f1f1ff111f1111fff1f1f1f11
ffff1ff1ff1fffff11f11f111
f1f1f11fff11111f111111f11
111f111f111f11f1ff11fffff
fff1ff1f1f1ffff1ff1f11f1f
fff11ffff11ff1fff1f1ffff1
fffffff1f11f1f1f1fff1f11f
11ffffff11ffffff111f1ff11
11f111f1ff1f1111111111fff
1ff11fff11f11f111f1ff11ff
1fff1fff11f1f11fff11ffff1
1f11f1ffff1ff1f1111fffff1
ff1f111f11f11fff1f1ff111f
1ff11f1111111ff1f11f1111f
111ffff1f1f111f1f1ffff11f
1ff11111ff1ff11fffff111ff
1f11f1f11111f1ff1f1f11fff
fff1ff1fff11f111fffff1ff1
1f1ffff1111ff11fff11f11f1
f11ff111ff1f1f1f11f11111f
1ff1f1f1f11ff1f11fffff1ff
1f11111111f11f11ff111ff1f
111fff1ff1ffff1f1f111ff11
111f11fffffff111111f1f11f
1fff1f11f1111ff11111fff11
ff111ff1f1f1111ff1ffffff1
f11f11f11111111fff1f1f1ff
1f111f1ffff1fffff1fff1f1f
ff1f1f1111ff111111f11fff1
ff1f1ff11ffff1ff11ff11ff1
1f11ffff11fff1fff11fff111
fff11f1ff1ffff11f1ff111ff
1f111ffff1f1111fff1f11111
f1111f11ffffff1fff111ff11
11f1f11f1fff11ff1111ff111
fffffff1ff1f11f111f111f1f
1f11f1ff11f1fff1fff1f1111
f111ff1fffff1ffffff1fff11
11f1111f111111fff11111ff1
fff11ff111f1111111fff11f1
f1ff1f1111f11f1111fff11ff
1f1111fff1f111111f1fff1ff
ff1ffff111ff11111fff111f1
111fff111f1ff111fff11f1ff
1111ff1111ff1ffff1ff1f111
1fff111fff1ff1fff11fff11f
1f1ffffff111111111f1f1f1f
111ff1ffff11f111ff1f1f111
1f11f1111ff11fff11f1fff11
1ffff1f111f111f1f1fffffff
111ff1f1f1fff1ff11ff1ff11
1f11111f1f1f1f1fff11f1f1f
1f1f1ff111ff1111f1f1fffff
1f1f111ff11f1f111ff1f1ff1
11111ff1111ff1fff11ff11ff
111f11ff11ff11ff111ff11ff
111111fffffff1f11f111f111
1ff11ff11ffffff111ffff1f1
11f1f11f1ff1f1f111ff11f1f
ff1fffff1111ffff1ffffffff
11f1111111ffff1ff111f1ff1
111f11ff1ff111fffff1fffff
ff1f1111fff1fff11fff1ffff
f11ff11111ffffffff111ff1f
11fff1111fffff11f1111f111
fff1f11111111ff11f1f11fff
f111f1f111f11f1ff11ffffff
f11111f1111f11ffff111ffff
11111ffffffff1f1111fff111
ff1f11ff111111ffffff11fff
ff1ff1ffffff1f1f1f11ff11f
111ffffff1f1f1fff11ff111f
11111f1fff11f1f1ffff1fff1
11f1f1f11f11f1111ffffffff
1fffff1f1f111ff1f11f1f1f1
fffff11f1ff11fff1f111111f
11ff1fff1f1f11fff11f1f1ff
1111111111fff1ff11fff11ff
1fff111f1f11ff1f1ff111f11
1111ff111f11fff1ff11fff1f
111111f11ffff111f11ff1ff1
ff11fff1f1ff1ff11ffffff1f
f1f11111ff1f1f11ff1f111f1
11f111111ffff11f1ffff1f1f
11ff1ff1f1111fff11f1f111f
1f1ffffff1f1fff1ff1ff1f1f
11ffff1fff1f11ff1111f1111
1ff111ffffff111fff11f1111
11111111f1fff111111ffff1f
1fffff1ff11ff1f111ff111ff
11f11ff11f1ff11f1ff1f1ff1
1f1f111ff1ffff111111fff1f
f1f1f11f11fff11fffff11f1f
1ff1fffffff11f11f1f1f1f11
fffff111111fffff11ff1ff11
fff111f1ffffff111fff11ff1
f1fff11f1ff1ffffff1f11ff1
11ffffff111ff1f1fff111111
1ff1f1fff11ffffff11f1ff11
fff11ffff1f1f111f11fffff1
11111f1111fff111fff11fff1
f11ff1f11f11f1f11f1ff11ff
f1fff1ff1f1ffff1f11f1f11f
1ff11111f1fff11fffff1f1f1
1f111f1fff1ffff1111ff1111
f1ff1f1f11ffff11f1ff111ff
f1111ff1f1f1111ff1ffff111
fff11ff1ff1f1f1f1f1ff1111
ff11f11f11ff1f11f11f1111f
f1fffffff1fff1f1111fff1f1
11f1ff1fff1f1f11ffff1ff11
11ff11111ffff1f11ff1111f1
ff111ff11f1f1fff1ff111111
1ffffff1f111111ff1ff1f111
ff1f1ff11f1ffff1f1f11ff11
f11ff1fff11ffff1111111ff1
f1f1111f1f11f1ff11f11ff1f
ffff1f1111ff1111ff111f11f
f1111f111111ff1f1ff11fff1
1ff1ffffff11fff111111ff11
11f1f11ffff11f111111f1fff
11f11fff1f11ff1ff1111f111
ff11fffffff11fffff1f11f11
111ff111ff11ff1ff11f111f1
f1f11fffff111ff1f1111ff1f
11f1fff1fff1f111ff1111fff
11f11f1ff1f1fff11f1f1ffff
1f11111f111111111f1ff11f1
f111f1f111111111111f111ff
11ff1f11111f1f1111ff1f1f1
f1f11ff1111ffff11fff111ff
f11f1111ff11f111f1111f1f1
ff1ff111f1111ff11f1f1111f
f1f1fff1fffff1f1f1ffff111
11ff1ffffffff1ffffff11f1f
f1f11ff1ffffff1f1f11ff111
ffff111ff111ff111111f111f
f1ffffffff1f1ff111f1f1fff
1ff1f111f1111f1fff11f1ff1
ff1ffff1fff111f111f111f11
1f11ffffff111f1111ff11fff
fff11f1f111fff11f1fff11ff
1ff11ff1ffffffffff1111111
111f111111111fffff1fff11f
1f1f1ffff11fff111111111f1
11f1111fff1fff1111f11f11f
11ff11fff11ff1f1f1ff1f11f
ff11f1111111f11111fff11f1
f1f1111f111f1fffff11f1f1f
111fff11f11111ffff11f1f11
1111111ffff11ffff1f1f1ff1
1ff1f11f1ff1111f11f1ff111
fff11f1111111f1f1ff1ffff1
111ffff1ff1f1f111f1ffffff
ff1ff1f111f111111111ff111
1111ffff1111ff111ff111fff
f1f11ff11f11f1111ff1f1f11
1111111ff111ff1ff11ff1fff
11ffff1f1111111f1f11f1fff
1fffff1f11ffffff1ff1fffff
11fff1f11f1fff111ffffffff
fff11fff11fff1f1f1f11f11f
11fffffff1f1ff1f1ffff1fff
11111fffffff11111ff1f1f11
ff1f11f1ff1ffff11f11fff11
fff1f11f1111111ff11fff1ff
f1f111f1f1f1111f1111f1111
11ff1f1f11111f11fffff11ff
11111f11f1fffffffff1111ff
f111fff1ff11f11f1f1f1f1f1
fff111f1ffff1f1f1ffff1f1f
f111ffff1111ff1ff1f111f11
111ff1111f1111f1f1fffff11
1ff111f11fffffffff1111111
f111f1f11fffffff111ffffff
ff111ff1f1f1ff1fff11ff111
f1f1fff1111f11f1ff1f1f11f
1111fffff1fff111111fff1f1
f11111f1ff1ffff11f1ff1111
fff1111111fffffff111ffff1
11111ff111ff11f111ff11fff
11f111f11ff11f11111ff1fff
f111111f1f11ff1ff11ff11f1
1f111111f11ffffff11f1111f
1111111f1f1f11f1ff1ff11ff
111f1f1fffff1ff1f1ff11fff
ff1111f11f1f11fffff1fff1f
1f1fff111f1f11ff1111111f1
ff1ffff111fff111ffffff1ff
f11fff111f111f1ff1111ff11
ffff11ff111f111ff11f1ffff
f1fff111f111111f11f1fffff
1f1f11111fff1f1f1111f11ff
ff1fff111f11f11ff11111f11
1f1fff1ffffffff1f1ff11ff1
11f1111f111111f11f1f1fff1
f11f1ff1f1111ffff1f11f111
ffff111ff11ffff1ff11f11f1
1ff11ffff1ffff111ffff1f11
1ff1ffff1ffff11ff111ff111
11f1f11f111ff111f1ff11fff
fffffffffff111111f111111f
fffff11ffff11ff111111fff1
1ff11ffff11ff111f1f1ff111
1fff111fff1111ff111111f1f
f1f1f1f1f1ff111ffff111111
f1ff1111fff11ff111ff1ff11
f1111ff11111fff1f1ff111ff
fff11f1ff111f11ff11ffff1f
11111fff1fff1ff11ffff1111
1ff1ff1f11ff1f1ff111f1fff
fffff111f11111f111f1f1111
1111f1ffff11ff11f1ff11ff1
f11f11fff1ff1f1fff11f11ff
11fff111ffff111fff1111111
f111f111ff1f1fff1f11f1f1f
f1111f11fffffff1111fff11f
111ff1111fff11f1ffff11ff1
ffff111111f1f11f111fff11f
f1ff111f1f1ff11ff1f11ff11
ff111ff1fff1f111f111fff1f
11f1f1f1ff11f111fff1fff1f
fff1fff111ff1f111f11f111f
fff1f11f11f111f111ff1ff1f
1fff1ff1ff1f11ffff111f11f
ffffff111111f1ff111111111
ff1fff111f1ff111111f1ffff
f11fff1f1ffff1f1ffff1f1f1
11fffff111ffff111f1f1f1f1
ff1f1ffff1ff111ff1f1ff1f1
f11fff11f1f11111f1111111f
111f11111f1fffff1f1f11f11
ff111ff1ff11f1111f1ff1ff1
1fffff1ffff1f111f1fff1111
ff111ff111f1f111ff11ff1ff
f1fff111fffff1f11ffffff1f
1f11ffff11ff1ff11ffff111f
111111fff1fffff1ff1f11111
111f11111ffff1111f111ffff
1111111f1ff1f11f1ffff11f1
1111f1ff1fffffff1fff1f1ff
1fff11111f1ffff11f1ff11f1
f11f1ff1ff1fff1f1ff111f1f
f11f111ffffffff1111ffff11
111111fffff1111ff1f111f11
ff1ff11ffffff1ffffffff11f
f1ff1fff1f11f11f1f11f11ff
ff111ffff1ff11111f11f1111
fff111ff1ff1ffff1111ff11f
ff1f1f1f111fff1fff1111ff1
11111111f11f111f111f1f11f
ffffff1ff11fffff11f1ff111
1111f11ff111ff11f11fff111
1ff1111fff111f1ff1fff111f
f1111ff11ff1ff111ffff1f1f
fffffff1f1f1fff1111f11f11
11f11111f11ff1ff11f111f11
ff11f1ff11fffff11111111f1
f1ffff1f1111f111111111f1f
11111f11ffff111ff111fff11
1ffff1fff1f1111fffff1f1f1
ff1ffff111ff11f1ff1f11111
111ff1f111f11f1fff1111f1f
1f1ff1ff1ff1f1f11f11fff1f
1ffff1f1ff1111f1fff1fffff
f1f1f1ff11ff11fff1ffff11f
f111f11ff1111ff11fff1f1ff
f11f1f1ff1f1f11ff1f1f1111
1f111fffff1f111f1f1f1ff1f
f1111ff1f1fffff1ff11f1111
f11ff111fff1ff1fff11ff111
1f1f11ff1f1fff1fffffff111
1f1f1f11f1fff11ffffff1f11
1ffff1f11f1111f1111f11fff
ffff1ffff111ff1f1fff11f11
111ffffff11ff11f111ff1f1f
f11ff11ff1111ff11ff111111
111ff11f11111ffff11f11fff
f111f11fff1fff11ff111111f
f11fff1ffff1fff1111111f1f
1111ffff11ffff1f11f111111
f11f1fff1111f1ff111111fff
ff1fff1fffff1f1f1f1f11f1f
11111ff1fff11f1f1111f1111
f1fff1fff1111111111111111
1ff11111111111f111f1f11ff
ff11111f11ff1fff11ff1ff11
f1f11fff11f111f111fffff1f
1ffffffff111ff111111fffff
f1ff1ff111fff1ff1ff11ff11
ff11f11ff11fffff1f1f1f11f
ff1f1ff1fff1f1f1f11111ff1
1111f1f111f11ffff1ff1111f
f1f1fffffff1111f11f1f11f1
f11f111ff111f1fffff11f1f1
1ff1f111111111fff1ffff111
111fffff11fff1f1ff1111f11
f11ff11fff111ff1f11f111f1
1fff1ffff11fff1fff1ff11ff
f111f1f111f11f11ffff11ff1
ff111f1111f1fff1f11ff1f1f
f1f11ffffff1fff11fff1ff11
f1fff1111f1fff11f1111f11f
ff111fffff111f11111111ff1
fff11f1fff1f1ff11fff1f1f1
f11111ff11ff11ff11f1f1fff
11f1fff11ffffff11f1f1fff1
1f1ff1111f11f11111ff1f1ff
1f1ff11f1fffffffff1fff111
f11ff1f1ff1ff11fffff11f1f
1fff1ff1f111ff1fff11fff11
ffff11f1f111111f1f11ff111
1111111f1ff1ff1ffffff11f1
1f11f11f111ff111f1f111111
1ff11ff111111f1ffffff1111
1111ff11111f1ffff11ff111f
1ff1f11f11111fff111f11fff
1ff11f1fff1111ff1f1ff11ff
f1f1fff111ff11111fff1111f
111ff1f1111f1ff1fffff111f
111f11111111f11ff1111f1ff
f11ff111111fff11f1fffff1f
ff11ff11fff1ff11f1f1f1111
ffff1f111ff111111f111f1ff
f1fff1ff1ff1f1f1fffff11ff
ff11fff1ff11f1fffff1f11f1
1f1f111ff11ffff11ffff1111
1ff11fff11f1111ffff11f111
f1fff1ff11ff111ffffffff11
1f1f1fff1f1f1ff11fff1fff1
f111f1ffff1fffff1ff11111f
fff11fffffff11ff1111f1f11
ff1ffff1f1ffff111f1fff1ff
1111f1ffff1f1f1f11ffff1f1
1f111111111f1ff1ff1111f1f
ff111f1111ff1ff111f111f11
fff11f1ffffff111ffff11ff1
11f11111ff111fff1111111f1
f1f1ff11f1f11f1f1111f1fff
1ffff1ff1111ff1f1fffff11f
ffff1ff1f1fff1f111fffff11
1ff1ff1f1fffff1f1ff111f1f
11fffff111f111ff11fff11f1
1ff11111ffff1f111f11fffff
1ff1ff11ff1f1f1ff1ffff11f
f1f1111ffff1f1f111f1ff1f1
1111f11f111ff11ff1fff11ff
fff11ffff1f11f11111ff11ff
1111ffff1ffffff1f1ff111f1
1ff11f1f1111f111ff11f1111
f1111fff1111f1f11ffffffff
ff1111111111ff1fff111f111
111111f111fffffffff1f1f11
1ff11ff111f11ff11ff1ffff1
11fff1ff111f111111ff1f111
1f11f111111f11fffff1f1fff
ffff11f111111111f111f11ff
f11f11ff11ffffffff1f1fff1
1111ff111f1ff1ffff11f1111
f111111f11fff11ff11f1f1ff
1fff1f1f11f11111ff11ffff1
f1f11ff111f111ff111f1f1ff
11ff11111f1f11fff11111f1f
ff11ffffff11fff1ff1ffff11
1f111f1111ff1111ff1ffff11
f1f1ff1fff1ff1111f1f11ff1
1ff111fffff11fff1ffffffff
fff1fff1ffff1ff1f1ff11111
f1f1f11ff1ffff1ff11ff11ff
fff1f11ff1f11111fff11ff11
11111ffff11f1ff1fffff1f11
fff111ff1ff1ff11f11f111ff
11111ff1ffffffff1fff1f1ff
1f1111f1fff1111ffff1111f1
f1f1f1ff1111f1f1f1ff11f11
fff111f11fff11fff1ff11f11
ff11f1ff1f11f1f11ff1ff1ff
ff111f1fff1111fff1f11f111
fff11f1fffffff1fffff1ff11
111f1fffff1ff11ffffff1f1f
1f1fffff1ff11fffff11ff11f
1f111111f1f1ff111ff1f1f1f
fffff11fff1fff1f111ff1ff1
1f11f111f1f1ffff1f11f1f11
ffff11f1f1f111f111f1ffff1
fffffff1ff111f1ff1f11fff1
f1111ff1fff1fffff1ff11ff1
1ff1ff111111f1f1fffffff11
f111ff1ff1f11ff1fff1f1ff1
ffff1f1f1111ff111fff1ffff
f1ff1f1f1ff111ff1ff11ffff
1f1f11fff11ff11fffff111ff
1ff111f1f1ff1fffff1fff1ff
1111ff11f1f1f111f1ff11f11
1f1f1fff11fff1ff111111111
1f1ff11f111f1ff1ff11f11f1
f11f1f1ff11f1fffffffff111
ff1ffff1f1f11f11ff11fff11
111111ff11f1f11f11f11f1ff
fffffffff1ff111111f1f1fff
ff111ffff111fff1111ff11f1
111f1f1f11f1f1ff11ff11fff
f1ff111fff1f1111ffff1ff11
fffff11f1ff111f11ff1fff1f
111ffff11f1fff1f1fffff1ff
111111f1ff11f1ffffff1ff1f
ff1f1ff111f11f1f111fff11f
ffff111111111111ff11f11ff
ff1ff1fff1111ff1ffffffff1
ff11ff1111f1f1fff111f1111
f1ff11f11f1f11fff11ffff11
fffff1f1f1ff11ffff11fff1f
1ffff1f1fff11fff11ff1f11f
f11111f1ff1f1f11fff1ff11f
1ff111fffffff111f11f1f11f
11fffff1fffffff1f1ff111ff
1f1ffff1ff11ff1f11fff11f1
fff111f1f11ffff111fff11ff
f1fff11f111fff1f1f1fff11f
ff1f1f1ff111f1ff11ff1fff1
f11f1f1f11fff11f111f1ff1f
f1ff1111ff1f11ff111f11f11
1ff1f111f1f1f1f11f11ff1f1
f1ff1fffff1f1f1ff1fff1111
1f1fff111ff1f1ffff1f11fff
1ff1f111ff1ff1fff1f1f111f
ff1111111111ff1111111f11f
fff111fff111f111f1f111ff1
f1111fff111ff11111f1ff11f
111ff1ffff1f11f11ff1fff11
fff11ff111ffff11ff111f11f
111ffffffffffff1111f1fff1
11fff111fff1fff111fff1f1f
11ff11ffff1ffffff1111111f
fffff111ff1f1ff1ff111111f
f111111f111fff1fffff1ff1f
11f1f11111f111ff111f1ffff
f1f111ff11f1f1f1f1f1f1ff1
1f1f11ff1111f11111f111f1f
ffff1f1f1111111f1111ff11f
ffffffffffff11ffffff1f1ff
1fff1fff111ff11f11ff1f11f
11ff11f11ff1ff1fff1ff111f
f111f1ffff11f1111111ff1f1
1f11f1111fffff111ff1fff11
fff11ff1f11f1111fffff11f1
1fff1ff1f11f1ff1fff111f11
f1fff1111f1f1f1ff1ff1fff1
ff1fffff1f1ff111ff1fff111
11ff1f111f1fffff111f11fff
11ffff11ff11fff11f1f11ff1
ff11f1ff11f1ff1f111f1ff1f
fffff1f1fff11fffff11111ff
f1fff1ffff11f11f1f111ffff
f11fffff11111fffff1ff1ff1
1111f1f111fff1ff11ff1fff1
1f11f11f1ff1ffff1ff11f1f1
ffff11ff11f1fff1111ffff11
11111111fff1f1ff1ff11ff1f
1f1ff11f11111fff111fffff1
fff11111fff1ff1f1fff11ff1
ffff1f111fff1f1ff1fffff11
11f111f1f1111f11111ffffff
11f1f1ff1111ff11ff11ff111
1f1ffff1f11f11ff1f11f111f
f11ff1ff1f1111ff1ff11f11f
1fffff11f11f1f1111f1fff1f
f11ff1f111ff11fff111ff1ff
fff1f1111f11f111f1f1fff1f
f1f111fff1fff11ff1fff1f1f
1111ff11fff1fff11111f11f1
1fffff1111ff1f11111111f1f
11f1f11ff1f11ffff111ff111
1f111ff1111fffff11fffffff
fff1f11111f1ff1f1111f1fff
1f11ff1f1f1ffffff1f111f1f
111f11f11f1fff1fff111ffff
ffff11ff1111fff11ff111fff
f11f1f1111f111fff11f11fff
1fff1fff111ffff1ff1f111ff
fff1fffffffff111f1ff11f1f
ff1f1fff11ff111ff111f1111
1fff1ff1f111f1ff11f11ff11
fff1f11f11111ff11fffff1ff
1ff11fff1f1f11ff11f1ffff1
fff1f1f11f11f1fff1f1ff11f
1ff1ffff111f111f11ff1ffff
ffff11ff111f111f1ff11f1ff
1ff11f11111111fffffffff11
ff1f11ff1f1ff11ff1f1ff1ff
1111f1f11f1ff1f1ff111fff1
fff11f1f1ffff1ffff11f1fff
1111f111f11ff1f1ff1f1ff11
111f111f1f1f1f1111f111fff
f1f111ff1fffffffff1ff1f11
f1ff1f1f111111f11111f111f
11ffffffff1ffffff11f1fff1
ff1111111ffffff1fffff11f1
ff11fff11f111fffff1fff11f
f1ff11ffff111ff111f1f11f1
1f1f11f1fff1f1f1f1ff1ffff
ffff1f11ff1ff11ff111111f1
fff1111111f1111ffff1ffff1
11f11f1111ffff1fff1ffff11
1fffffff1f1ff11f1ff111111
1111fff1fff11f11ff111ffff
1111ff1111f111f11f11f11f1
1f1f1111ff11111f111ff11f1
ff1ff1ff1ffff11f11f11111f
ffffffffff1f1f1ff11ff1111
f11111f1111ffff11f11ff1ff
1f1111fff1f1ff1f11111f111
f111ff1111fff11fff111f111
f11ff111fff1111ffff111fff
fff1ff1fffff11ff1f11fff1f
1111fffff1f11f1f1f111ffff
1fff111fff1111f11f11ff11f
11f1ff1f1ff1f111ff1f111ff
111111111f111f111f11111ff
f1ffff111f111f11111f1ff11
f1f1f11f11ff11ff1fffff1f1
f111ff11f1fff1ffff1fff111
fff1ff111ff11f11ff11fff11
f1fff11ff1f1111f1fff111f1
f1fff11ff1ff111fff1f1111f
11ffffffff1ff1f1ff1f1fff1
f111ff11fff11ff11f11fff11
fff1f1f1ff1ff1f1ff1f1f1ff
1f1f1f1fff1111f1f1fff1fff
11ffff111f1f11111ff1fff11
ffff1f1111f11ffff11ff11f1
11ff11f1f111f111ff1f1111f
f1f1f111fff1111ff1111111f
f1f1fff1ff1f11ff1111f111f
fff1f1111f111fff1f1f11f11
f11f11ff1fff111fff11ffff1
1ffff11fff1ff11fff1fff11f
1f1ff1f11fffff1f11fff111f
f111f11f1111ff11f1ff111f1
1f1f111f1f1f11111ffffff11
f11f111ff1f111f1fff11f11f
fffff1fffff11f1ffff11ff11
f1f11f1ff1fff111ff111f1ff
ffffffffff1111111ff1f1fff
fffff1fffff11fff111ffff1f
fff111111f1f11111fff11fff
f1f1ff11ff1f1f1ff1ff1111f
11ff11111f11fff1ff11fffff
f1ff1ff1ff1111f1f1111f1ff
ff1fff11111fff11111ff1fff
f11111111ff11f1111111f11f
111ff11111111f111f11f1111
1f1ff1f11fff1111f1fff1ff1
111f111f1f1111f1fff1ff11f
11ffff11ff1fffffff1ffff11
1ff1ff11f111f11fff1111ff1
111f1ffff111111f1f1fff11f
11f11f11111f11ffff1f1f111
ff1f1f1ffff1ff1ff1ff11ff1
1111f111f11ff1fff11f11fff
1f11111f111f111111f1f1fff
11111f11ff111ff1fff1f1ff1
1ff1ff11f11fffffff11f1f11
1ff11ffffff1f1f1f1111ff1f
f11f1f1f1f1fff11f111fff1f
fff11f11f111f1f1ff1fff111
111ffff1f1111ff11f111ff1f
f1111111ff1ffff11ff1f1fff
fff1ff1ff111f11f1ff11f111
1f1fff111ff11ffffff111fff
1f1ff1fff11111f1f11111f11
ffff111f1111111ff11f1f111
11f111f111f1f1ff11ff11fff
fff111fff111ff1ff1fff11ff
f1ff1fff1f1fff1ff1fff1f1f
111f111fff11f1f1ffff1f111
1fffff11f1111f1ff1ff1ff11
fff111ffff11ffffff11f1f1f
ff1fffffff1f11f1f1111f111
f11ff1111f1f111f1fff1fff1
11f11f11ff1ff11fffffff1f1
f111f11f11f1111ff11f1f1f1
1f111fff1111ff1fff111f111
f11fffff1fffff111ff11fff1
f11111ff11111f1ff1f1fff1f
ffff1fff11f1f1f1f1f1ff111
1f1ffff1f1f11f111fff1f1f1
fffff1111f1fff1111f11f1f1
1fff1fff11fff11ff1ff1111f
f1ff11f11fff1ffffffff111f
1f11f111ff111ff11111fff11
1ff11ffff1ffffffff1f111f1
1ff1fffff1ffff1ff1f1f1111
11111111ff1fffff1f111f1f1
ff11f1fff11ff11f11f1ff1ff
f1111ff1f1fff1fff1fff11ff
fff1ff1f11111fff11fff11f1
f1111ff1fff11fff11f11fff1
1111fff1ff1f1f111f11f1fff
11111f1111f111ff1111f111f
fff1111111ff11fff1f11111f
1fff1111fff1f1f11111f1ff1
111f11111ff11f111f11ff11f
1ffffffff11f111ff11111f11
11f111ff11fff1f111f11ff11
fff1fffff1111ff1111ff1f11
f1ff1fff1f1ffff1ff1111111
f111fff1ff111fff111f11111
ff1f1f11f1ffff1fff1f11111
1ff1111ff111f11f11fff11ff
f1f1111f1f1f1111ff1fff111
f11f11ffff1ff1ffff1ff1f11
ff1f1ff11f1fffff111111ff1
ffffff1f1f1f111fff111f11f
f1ff11f1f1ff1f1f111111111
f1f1fff111ff11ffff11fff1f
1ff1fff11f111fffff111ff11
11f1fff11111f1ff1ff1ff1f1
f1fff1111ff111ffff1ffff1f
f11fffffff1f11111f1ffffff
f1ff1111111f11f111111f11f
111fffff111fff111ff111111
ff11ff1fff1fffffffff1ff11
ff11ff111fff1ff1111f111ff
11fff1f11111fff1ff1f1f1f1
1ff111f1ffffff11fff11f1f1
11f1f1ff1f11fffff1fffff1f
11f11fff1ff1ff111f1f11fff
f11fff1f1ffffff1ff11ff111
1111f11f1f1fff11f1f1111f1
1f1ffff1fff111fffff1fff11
f111f111f1ffffff1f1f1f11f
11fff1f111f1ff1f11111f111
111f11ff1111111ff1f1f1f1f
1111f11ffff1f1ff1f11ff1ff
11fff1f1f11ff111f1f11ffff
11fffff11fffff1ff11ffff1f
111ff1f1ffff11111f1ffff1f
f111f1ff1111111ffff11111f
ff1f1111fff111111f111ff1f
1fffffffffff1ff111fff1111
f1f11f111111ff1ff11f1f111
fffff111ffff11fff11ffffff
1ff11f1ff1fff1ff11f11111f
f1f1f1f1f1f111fff1111f111
1f1f1f1fff1111ff1f111f111
ff11ff11111111f1fff11ff11
fffffff11ff1111fffffff111
1f11fff11ffff11fffff1ffff
1ff11f1fffff1ff1fffff1ff1
f11ff1f111ff1f111ff1f11f1
ffff1ffffff1ff1f111111f1f
11f11f1fffffff1ff1ff1f111
11ff1ffff11ff1f1f1fff11ff
11ff11f1fffff11ffff1f11f1
f11111f11f11ffffffff111ff
11f111ff1f11fff1ffffffff1
11111ff11fff1111111111f1f
11fff1f11f1fffff1111f11ff
11f11ffffffff11111f1f1ff1
f11f11111ff1f111f111f1f1f
1f1111ff11f1f111ffffff1f1
f11111111ff11ff111111ff11
f1f11111ffff1f111f11111f1
1f11111ffff1fff1f11fff11f
ff1f1fff11f11111f1ff1f1f1
1ff1f1ff111f1ff111ff1ff11
1f1fff111ff111fff11f1ff11
f111ffff11ffffff111f1f1ff
f111f111ff1f1f1ff11f11f11
fffff1ff11fff11fff111f111
1f1f111ff1111111f111ff1ff
11ff1f11ff111f1f1111f1fff
1ffff1ff11fff111ff11fff1f
f1f1fff1f111f11ff11f1f1f1
11f1f1f11f1111ff111f1f1f1
fffff1f11f1fff11fff1111f1
11fff11fff1f111111ff1f1f1
1ff111ff11fff1ff11ff1ff1f
11ffffff11ff1111fffffff11
1111ffff1f11f11fff1111f1f
11fffffff11ffff11ff1f11ff
ff1f1111f1111f111ff11fff1
fff11ffff1ffff1ffff111f11
ff1f1f1f11ff11fffff111f1f
1111ffff11ffff1111f11fff1
11fff111f1111111f1111111f
ff1ff111111f1f1ffff1fff1f
1111f1111f1111111ff11ff11
fff1fff1f111111f111f1f1ff
11f111f111ffff1ff1f11fff1
f111fff1ffffff1f1fffff11f
ffff11f1111ff11111111111f
1f1f11fffff11ff11111f11f1
f11fff11f1111f1f1ff1111f1
ffff11fff1f1f1111f1111f1f
fff11f11111ffff111f11ffff
ff111ffff1111111fff111f11
fffff1ff1f1ff1fffff1111ff
f1f11f1111f1fffffff1f11ff
fff1f1f1f11111fff111f111f
f11f1ff1fff11fff11111fff1
11ffff11111111111f1f11f1f
1f1f1111f1111fff1ff11ff1f
fff111ff111ff1111f1ff11ff
f1f1f1f11ffff111111f1f1ff
f1fff11f1f1f11111111ffff1
ffff1111ff1f11f111111111f
1111f111fff11f1f111ff111f
f11f1fff1f1111111f1f1ffff
1f1f1f11f11ff1f11fff111f1
ff111f11f111f11f1111f1ff1
f11ff1fff111fffff11f1f11f
11ff111111f1f1f111ff11111
1ffff1fff11f1111f1ff1fff1
f1ffff1ffffff11f1f1f111ff
fffffffffff1f1f11ff1ffff1
f11ff11111111f1111fff111f
11f1fff1ffff1fff1111f1111
ff11111111f111f11ff1f11f1
f1111f11f111f11f11f1111f1
ffff1f11f111fffff1111f11f
1ff111ffff1f1f111ff1fff1f
ffffffff1111fff11ffff11ff
ff111ff1ffff1ff11f1f1ff11
f1ffff1f11f11f1ff1f111fff
111fff111fffffff11ff1fff1
f11ff1ff1f1f1ffff11fff11f
f11ff1111111f11f11f1f1111
f1f11ff1f1111111fffffffff
1f1fff1ffff11f1ff1f11f111
1111fff11fff11ff1f1111f11
ffff1fff11f1f11111f111f1f
1111111111fffff1ffff111ff
f1fff1f1ffff11fff11ffffff
11111111111f1f1f11ff1ffff
1ff111f1111f11111f1ff11ff
f11fff1f1ff1111f1ff11f11f
ff11ffffff1f11111f1ff11ff
11111fff1f1ff1f11f1f1111f
111ff1f11ff1ff111fffff111
ff111f11f1ffff1111ff11f11
ffff1fffff11ff1f11f11ff1f
fff11f1ff1111fff11111f111
11111f1f11fff11ffffff111f
f1ffff11fff11f111f1f111ff
ff1111111f1fff1f1fff11ff1
1ffff11f11f1ff111ff1f1f11
f11f11fff1ff1f1f1f1fff1ff
f1ff1111f11ffff1fffff11ff
1ff11f1f111f1fff1ff11ff11
1fff11fff11f1f1f1111ff11f
1f1f1ff1111111f111ff111ff
11f1ff1111f11f1ffff1fff1f
1f1f1f11ff111fffffff1ff11
1fff1fffffff11ff1f1111ff1
f11f11fff1f1f1ff11f1f1f1f
1fff1ff1fff1ff111f111fff1
fff1f1ff1ff1f1f1f1fff111f
1ffff1fff1f1fffffff1fff1f
ff1fff1f1ffffff11111ff111
1111fff111f1f111fffffff1f
fff11f1111fffff1fffff11f1
11f1ff11f1f111f1ff1f1fff1
ff1f1ff1ff1ff1fff1fff111f
f11f1ff1ff11ff111fff1f11f
f1ff1ff1f1ff1111f11ffff1f
11111f1111f1f1111ff1fffff
1fff11ff11fff1f1111f11ff1
ff1f1f111f1fff11111f111ff
111f11ff111f1f111ff1f111f
111fff1ffff111ff11f1fff11
1f1fff1f111ffff1fff1f111f
f1ffff11ffffffff11f11f1ff
f1ff11ff1f11ff11f1ffffff1
11111f1ff11ff111f1111ffff
111f11ffff1ff1ff11f11ff1f
fffff1111f1f11111ff1f1fff
f1ff1ff111f1f111fff1f1f1f
111f11f11f1f11ffff11ff1f1
f11fff11f1f11ff11ffffff11
11ff1f1111ffff1f1f1f1111f
1f11f11fffff1ffff1fff1f11
11fffff11111ff11ff1f1f1ff
f1f11f1f1f11f1f1f1ff11f11
1fff1ff11f11ff11f11fff1ff
ff1f1f1f1ff11fffff1ffff11
11f111ff1ff1ffff111ff1ff1
ffff1f1ffff1fffffff11f1ff
f1111ff1fffff111f11ff11f1
1ff1f1f1fffff111f11f111f1
1ffff1f1ff1111fff111f1fff
1ff1111f111ff11ff1fffff1f
fff11f1111f1f1ffffffff1f1
1ffff11f111111f11111ffff1
1f111fff11f1fff11f11f11ff
ff1f11fff11ff11ff1f1fff1f
111f111f111f111f111f11f1f
11f11fff1f1fff11ff11111ff
f1f1111fff1f1fffffff1f111
1f11111fffffffff1f1fff11f
111fff1f1fffff1f1111ffff1
111f1ff1f1fff1f11ff11f1f1
111f11111fff1f1ff1f11f1f1
f1f1f11f1ff1fff11f1fff1f1
f1f1f1111fff11f1fff111f11
f111f11f111ff1f11ff11f11f
1fffffffffff1fffffff11ff1
ff1f1f11fff11f111ffff1ff1
ff1ffffff11111ff1ff1ffff1
1ff111fffffff1fff111ff1ff
f111f1f11ff111ff1f1111f11
1111fffff1111ff1ff1f1f111
fff1ff11fff111f11ff11f11f
111ff111fffffff1f11ff11ff
f1111f1f11f11fff11ff1f111
ff1ff1111111f1f11fff11f11
11f1f11f1fff1fff1f11f11ff
ff1f11ff111ff1111111f1f1f
ff1fff111f111f111111f1ff1
f11fffff1f1f1111f11f1f111
f11111111f11ff1f11ff1f1ff
f1fff11fff1ff1ffff11f1f1f
ffff1ffffff1ffffff1fff111
111ff1ff111f11f111f111f11
ff1ffff11f1ff1f111111ff1f
ffff1fff111ff11111f111fff
11111f1f111f1ffff1111f1f1
f111ff111111fff1f111f1f11
111f1111ffff111ff1111fff1
1ffff1ff11ff111ff111fffff
111ff11fff1ff1fff111f11f1
1111f1111ff11ff11ff1f1ff1
1ffff11ff111111ff1f1ff1f1
f111ff11fffff1ff1f1111111
f1f1ffff1fff1ffff11ff1f1f
11fff1f1ff11f111fff111ff1
ff111f1f11fff111111ff1f1f
1ff111ff11fff11ff1ff11ff1
ff11ffffff1f1111f1111fff1
f1111111f11f1fff11f111111
ff1111f11ffffff111ffff1f1
ff1ffff1f1f1ff1ff1111111f
f1f1ffff111f11111fff11111
1ffffff1f1f11111ff1111f11
f1111f11f1111ff11ff1ff1f1
11ff111ff1ffff111f11ff1ff
fffff1ffff1f1f111ff111f1f
1f1ff111ff1111f1ffff1ff1f
f11ff1ff11fffff111ff1ff11
11111111ff1f11fff1f11ff1f
11111f1ff1f1f1f11ff1111f1
1f1f1fff11111fffffff1f11f
1f1f1111f11f1ffff11ff1fff
11ffff11f1111ff111111111f
f11f111111ff111fff11f11f1
f11fff11f1ff11f1f1fff1ff1
fff11f111111f11111111f11f
1ffff1f11f1f1ff11ff11fff1
fffff1ff1f1f11f111f1ff1ff
1fff11f111ff11ffff1ff1ff1
1fff1111f1fff1ff111f1ff11
f1f11f1f1ffffff1ff11f111f
1f11ff11f1f11ffff11f1ffff
ff1ff1111f1f1ff111ff1ff1f
1ff11f1f1f11ff11ff11ff1f1
f1f1ff11f1f111f11ff1ff11f
1111f1ff11111f11fff11fff1
ff1ff1ff11f111f1111ff1ff1
f1ff1ff1f1fffff1ff11f11f1
1f1f1fff1ff1fff11f1f11111
11f111ff1f11f1111fff1111f
1fff11fff1ff11f11f1f11ff1
ff111111f111f1f1ff1111111
1fff11ff111111f1f1fff1ff1
ffff1fff1f11f1111f11ffff1
11f11ffff111ffff1ffff1ff1
f11ff111ffff11f11ff1fff11
111ff1fff1f1f11ff11ff11f1
fff1f111ff11ff1fff1fff1f1
1111ff1fffff11f1fff111111
fff111f1f1ff111ff11111ff1
fff11fffff11ff111f1f1fff1
1f1f1f11ff1fff111ffff1f11
ffff11ffffff1f11fff1111f1
ff1f111111ff1f11ff111ff1f
f111f11ffff11ff111fff1fff
fff1fffff11fffffff1f1f1f1
ffff1ff1ff1ffff1111f1f11f
1ff1ff1f1f1f11111f111f1f1
f111f111fffffff1ff1111f1f
1ffffffff1ff1ff11ff11f111
f11ff1ffff11f1fff111f11f1
f1ff1fff11ff111ff1f1fff11
f11fff1111fff11111111f1ff
1fff1ff11111ff11fff1f1111
11ffff11f11fff1f1fffff11f
11111ff1f1ff1f11fff111fff
1111f11ff1f1f11f1f11111ff
111fff11f11f1ff1fff1ff1ff
ff1ff1f1ff1111111111ff11f
fff111111ff111111ff1ff1f1
1fff1ffffffff111f11ff1fff
f1f111ffff1fffff11f111f1f
fff1f1111f11ffff1f1ff1ff1
f1111ff111ff11ff111f11fff
f11f11f111f11fff11f1111f1
1ff111f1f1ffff11111f1111f
ff11ff11ffffff111f1f11f11
f1f11fff111ff1f111ff1ffff
1111f1f111f11f1fffffff11f
ffffffff11fffff11fff1f11f
ff1ff11f1ff1ff1111ff1111f
f1111f1ffff1111f11f1f11ff
1ffff1111f1f1fffff1f1111f
ff111fffff11fff11111fff11
ffff1ff111f11f1ff1f11f1f1
f111ff1f1f11f11f11f11fff1
f1f1f1111f1f1f1fff1ff111f
1f1ff1f111f11111ff1fff1f1
ffffff111ffff11f111f11f1f
ff11ff11111ff1ff1f1111f1f
11f1f1111f1ff111f11ffff11
111f1f1ff111111111ff1ff1f
f1111f11f1ff11111f1f1fff1
f1ff1ffffff111f111ffff1f1
f1ff11fff1fff111111f1f111
ff1ff111f1f1ff11ff1f1ff1f
f1f11111fff1fffff1f11ff11
ff1fff1f11111f1f1f11f1111
f111f11f111ff11fff1fff1ff
ff1111ffff1fff1f1ff1111f1
ffffff1111f11111f111ffff1
1ffff1f11fff111ff111f1ff1
1f11ff111f1f1fff1fff11f1f
ff1111111f1f1f111fff1f1ff
1fffff1f1fffff111f1f111ff
f111f11f111f1ff1f1f1fff11
ff11ff1f1f1111ffff1111f11
ffffff11f1fff11f1f1f11f11
11111f11ff1ff11f1111fffff
111fff1111ff1ffff1f11fff1
1ff1fffff111111ffff111111
ff1ff11f111fff1fffff11fff
111f111f1f11111ffff1f1fff
f1ff1f1f1ff111f111f111f11
ffff11fff1ff11f1ffff111ff
f11fff11ff11ff1f111f11ff1
111ffff1f1f1fffffff11f111
1111111f111ff1f111f1f11ff
11111ff1111f1f1f11fff1111
11fffffff11f1f1ff11ff1111
11f111f111f11ffffff11111f
fff1ffff1ff11ffff1ff1ff11
1f1f11f1f1111ff1111ffffff
11fff1ff11f111f11ff1fffff
f1f11ff1111f11111fff11fff
1f1ffff11f1f111f1fff1f1f1
1f1f111111111f1f1f11ffff1
ff111fffffff11fff1f1ff11f
ff111fff1fffff1ff1ff11f11
111f1f11f1ff1fff1f11ff111
11f1fff1fff1f1fff1f11f111
1111111111fff1ff11f1f1111
fffffff111111111fff1fffff
f1ff11fff1ff11ff11f1f1111
1111ff1ff1f1111111f1f11ff
f11fff1111f111111f111111f
ff11111f11ff1fffffff1f1ff
fff1ffff11f11fff111f1ffff
f11111111ff1ff1f1fff1f1f1
1fff111fff11f1ff11f1ff11f
111f111fff11fffff1f1fffff
1f1ff11ff1f1111f11f1f1111
f1111f1f1111f11111ff1ffff
ff11fff111111111f1ff1f11f
11f1f1fff111f1111ff1fff1f
f1111ff111f11f1111ffff111
1f111ff1f1ffff1f1fffff11f
fffff11fff1f1f11f1f1f1111
f1ff11fff11111f1f11ff111f
1f111fffff1fff111fff111f1
111fff111ff11fff111f1f111
f11f11111f1111f1111ff111f
f1f1f11fff111fffff1111fff
1111fff1fff11111111ff1111
f1ff1f11ffffffffff1f11f11
1ffffff11f11f1ff111ffffff
ff11ff1ff1fff11f11fff111f
fffffff11fff111111f1ff1f1
f11fff11ffffff111ffffffff
1f1111fff1f11111111f111f1
11111fff11ff1f1111ff11ff1
1f11f1111f1f1f11ff1f1f1ff
1f1111fff1fff11f11f1fffff
ff1ffff111ff111f111f1fff1
ff11fff11ff11f1111fffffff
f11fff1f11f1f1ff1ff1f1ff1
1f111f1f111fff1ffff11f1ff
1fffff11f1ffff1111f1f11ff
ff1fff1ff1f1111111111111f
1ff111f1f1f111ff1ff111111
f1f1111f111f11f111f11ffff
1fff1ffff111fff11f1ff111f
11f1ff11ff11111ffffff11f1
ff111111ff111f1ffff1f1f1f
11ffff1f1ffff1111111ffff1
1f111ff11fff1f1ffff11f1f1
1ffff1ff11111f111ff11111f
11f1f1fff11f11f111111ff11
11111f1f1f1fff1111fff1111
f1111f11ff111ffffff11f1f1
f111fff11f1f111f1f11ffff1
11ffff1111ffff111ff1fff1f
1ff11f11fff1f1f111f1ff111
ff11f111fff1f1ff111f11f1f
ff111111f1f11f1ff1f1ff1f1
ff11f11111f1fff11ffff11ff
f1f1f1111ffff1fff11f1f111
fff1f1f11f1fffff1f1f1ff1f
111111ff11ff1ffffffff111f
1f11f1ff11ff11f1f1f11f11f
1111111fff1ff1ff1f1ffff1f
11ffff1ffff111111ff1f1ff1
f11111f11f111ffff1ff1f1ff
11f1111ffff1fffff1f1ff1f1
111f1f11f11f11f11f1f1f1f1
1ff1f111f1fff1fffff1111ff
111ff1ff11ffffffff1f1f111
ffff1f11ff11ff1f1ff1f111f
ff1f1ff1f1ff111f11f11f1ff
1111f11ff11fff1f11111fff1
1f1fffff111f1f111111f11ff
111111f11111f1ff1ff11ff1f
f111f1ff1f1ffff1f11f1ff11
1ffff11ff1111111111ff111f
f1f1ff1111ff1fff1fff11ff1
ffff11111f11111ff1f1ff11f
1f11111f11f1f11f1111fffff
ff1111fffffff1fff111f1111
11f1ff1ff1f11fff1f11f1111
111fff1fff1f1f111f11fff11
ffff111f1f111ff11ff11ff1f
111f1f111ff1111fffff11ff1
1fff1111f111111f111ff1fff
f11f1ff1ff1ffff1ff1111ff1
111f111f11f1f1ff11fff11ff
f11f1f111f111f11111111fff
11ff11111f1f111ff1f11ffff
ff1ff1f11111fff11ff1fff11
11ffff1111f1111111fffff11
1111f1f11f1f1f11ff11fffff
1ff111f11f11fff11f1f1ffff
f11fff111ffff11fff1ffff11
f11fffffff1ff1f11ff1f1f11
1f1f111fff1f11f11111f111f
111ff1f11f111fff111111111
1ff11f1f111ff11f1ff1f1f11
1f111ffff1ff1111111f1fff1
1ffff1f1111ff11f1111ff11f
111fff111f111f111fff1f1ff
111111fff1f11ff1ffff1ff11
ff1f11f11ffff1ff11fff1fff
ff1f111f11f1fffff1f111fff
1ffff111f11f11f1f1f111f1f
f1fffffff1fffff11fff1111f
1f1fffff11ff1f111ff11fff1
1fff11111f1ff11f11f1f1111
11fff11ff1f1ff1ff111111f1
f1f11f1fff11f1111ff1ff1ff
11f11fff1ff1f1ff1111f1f1f
1fffff11ff111111f11f1ff1f
1f1f111fff11f1fff11111ff1
1ff1ff1ff1fff111f1f1111ff
11ff11ff1fffff1fffff11f11
f1fffffff111fff11111fff11
111f11f11111ff1fffff11111
ff1111111ff11fff1ff1f1ff1
f1ff1111f1ff11f111ffff1ff
f1f1f1fffff11fffff111fff1
f1f1111ffff1ffff1f111f11f
1f1ff1111f1fffff111111fff
f11111ffff1111fff1f111fff
ff1111111f1f1f1fff11ff1f1
1111ff1fff11f1ff11f1f1f1f
fffffff1111111f1f111fffff
1ff11ff1f11111f111ffffff1
ffff1f1f111f111ff1ff1f11f
1111f11ff1f1ff1ff1f111f1f
f1f1fffff1f11f1ff111f1f1f
111f11f11f111ff1fffffff11
1f1f11f111ff1111f11111ff1
1fffff11f11f1f1111fff1f11
1111ff1ff1f11ffff1ffffff1
11111111ff1ff1f1111ff11ff
1f11ff1f11ff1f1f111f1f1f1
ffff1f1f111f1ff1f111f1f11
1f1111f1ff1f11f1f1fff1fff
11f111f1f11f1f1fff1fff11f
f1111111ff1f11f1111ff11f1
1111ff1fffff1ff1f11111ff1
111f1f1fff1f111ff1f11fff1
ff1ff1f111111fffffff1f1f1
1111ffff1111111ff1f1111f1
1ff1f111f11ff11ff1ffffff1
fff11111f1fff1fffff11f111
f1111f1f1f1ff1111f1fff111
ffff111ff11ff1f11fff111ff
11ffff1111fffff111ff1ff11
fff11f1ffff11f1111ff1ffff
ffffffff1111f1fff1ff11ff1
1fff11ff111f11ff11ff1f11f
1f1ffff1f11ffff1111ff11ff
ffff11ff111fffff1fff1f1f1
1f1f1ff1f1f1f1ff111f1f111
ffff1ff1f1ff1f11ffff11ff1
fff1f1f1ff111f1f11f11ffff
11f111f1fff1f111f1fffff1f
ffff1f1ff1f111f1f11111f11
1ff1ff1ff11ff1ff11f1f1f11
ff1ffff1f11ff11fffffffff1
ff1fff1f111f1f11ffff1111f
fff1ff111fff11fff1111fff1
f11ff11ffff1fff1ff1ff1ff1
ff1fffffff11ff11ff111f111
1ff1f11f11fffff1f1f1fff1f
1ff1ff1ff1f111ff1f1f111ff
11ff1f11ff1f1f1f111ffff1f
ff1ff111ff1111f1f1f11f11f
11111fff11f1f1f1f1ffff111
fff11f11ffff11ffff1111f1f
1fff1f1f1f111ff111f111f1f
1f111f11ff1111f1f1f1f1f1f
f111ff11ff11f1f1111111f1f
11ff1f11ff1fff1ffff11111f
1f11f1f1ffff1ff111f1f111f
f11ff1111ffff1ff11f111111
1ff1ff1ff11ffff11f1ff11ff
f11ffffff1f1fffff111ff111
ffff111fff11f11111f1f1ff1
111f11f1ff1ff11f1ff11f111
f1111fffff1ffff1f1ff11f11
ffff1111111f1fffffff1ff11
f11f11f1f111fff1f1ff1111f
ff11f111ff111ff111111111f
1f11fff1fff1f1f1f1ff11fff
1fffff1111f11fffff11fffff
11111fff11f11f11111111111
ffff1f1111f1f1111f11f1f11
1111f1f1f11f1ff1ffff1f111
ff1fff1fffffff11111111111
ff11fff111111fff1ff1fffff
ff11111111f111111fff111ff
1111111f11fff1111f1f11111
f1ff111ffff1ffffff11f1f1f
111111ff11111ff111f11111f
1111fff1ff11fff11fffff111
f11f1f1fff1111f11f1111f1f
ffffffffff1ffff1ff1ff1fff
f1ffff1fff1f1ffff1f111111
1f1111ffff11fff1f11111111
1fffff11ff1f1f111f111ffff
ff111f11ff1fff111ff1fff11
ff1111ff111f1111ff1fff111
111f11ffffff111111fffff11
1ffff11ff1f1f111f11f1f111
1f1ff1f1f11ff1fffffffff11
fff111111f1111111ff111fff
f1f1f1ff11f1ff111f111ffff
11fffffffffff11111fff11ff
fff111111f1f111fff1f1f1ff
11f1ff11f1f1f1ff1f1ff11f1
1f1ff1f1ff1fff11ff11ff11f
ff11fff1ff111ff1fffff1ff1
1ff11f1f11f1f1f11ff1ffff1
fff1ffffffffff11fff1fff1f
fffff1f1f111ff1f111ffff11
f1f111f11f11f1f1f1f11ff11
ffff1111f1fff1f1f1f111f1f
f1f1ff1f1ffff1f1fff11111f
1111ffff11ff1f1f11f1111f1
1ff111ff111f11fffff1f11f1
f1ff1f11f1f1ffffffff1fff1
1fff11f111ff1ff1f111f1f11
fff11ff111ffffff11ff111ff
f1111f11fffffff1ff1ff1ff1
11f11f1111f1fff1ff111ff11
fff11ff11f1ff11111f11f11f
ff111f1f1f1f11ff1f1fffff1
fffffff1f11f1f1ffffff1fff
ff11fff11f1f1ff11fff1ff1f
ff1ff1f1111f11f11f1f1f111
fffff1f11ff1111f11f1fffff
1111ff11fff1ffff1111fff11
f1f1ff111111ffff111f1111f
fffff11f1f11fff11f1f1f1ff
f1ff1111ff11f1f1f1f1fff1f
1f11111111111f1fffff11ff1
11f1111f1fff111ff11ff1f1f
fffffff11f11111111fff1f1f
ff11111fff1111fff111ffff1
11ff1ffffffff11111111111f
11f1fff1f1fffff1ff1fff1f1
ff111f1ff11ff1ff1ffffffff
11ff1ffffff1f11fff11fff1f
1f1f1f111ffff1f1ffffff1ff
f11ff1111111fff11ff11f11f
ff1f11111f1ffffffffff1f1f
1f1f111f1ff1f1ff1ffffff11
f11f1f1111fff11fff111ff11
ffff111f11fff1f1f111111f1
111f111f11f11f11f1f1ff111
ff11fff11ffffff1f1111f111
ff11fffff111f1111f11f1111
111fff111ffff11fff111ffff
1111f1fffff111fffffff11f1
f1ff111f1ff11fff11ff11111
111ff1ff1f1f1111ff1f111ff
f11fff1f11f1ff1f1ff1ff1ff
1f1ff11ff1111f1ffff1ff1ff
f1ffffffff111f111fff1f1f1
f11f111f11ffff11f1ff1f1ff
fff11fff1ffff111f11f11f1f
f111fffffff1f1fff11f1f111
1f1ff11fff11fff11f11ff111
1fff1f11ffffff11111111f1f
1f1111ff111f11f1111f1f1f1
fff11fff1111fffff111fff1f
111f11111f1111f11ffff111f
11f1111ff1ffff11ff1f1111f
1ff11f1ff1f11111ff11f1f1f
1f111f1ff111ff111f1f11ff1
f1f1f11f1111111f1ff1fffff
111f11fff1fff11111fff1111
1fff1ff11fffff1f111ff1f1f
f111f1ffff11f1f11f11f11f1
ff111ff1f1f1f1f1ff1f1f1ff
f1f11f11f111ff1fffff1ff11
f1f1f1f111f1111f1f11f111f
1ff11ff111f11f1111ff1f1f1
1ff11f1f1f111f11ff1f11f1f
111fff11ff11111ffff1111ff
1ff11f1ff1f11ff111111f1ff
f1ffffff111fff11ffff1ff11
11ff1f1fffffff111fff1111f
1f1fff1f11fff1f1ff1ffff1f
11111ff111ff1111f1f111fff
1fff1f11f1ff11f1fff1fff11
ff111ff11f111fff1f1f1f111
1ff11f1111f111ff1ff1f11f1
fff111ff11fff1f1f111ff1ff
f1ff11f1f1fff11fff11fff11
f11ff1f1f1111f111f1f1f111
1f11f111f1f1f111ff11fffff
111fff11ff11f111ff1f1f11f
fff1ff1f1f1f1111f1111f11f
1ffff11f111ff1111f1fffff1
1111f1111ff1f11fff1f1f111
ff111f111f1f11f1f1fff1fff
111ff11f11f1fff11fff11ff1
1ff1ff1fff1ffffffff1ffff1
11ff111fff1fff111f1fff111
111f1f11f1ff1f1f11ff11fff
ff1111111f11f1ffff111f11f
11ffffff1f111ff1fff1ff1f1
1f1fff1f11ff111f11fff1fff
f1f11f1ff1f1f11ff11f11ff1
ff1f1f1ff11ffff1f1f1ff1f1
f11111111f1fff111f1ff11ff
111fff1ffff11f1fff1ff11f1
f11ffff1111f1111ff1f1111f
111ff1111f11ffff111f111ff
ffff1ff1fffffff11f111f111
1f1111f1fff1f1ff11ff11111
11111fff111f1f1f1ff111111
ff1f1f1f1f11f111111f11f1f
f11f11111ff1f1ff11f1fff11
1ffff1fff1fff111ff111ff11
1ffffffff11ff1ff11f111111
f1fff1f1ff1111f11111fffff
1f11f111fff11fff111111fff
fff1fff11f11fff1f1f1111ff
fff1f1f1ff1ff1111f11ff11f
ff1ffff111ff1f11ff11f1f1f
f11f111f1111f1ff1ff1f1f1f
111ff1ffff1ffff1f1fff1ff1
ff1111f111fff11ff1f11111f
11f11ff11f1f1111fffff1ff1
1f1ff1111ff111111fff111f1
f111fff11f11ffffff1fff11f
f11ff1111111111ff11f1ff1f
1ffff1fff1f1ff1f1fff1ff1f
f1ff1f11ff111ff1f1fff1ff1
ffffff11ff1f11f1ffff1111f
ff1111ff1ffff1f11f1f1111f
fff11fff111f1f1f1fff1ff1f
1fff1fff111f1ff11f1f111ff
f1ff11fff11ff1f11f1ff1f1f
f1f111111ffff1ff11f11f1f1
fff1ff1fff1ff111f1fff1f1f
fff11f1111f11fff1ffff1111
f111f11f1f11ff11f11f1f1ff
1f1fff1111f1111f1f111f111
1f1fff11ffff1fffff1ff1111
ffff1111111ffff1f11f1f1ff
f1ff1f1111f11f1ff1ff11ff1
ffff11f1f1ff1f1111111ff1f
ff1ff1111f11ffff1111fff1f
11f1111f11fff1fffff1f1f11
111f1ff11111ff1f11f1f11ff
11f1fffff1111ff111f11ffff
111f1ffffff1ff111f1ff1f1f
f11f11f1fff1ff11111111fff
11111f11ff1f1ff1f11f1ff11
fff111111f1ff11ff11f1f1f1
ff111ff1f1fff1ffff11ff1ff
f1ff1ff1ff11fff111f1f1f1f
ff111111f1f1f111f1ff11fff
11fffff11ff1f11111ff1f1f1
11f1fff1f11ffff1f1f111111
ff1ffff11ff1f111fff1111ff
f11f11f11ff1ff1ff11f11111
11f1ff1f111111fff1f1ffff1
1ff1ff11f1f1f1111fff1111f
1f1ff111f11ffff1f1fff1fff
f1fff1111f11ff11111f1f1ff
111ff11fff1ffffffff111fff
ff111f111f111ff11fff1f111
11f111111111f1f1fff1111f1
1f1f11f11111f1ff1f1f11fff
ffff1f1fff1ff1f11ffffff11
f1f111ff111f1f111111ffff1
111111f1f1fffff1fff111111
111fff11fffff11f1ff1fff1f
ff1f11fffffffff11fff1fff1
1ff1fffffff1fff1f1ff1fff1
1f1ff1fff1111111111f1f1ff
1ffffff1111ff1f1f1ff111ff
fff11ffff1ff111ff111f11f1
111fff1111f11ff1ff11fffff
f1111ff11f11ffff1ff11f1ff
1ff11ff1ff111fffff111f1f1
1ffff11f11f1f1111ff1f1ff1
1fffff1ffff1111f11111ffff
11ff1ff11f111ff1111111fff
11fffff111f1f111111f1111f
111ff1f1ff1f11fffff1111ff
f1fff11fff11f1f1fff1ff111
ff1fff11f1f1111fffff1f111
1ff11fffffffff1111111ff1f
fff11fff11fff1f11f1f1f111
ff1ffff1f1f1f111ff1ff1f11
f1f111fff1f111f11f1f1ff11
f111ff1ff1ffff1fff1fff11f
11ff111f1fff1ff1f1fff11f1
1f1ff111fff1ff11ff1f111ff
ff1f11ffff1fff11fffff1111
1111ff1f111ffff1ff1f1f1ff
f11ff11f11ff11ff11ff111ff
11f1f1111111111f11ffff111
f1f11f111f111111ff11f111f
1fff1f11fff1ff1f11111f1f1
1111ff1ffff11f1f11111ff1f
1ffff11f11ffffffff1ffff11
11f1ffff11f11f1ff111f1ff1
1fffff11f1f11ff1fff11f1f1
f1ff1fffff1ff11ff1fff11ff
11f1111f11fffffff11ff11ff
ffff1ffff11fffff11f1fffff
11ff11ff11f11fff1ff1f1fff
ff11ff11f1ff11fff11ffff11
ff1f11111ff11ff1ff11ff11f
1f1f1f1f1f111fff111fff11f
f11f1f111f11fff1111111ff1
f1fff1111fff11fffffff11f1
f1f111f11ffff1ff11ff11fff
f1f11f1111f11111111f111ff
11ffff111ff1f111ff1f1ff11
11ff1fff11f1f1f1f1ff11f1f
ff11f1f11ff111f1111111111
1111ff1f11fff1fff1f1111f1
1f1fff1ff111ffff1ffff1111
f1ffffff1f1ff1ffff11ffff1
f1f11f11ffff1111f11fff11f
ffffffffff1ffff11f11ff111
fffff111ffff1ff11ff11f111
11111f1f1f1ff1ff1fff1111f
fffff11fff1f111f11f1f1ff1
ffff1ffff1ff11111f1ff11f1
ff1f1111f11f111111f11ff11
f1f111f11fffffffff11f11f1
f1f111f1f1f11f11f111ff11f
1f1f1f1fffff1f111f1f11f1f
11111f111f1fffffff111f111
11f11ff11ffff1ff11ff1ff1f
f1f1ff1ff1f1fffffff111ff1
fff11f1ff111111f1fff111f1
11111ffff1f1f1ffff1ff111f
111ff111ffff1f1f11f1fff1f
ff111ff1111111f11f11fff11
1ffffff111ff11ff11f11ffff
1ff1f1f1ff11f11f1f11f1ff1
ff1ff1ff1f1fffff1f1f11ff1
1f1ff11111f111ffff1f1f11f
1f11fffff1f1ff111ff11f1f1
1ff1fffffffff11ff11fffff1
f1f1ff11f11ff11fff11fffff
f1ffff1ff11f1f1f11f1fff1f
111f1fff111f111f1fff11fff
1ff1fff1fff1fffff1fff11f1
11f1ffff1f1f11fff11f1fff1
f111f11ff1fffff1ff11ff1ff
f1f11f11f111fff11111f1111
fffff1fff1f1111111ff1ff1f
f11ff1111fff1f11f11f1ff11
11ff1fffff1fffff111ff11f1
11111ff111fff1111fff1ff11
ff1111fff1fff1ff1f11f1f1f
f11f1ff111f1111fff1ff111f
ff1111f111ff1f1111111f11f
1f1f1f1ff1f11fff111111ff1
1f111fff1ff1ff111ff1111f1
1fff1fff11f1111f11fffff11
f1f11f1ff1f1f11f1f1f11fff
ff111ff11f1f11ff1f111fff1
111ff1ffffff111ff1ff1f1ff
f1ff1fff11fffffff1f1f111f
1111ff11111f111f111f111ff
ff1ff1f1111ffff1ffff1f11f
1111ff11f111f1f11111ff111
fff111f111f1f111f1f111ff1
11111ff111111f11f1fffff1f
ff11fffff1f11f111f11f1fff
ff11111ffff11ff11f11fff1f
1fffffff1f1f1f111111ff1f1
ff11ff1ff1f1ff11f1f1fff11
fff1fff1111fff1111f111f11
f1f1fff1fff111111fff1111f
11f11fff1111111ff111ff111
f1f1ffff1ff1f1f1fff1f1111
ff1ff11f1ffffffff1ff11ff1
111f111111ff11f1fff1f1f11
111f1f1ff11f11f1f111111ff
f1f11f1f11f111111f1fffff1
fff1ff1ff1fff1ffff1ffffff
1fff11ff1fff1f11ff1f1ffff
1f111f1ff1f1f1ff11fff1fff
ff11ff1ff1f111111fff111ff
ff111f1ff1f111f111fff111f
11f1f1ffff11f1ff1ff1fffff
f1f1111f1ff1f11f1fffff1f1
111fff111fffffff1f1ff1111
111f1ff1111f1111111ff1f11
111ffff1ffffff1fff1f11111
f1fff1111ff11fff11f111111
f111f1111ff11ffffffffffff
f11f1ff1f1f1fff1fffffffff
11ffff11ff11ff11f1ffff1ff
ff1fff111f1f111ff111f11f1
111fff111ff1ff1111f11f11f
1111ffff1fff1ff11fff11f11
1fff11ff111111f1f1fff1f1f
fff111ffff1ff11f1f1111111
11f11ff1fff1f11ff11f11111
1111ffffff1ff1f111111111f
f1ffff11ff11f1f111f1f11f1
11f111f1f11111f11111f1fff
f1f1f1ffff11ff1f1ff11f111
f1ffff1ff1f1f11111f1fffff
1f111ff1f1111ff1f1f1f1ff1
1f1ffffff111ff11fff1ff111
f11f1ff1f11ff1f1fff11f1f1
1ff111111ff1111f11fff111f
11111f1ffff111ff1111ff1f1
f111f11ff11ff1f1ff11f1f11
f1f1f1f1f1fff1ffff1f111f1
11ffff1111f111fff11ffff1f
f111f11f11f11111f11ffffff
1111fffffff1f1ffffff1fff1
fff1f1fffff1f1ff1f1ff1fff
f1f111111f1ff11f11111111f
f11f1ff11fff1ff111f1fff11
ffff1f1ff1f1ff1ff1ff111f1
ff1f11f111fffff11f1f11ff1
f1ff1111f1111f1ffff1fff11
11f1f111ff1f11111fff1fff1
f1f1ff1f11f111f111fff11f1
1111f1fffff111111f111ffff
fff1ffffff11111f1111ff1ff
1f1f11f11111ff1f1111ff1f1
11f11fff11ff1f11111f111ff
fff1fffff1ff1f11ff1111111
f1f111111f1111fffff11f1f1
111f1111f1111f11f11f1ff11
111fff111f1f1ffff1ffff11f
ffff1f11111ff11fff111f1ff
ff1f1f111ffff1f1ffffff111
f111f11f11f1fffff1f11f1f1
f1f111fff1ff1111f1ff1ff11
fffff11ffff11f1ffff111f1f
11111111ff11f1fffff1fff11
f1111111f1111111f1ff1ff11
1ff1ffffff1ffff1f11f1ff1f
f11ff1fff1f11ff111111ffff
1fff1f1f11f11f11111ffff11
1fffffff1f1fff1f111f1111f
f111111f11f1f11f1f111111f
11111ff1f1f1f11f11fff11ff
ffff1f111111ff11ff1fffff1
1ffff111f1ffff111ffff1f1f
111ff1f1ff111f11f1f1ff1f1
11fffff11ff1fff1ff1f1ff1f
1ff1f1111111111f111f1f111
11f11f11111111111ffff1f11
1fff1fffff1111ff1111f111f
f111fffff1fffff11fff11f1f
1f1f11ff1fff111f1ff11ff1f
ff11f11ffffffff1ff1f1ffff
1f1f11ff111f111ff111f111f
f1fff1ff11f1f1111ff11ffff
f1fff11ff111fff1111ffffff
f111f11f1ff11f11f111111f1
f1f1f1fff1f1f1ff1f1ffff1f
fff11111f1ffff11f1ff11fff
11111ff111f1fffff1ff1fff1
111ff1ff111f11fffff111111
ffff11ff1111111f1f1fff11f
1ff11f1ff1fff1ff1f1ff11ff
fff111f11ff1f1ffffff11fff
ffffff1f1f11f11ff1f11f11f
1f1f1f1111fff1fff1ff11ff1
fff1111f111f1f11ff1fffff1
1111ffffff11ff11fff11f1f1
fffffffff11fff11f11ff1f1f
11ff1f11f1111f111ff111f1f
fffff11f11f1ffffffff11f1f
f11f111ffff11ff11111fffff
11fffff111f1ffff1ff1ff11f
111f1f1ff111f1f1fffff11ff
f1ff1fffff1ff111ff1ffff11
111ff1fffff1ff11f1f111fff
11f111f1f111111ffffff1f11
ffffff1ff11f1fff1f11f1fff
f111fff1f1fff1f1fff1111f1
11fff1f1f1111f1fff1f1f1f1
fff1ff1f11111ff1f11111fff
1f1f1111ff11f1ff11ff1f11f
ff1f111f11ff1f11f11ff1fff
fff1111f111fff11ff1ff11ff
fffff11ff1ff111f1ff11ffff
f111f1f1ff11111f1ff1fff11
f11ff11ff1111f111f1ff11f1
111f11f111f111fff1111ff11
11f1f1fff1f11ffff1111ffff
1111ff11f1f1fffff1f1111ff
1ff111f1ff1f11fff111fffff
ff11ffff1fffff1ff111f1ff1
1f11f1f1ff11ffff1f1fff11f
1f1ff11f11ffff11ff11f11f1
1ffff1f11f111ffff1f11111f
11f11111f1f1f1f1fff1ff1f1
1111f11f111fffff1f1fff1ff
111ff111fff1fff11ff11f1f1
1ff1f1f1f111f1fff11fff1f1
ffff111fff111f1f11ff111ff
1111111111ff11fff1ff111ff
ff11f1f111f11111f1fffff1f
fff1ff1f11fff111ff1f1ff1f
f1f11f1f1111111fff111ffff
1ff11ffff1111f1ffffff11f1
fff111f1ffff1fff1f1f1f11f
1111ff1f11fff1ff1f1fff111
1ffff111111111f1111f11111
1f11ff1111111111ffffffff1
111fff11fff111f111f1f11f1
11f1f11111ff1ffff1fff1f1f
ff1f1f11111ff11fff1f1f1f1
ff11ff1111111fff11f1fffff
1ff111f1fffffff111fff1f11
f111f11f11111ff11111f1f11
ffff1f1111f11ff1ff111f1f1
1fff11f1ff111f1ff1f1f111f
1f1ff1111ffff111111ffffff
fff1ffff1fff1f1f1ff1111ff
1111ffff11ff1111f11111111
11ffff11111fff111f1f1f1ff
f1ff1f1f111ffffff1ff11111
11f11f11111111ff1111f1f11
1111fff1ff1111f1fffff1ff1
f1f1111f1fff1ff1f111fffff
ffff1111fffff1f1ff11111ff
fffff111fff11111111ff1fff
ff1f1111f1f111ffff11ff1f1
f11ff1f11fffff111fff11ff1
1ff11f111f1f1111ffff1ffff
1f111111ff111111f1fff11ff
f1ff1f1f1ff1fff1fff111f11
1f1ff111ff111ff1ffff1f1f1
1f11ffff1ff1111111fff1f1f
1ffff111ffff1f11f11111ff1
11f1111ff1f1ff1f1f111ffff
11fff1ffff111f1111ff1f111
f11ff1f11ff1111ff1ffff1ff
111ff11f11f1ff11111fffff1
1f11ff11ff1f1ffff111fffff
f1f1ff1f11ffff1f1ff111f1f
ffff11f11f1ff1ff111f1f1f1
1f1fff11ff11ffffffff111f1
1ff1111f1ff11ff111f1111f1
fffff1f1fffff11f1f1f1f1f1
ffff111111fff11fff111ff11
ff1ffff1ffff111f11fff1fff
ff11ff1f1ffff1f1f1111ff1f
f1ff11fff11f11111ff1f1f11
11111ff111ffffffff1111111
ff111f11f1fff1f11f1111111
1f1f1fff1f1fffffff1f1111f
ff11f111ff1f11ff111111f1f
ff1fffff1f1111f1ff1111f1f
f1ffff1f11fff1111f1f1f1f1
ff1ff11f1ff11ff1111f1111f
1f1f11f11f11ffff11ffff11f
1f1fffff111f1f1ffff1ffff1
ff1f1ff1fff11ff1fff1fff11
1f1ffff1111ff11f1111f1ff1
ff1fff1f1f1ffff11111fff1f
fff11fff1f1ff11f11111ff11
f111ff1fff1ff111f1f11f111
11ff1f1ff1ff111fff11ffff1
fff1f111f1fff1f11f111111f
f111f111f11f111f11f11fff1
f1f1f111ff11fff1111f11111
1f1f11ff111ff1ff111111f11
11f111111111f111111ffffff
f1f1ffffff1f111f111111fff
f1f111f1ff1f1f111f1111111
1f1fff11ff11f1f11f111ff11
11fffffff11f11fff11111f11
ffff1fff111ff11f1f111fff1
ffff1fff1fff1ff1f1f111fff
f1f11f1fff11fff111fff1111
ffffff1ff1f1f1f1fffffffff
f1fff1f1111111f11111f1fff
11111f1f11111f1ff1111ff1f
11ff1fff1111ffff1ffff111f
f1f11fff1f1111111fffff1ff
ff1f11fff1f1f11111fff11ff
f1f111f11111ff1f1f111ff1f
1fff111fff1fffff111ff1fff
1fffff1111f1ff111fffff1f1
fffff111ff11f1f1f1f11ff1f
111ff1111f1ff11ffffff1ff1
ff11ff1ff11f1ff111fff1ff1
111f1ffffff11f111fff1f1ff
f1ffff11fffff111ff111f11f
1111f1ff1111f1fff111f11f1
ff1f1fffff111111ff11fff11
f1111111ff11fff1f1f11111f
fffff1ffffff1111ffffffff1
11f1fff1111111fff1ff11ff1
ff11f1f111f11f1f1ff11ff11
11111ff1111ff1fff111f1f1f
1ff1f11f1ff1f11ffff11fff1
ff1ff11fff1f1ff1f1ff1111f
f111f11ff11111ffffff1ff1f
fff1f1f1ff1111111fff11ff1
11ff11ff1f1ffff1f11ffff1f
ffff11f11f111ff1111111ff1
1111f1ff1fff1ffff1ff1111f
1f1ffff11ffffff1f1f111ff1
ff1111ff111ff111f1ff11f11
ff111ff1fff1f11111ff11ff1
ff1f1ff1ff1111f1f1f111111
1111f1111f1fff1f11f1ffff1
1
f
1
f
f
1
f
f
f
1
1
f
1
f
1
f
1
f
f
1
f
1
1
f
f
f
1
1
f
1
f
1
f
1
f
f
f
f
f
1
f
f
f
1
f
f
1
1
1
f
1
f
f
1
1
f
f
f
1
f
f
1
f
1
f
1
1
1
1
f
1
f
1
1
f
f
f
f
f
f
1
f
1
1
f
1
f
f
1
f
1
f
1
f
f
f
f
1
1
f
f
1
f
1
1
1
1
1
1
f
f
f
f
f
1
f
1
1
1
f
1
1
1
f
f
f
f
f
1
f
f
1
f
f
f
f
1
f
f
1
1
1
f
1
1
1
1
1
1
1
f
f
f
f
1
1
f
f
f
1
1
1
f
f
f
1
f
f
1
f
1
1
f
f
f
f
1
1
f
1
1
1
f
f
1
1
f
f
1
f
1
1
1
f
f
f
1
1
1
f
1
f
f
f
1
1
1
1
1
f
1
f
f
1
1
f
f
1
f
f
1
1
f
f
f
f
f
1
1
1
1
1
f
1
f
1
1
1
f
f
1
1
f
1
f
1
f
f
f
1
f
1
f
1
1
1
1
f
1
1
f
1
f
1
f
1
f
f
1
f
f
1
1
f
1
f
f
1
f
f
1
f
1
1
1
f
f
1
f
f
f
1
f
1
f
1
1
f
1
f
f
f
f
1
1
f
f
1
1
1
1
f
f
f
1
1
1
f
1
1
1
1
f
f
f
f
1
f
f
f
1
1
1
f
1
1
f
f
f
1
f
f
1
f
f
1
1
f
1
1
f
f
f
1
1
1
f
1
1
1
1
1
1
1
1
f
1
f
f
f
1
1
f
f
f
1
f
f
f
1
1
1
f
1
1
f
f
f
1
1
f
f
1
1
f
f
f
f
f
1
1
f
1
1
f
1
f
f
1
1
f
f
f
f
f
f
1
1
1
1
1
1
1
f
1
1
f
f
f
f
f
f
1
f
1
1
f
f
1
1
f
1
1
f
1
1
f
1
1
f
f
f
1
1
1
f
1
f
f
f
f
1
1
f
1
f
1
f
1
f
f
f
f
1
1
1
f
1
f
f
1
f
1
f
1
f
1
1
f
1
1
f
1
1
1
f
f
f
1
1
f
f
f
f
1
f
1
1
1
f
1
1
1
1
f
f
1
1
f
f
f
f
f
1
1
f
f
1
f
f
1
1
1
f
1
1
1
f
f
f
1
f
f
f
f
1
1
1
f
f
1
1
1
f
f
1
1
1
1
f
1
f
f
f
1
f
1
f
f
f
f
1
f
1
f
f
f
1
1
f
1
f
1
f
1
1
1
f
f
1
1
f
f
1
1
f
f
1
f
1
1
1
f
f
f
1
f
1
f
1
1
f
1
f
f
f
1
f
1
1
f
1
1
1
f
f
f
f
1
1
1
1
1
1
1
f
f
f
f
f
f
1
f
f
f
1
f
f
1
f
f
1
1
1
f
1
1
1
f
1
f
f
1
1
f
1
f
f
f
1
1
f
1
1
1
f
1
1
1
f
1
1
1
1
1
1
1
1
f
f
f
1
f
f
f
1
f
f
f
f
1
f
1
f
1
1
1
1
f
1
f
f
f
f
1
f
1
1
1
f
1
f
1
f
f
f
f
1
f
1
1
1
1
f
1
f
f
f
1
f
1
1
f
1
1
f
1
f
1
f
1
f
1
f
1
1
f
1
f
1
1
1
1
f
1
1
1
1
f
f
1
f
1
f
f
f
1
1
f
1
f
f
f
1
f
1
f
f
1
1
f
1
f
f
f
1
f
1
1
f
f
f
1
1
1
1
f
1
f
1
f
1
1
1
1
f
1
f
1
f
1
f
1
f
1
f
1
f
f
f
1
f
f
f
f
1
f
1
1
1
f
f
1
f
1
1
f
1
1
1
1
1
f
1
f
f
1
1
f
f
f
1
f
1
1
f
1
1
f
1
1
1
1
f
f
1
1
1
1
f
1
f
1
1
1
1
1
f
1
f
f
f
f
1
f
1
f
1
f
f
1
f
f
f
f
1
f
1
1
1
1
f
1
f
1
f
1
f
f
f
f
f
1
1
1
f
f
1
f
1
f
1
f
1
1
f
f
1
f
f
1
1
1
f
f
1
1
1
f
1
1
1
1
1
f
f
1
1
f
1
f
1
1
1
f
f
f
f
1
1
1
f
f
1
1
f
1
f
1
1
f
1
f
1
1
f
1
f
f
f
f
f
f
1
f
1
f
f
f
1
f
f
f
1
1
f
1
f
1
f
f
1
f
1
1
1
f
1
1
1
f
1
f
f
1
f
f
f
f
1
f
1
f
f
1
f
f
f
1
f
1
f
1
1
f
f
f
f
1
f
1
f
f
1
1
1
f
f
f
f
f
f
f
1
f
f
f
f
1
f
1
f
1
1
f
f
1
f
1
f
f
f
f
f
f
f
f
f
f
1
f
f
1
1
f
f
f
1
f
f
1
f
1
1
f
f
1
f
1
1
f
1
f
f
1
1
f
1
f
1
f
f
1
1
1
f
f
1
f
f
1
1
1
1
1
f
1
f
1
1
1
f
f
1
1
1
1
f
f
f
1
1
1
f
1
1
f
f
f
1
f
f
1
1
1
1
f
1
f
1
f
1
1
1
1
1
1
1
f
1
1
f
f
f
f
f
f
f
1
1
f
1
1
f
f
1
f
f
f
f
f
f
f
1
f
1
f
f
f
1
f
f
f
f
1
1
1
f
1
1
1
1
f
1
f
f
1
1
f
1
f
f
f
1
f
f
1
f
f
f
f
1
1
1
1
1
f
f
1
f
1
f
f
f
1
f
1
1
f
1
f
f
f
1
f
1
1
1
f
1
1
f
f
1
f
f
f
1
1
1
1
f
1
1
1
1
1
1
f
1
f
1
1
1
1
f
f
1
f
1
1
1
1
1
f
1
1
1
f
1
f
f
f
f
f
f
1
1
1
1
1
1
1
1
f
f
f
f
f
1
1
1
1
1
1
f
f
f
1
f
f
1
f
1
f
1
f
1
f
f
1
f
1
1
f
f
1
1
1
f
1
1
1
f
f
1
f
1
f
f
1
1
1
f
1
1
f
1
1
1
f
f
f
f
1
f
1
1
f
1
1
f
1
1
1
1
f
f
f
f
f
1
f
1
f
1
f
1
1
f
f
1
f
1
f
1
f
1
f
f
1
1
1
1
f
f
1
1
1
f
1
f
f
1
f
f
1
f
1
1
f
1
1
1
1
f
f
f
f
f
1
f
f
f
1
1
1
1
1
1
1
1
1
1
1
1
f
1
f
f
1
f
f
1
1
f
1
1
1
f
f
f
f
f
1
1
1
f
1
f
f
f
1
f
1
f
1
1
1
f
f
1
f
f
f
1
f
f
f
1
f
1
f
1
1
1
1
1
f
1
f
f
1
f
1
f
1
f
f
f
f
1
1
1
1
f
f
f
1
f
1
1
1
1
1
1
1
1
f
f
1
1
1
1
f
f
1
1
1
1
1
f
1
f
f
1
1
1
f
1
1
f
f
f
f
f
f
f
1
1
1
f
f
f
f
1
1
1
1
f
f
1
f
f
1
1
1
f
f
1
f
f
f
f
1
f
f
1
f
1
f
1
f
1
f
f
1
f
1
f
1
1
1
f
f
f
1
1
1
f
f
f
f
f
f
f
f
f
1
1
f
f
f
f
1
f
1
1
f
f
f
1
f
f
1
f
f
1
f
f
1
1
1
f
1
f
1
1
1
f
f
f
1
1
f
1
1
f
f
1
1
f
f
1
1
f
1
f
1
1
f
1
f
f
1
1
1
f
1
1
1
1
1
f
f
1
1
1
f
1
f
1
1
1
f
f
f
1
f
f
1
1
1
f
1
1
f
1
f
f
f
1
1
1
f
1
1
1
1
f
f
f
f
f
f
f
f
f
1
1
1
f
f
1
1
1
1
f
f
f
1
1
f
f
f
1
f
f
1
f
1
f
1
1
f
1
f
f
f
f
1
f
1
1
1
1
f
f
1
1
1
f
1
1
f
f
f
f
1
1
f
1
1
1
f
f
1
1
1
f
f
1
f
f
1
f
1
1
f
f
f
f
f
1
1
1
f
f
1
f
1
f
1
f
f
f
f
f
f
1
1
f
f
1
f
1
1
1
f
f
f
f
f
f
f
f
f
f
f
1
1
1
1
1
1
f
f
1
1
1
f
1
1
1
1
1
1
f
1
1
1
1
1
1
1
1
1
1
f
f
1
1
1
f
f
1
1
1
1
1
f
1
1
1
1
f
1
f
f
f
f
1
1
f
1
1
1
1
1
1
1
f
1
1
f
1
f
1
1
1
f
1
f
1
1
1
1
1
f
1
f
1
f
1
1
f
f
1
f
1
1
f
1
f
f
1
f
1
1
1
1
1
1
f
f
f
1
1
1
1
f
f
f
1
f
1
f
1
f
f
1
f
1
1
1
f
1
1
f
f
1
f
f
f
1
1
1
f
f
f
1
f
1
1
1
1
f
1
f
1
f
f
f
1
f
1
1
1
f
1
f
1
f
f
f
1
1
f
f
1
f
1
f
f
1
f
1
f
1
f
1
1
1
f
1
f
f
f
f
1
f
1
f
f
f
f
1
1
1
f
f
1
f
f
f
f
1
f
1
1
f
1
f
1
f
f
f
1
1
1
1
1
f
1
1
f
f
f
1
1
1
f
f
f
f
f
f
1
1
1
f
f
1
1
1
f
f
f
f
1
1
1
1
f
f
1
1
f
1
f
1
1
f
1
f
f
f
f
f
f
1
1
1
1
1
1
1
f
f
1
f
1
f
f
1
1
1
f
f
f
f
1
1
1
1
1
f
f
1
1
1
f
1
1
f
f
1
f
1
1
1
1
f
f
f
f
f
1
f
1
1
1
f
f
f
f
1
f
1
1
f
1
f
1
1
f
1
1
1
1
f
1
1
1
1
1
1
1
1
f
1
f
1
f
1
f
1
f
1
1
1
1
1
f
1
1
f
f
1
f
f
f
f
1
1
1
1
1
f
1
1
f
1
1
f
f
f
1
1
1
f
f
f
1
f
f
f
1
1
f
f
1
f
f
f
f
1
f
f
1
f
f
1
1
1
f
1
f
f
f
1
1
f
1
f
f
1
1
1
f
f
1
f
1
f
1
f
f
f
f
f
1
f
f
1
1
f
1
f
1
1
f
1
f
1
f
1
f
f
f
f
f
1
1
f
1
f
f
f
f
1
f
f
1
f
f
f
1
1
f
f
1
f
1
f
1
1
f
1
f
f
1
1
1
1
1
1
1
f
f
f
f
f
f
f
f
1
f
f
f
f
1
f
f
f
1
f
1
1
f
1
f
f
1
1
1
f
f
f
1
f
f
1
f
1
f
1
f
1
f
1
f
1
1
f
1
1
1
f
f
1
f
f
1
f
f
1
1
f
1
1
f
f
1
1
f
f
f
f
f
f
f
1
1
1
1
1
1
1
1
1
1
1
f
1
f
1
1
f
1
1
f
1
1
f
1
f
1
1
f
f
f
f
f
f
f
f
f
f
1
1
1
1
f
1
1
1
1
1
1
1
1
1
1
f
1
f
f
1
1
1
1
f
1
f
1
f
1
f
f
f
f
f
f
1
f
f
1
f
f
f
1
f
1
f
1
f
f
f
f
1
f
f
1
1
1
1
1
f
1
f
f
1
f
1
1
f
f
1
f
1
f
f
f
1
f
1
f
f
f
f
f
1
1
f
f
f
1
f
1
1
f
1
1
1
f
f
f
1
f
1
1
1
f
f
1
f
1
1
f
f
1
f
f
f
1
f
1
f
1
1
f
f
f
1
1
f
f
f
1
f
1
1
1
f
f
f
f
f
1
f
1
f
f
f
1
1
1
f
1
f
1
1
1
f
1
f
1
f
f
f
1
f
f
f
f
1
1
1
1
1
1
1
f
1
f
f
1
f
1
f
1
f
f
1
1
1
f
1
f
f
1
1
1
f
1
1
f
1
f
1
f
1
f
f
1
1
1
f
1
1
1
1
f
1
f
f
1
f
1
f
1
f
1
f
f
1
f
1
1
1
f
1
1
1
1
f
1
1
f
1
f
1
f
f
f
f
f
f
1
1
1
f
f
1
f
f
f
1
f
1
1
1
1
1
1
f
1
f
1
1
1
f
1
f
1
f
f
1
1
f
f
f
f
1
1
f
1
f
f
1
f
f
f
1
f
1
1
1
f
1
1
f
1
f
1
f
1
1
1
1
1
1
f
1
1
1
f
f
1
1
f
1
1
1
f
f
f
1
1
f
f
f
1
f
f
f
1
f
1
1
1
f
1
1
1
1
1
f
1
f
1
f
f
1
f
f
1
f
f
f
f
f
f
f
1
f
1
1
1
f
f
1
f
f
1
f
1
f
f
1
1
f
1
1
f
f
1
f
1
f
f
f
f
f
1
1
1
1
1
1
f
f
1
f
f
1
1
1
1
f
f
f
f
1
1
1
f
f
1
1
1
f
f
f
f
1
1
1
f
1
1
f
f
f
1
1
1
1
1
f
1
1
f
1
f
f
f
f
f
f
f
1
f
1
f
1
1
f
f
f
f
f
f
1
1
1
1
1
1
1
f
1
f
f
1
1
1
1
1
1
f
1
1
1
1
f
1
f
f
1
1
1
1
1
f
f
f
f
1
f
f
f
f
1
f
f
1
1
f
1
1
f
f
1
1
1
1
f
1
1
1
1
1
f
f
1
f
1
f
f
f
1
f
f
1
f
1
f
1
f
f
1
f
f
f
1
f
1
1
f
f
1
1
f
f
f
f
1
1
f
1
1
1
1
1
1
1
f
f
1
f
f
1
1
f
1
1
f
f
f
f
1
1
f
1
1
f
1
f
1
1
f
1
f
f
1
f
f
f
f
f
1
1
1
1
1
1
1
f
1
1
f
1
1
f
f
f
f
1
f
1
f
1
f
f
f
f
f
f
1
f
1
1
1
1
1
f
f
f
1
1
1
1
1
f
f
f
1
f
1
f
f
1
1
1
1
f
f
f
1
f
f
1
f
f
1
1
f
f
f
f
f
f
f
f
1
f
1
1
f
1
f
f
f
1
f
f
f
f
1
f
f
1
f
f
f
f
1
1
f
1
1
1
1
f
1
f
1
1
1
f
1
1
1
1
1
1
1
1
f
1
f
f
1
1
1
f
1
f
f
f
1
1
f
1
f
f
1
f
1
f
1
1
1
1
f
1
f
1
1
f
1
1
f
1
f
1
1
1
f
f
f
1
f
f
1
f
f
f
f
f
f
1
1
f
f
1
f
1
f
f
f
f
1
f
1
f
f
f
1
1
f
1
1
f
f
1
1
1
1
1
1
f
f
1
f
f
f
1
f
f
1
f
1
1
1
f
f
f
f
1
1
f
1
f
f
f
1
f
f
1
f
f
1
1
1
1
f
1
1
f
f
1
f
1
f
1
f
f
f
1
1
f
f
1
1
1
f
f
f
1
1
f
1
1
1
f
f
1
f
1
f
f
1
1
1
f
1
f
1
f
1
f
1
f
f
1
1
1
1
1
f
f
f
f
1
f
f
1
1
1
f
1
f
f
1
1
f
f
f
1
f
f
f
f
1
f
1
f
1
1
1
f
f
f
1
1
1
1
1
f
1
f
f
1
1
f
f
f
f
1
1
1
1
f
1
f
1
f
1
f
f
f
f
1
f
1
f
1
1
f
1
1
1
1
f
1
1
1
1
f
f
f
f
f
f
1
1
f
1
1
1
f
f
1
1
f
f
1
f
1
1
f
f
1
1
1
f
1
f
1
f
1
f
1
f
1
f
f
1
1
f
1
f
1
f
1
1
f
f
1
1
f
1
1
f
1
1
f
f
f
1
f
1
f
1
f
1
f
1
f
1
f
1
1
f
f
f
f
f
1
1
f
f
f
1
1
1
f
f
1
f
1
1
1
1
1
f
1
1
1
f
1
1
f
f
f
1
f
1
1
1
f
1
f
1
f
f
1
1
1
f
f
1
1
1
f
1
1
1
1
f
f
1
1
1
f
1
f
f
1
f
1
1
f
f
1
1
f
f
f
1
1
f
1
1
f
1
1
1
1
1
1
1
f
1
1
1
f
1
1
f
f
1
f
f
f
f
1
1
f
1
f
f
1
1
1
1
f
f
1
1
1
1
1
f
f
1
1
1
1
1
1
1
1
f
1
f
1
f
f
f
f
f
f
f
1
1
f
f
1
f
f
1
f
1
f
1
1
1
1
f
1
f
1
f
1
1
f
1
f
f
f
f
f
f
1
1
f
1
1
1
1
f
f
1
1
f
1
1
f
f
1
f
f
1
f
f
f
1
1
1
f
1
1
f
f
f
1
f
1
f
f
f
f
f
1
1
1
f
1
f
1
1
f
f
1
1
1
f
f
f
f
f
f
f
f
f
1
f
1
f
1
1
1
1
f
f
f
1
f
f
f
1
1
f
1
1
1
1
1
1
f
1
1
f
1
f
f
1
f
f
1
f
f
f
1
1
f
1
1
1
f
f
1
1
1
f
f
1
f
1
1
1
1
1
f
1
1
1
f
1
f
1
1
f
1
1
1
f
f
1
f
1
1
f
f
f
1
f
f
f
f
f
1
1
1
1
f
1
f
f
1
1
1
1
f
1
1
1
1
1
f
1
1
1
1
1
f
f
1
f
1
f
1
f
f
1
f
f
f
f
1
f
1
f
f
1
f
f
1
f
1
f
1
1
f
1
f
1
1
f
1
1
1
1
f
f
1
1
f
1
f
f
1
1
f
f
f
1
1
1
f
1
f
1
1
f
1
f
f
f
f
1
f
1
1
f
f
f
1
1
f
f
1
1
1
f
1
f
1
f
f
1
1
1
f
1
f
1
f
f
1
f
1
1
1
f
1
1
1
1
1
f
1
1
f
1
f
f
f
f
f
1
1
1
1
1
1
f
f
1
f
f
1
1
f
f
1
1
f
f
1
1
1
f
f
1
f
1
1
1
1
f
f
f
1
1
1
1
1
f
f
f
1
1
1
f
1
1
1
1
1
1
f
f
1
f
1
1
f
1
f
1
f
1
f
1
1
f
f
f
f
1
f
f
1
f
f
1
1
f
f
f
f
f
f
f
1
f
1
1
1
1
f
1
1
f
1
1
1
1
1
1
1
1
f
1
1
f
f
1
f
1
1
1
1
1
1
1
1
1
f
f
1
f
f
1
1
f
1
f
1
f
1
1
f
f
1
1
1
f
f
f
f
f
1
1
f
1
1
1
1
1
f
1
f
f
f
1
f
f
f
1
f
1
f
f
f
f
f
f
1
f
f
f
f
f
1
1
f
f
f
f
1
f
f
1
f
1
1
1
f
1
1
f
1
1
f
1
1
1
f
f
f
1
f
1
1
1
1
1
1
f
1
f
f
1
f
1
1
f
f
f
1
1
1
1
1
1
f
1
f
1
1
f
f
f
f
f
f
1
1
f
f
f
f
1
f
1
f
1
1
f
1
1
1
1
1
1
f
f
1
f
1
f
1
1
f
1
1
f
f
f
f
1
1
1
1
f
f
f
f
f
f
f
1
f
1
f
f
1
1
f
f
1
f
f
f
1
f
f
1
1
1
f
f
1
f
f
1
1
1
f
f
f
f
f
f
f
f
1
1
1
1
f
1
f
1
f
1
f
1
1
f
1
f
f
f
f
f
f
1
1
f
f
1
1
f
f
f
1
1
1
1
1
1
1
f
f
1
1
f
1
1
f
1
f
1
f
1
f
1
f
f
f
f
1
f
f
1
f
f
f
1
1
f
f
f
1
1
f
1
f
f
1
1
1
f
1
f
f
1
1
f
f
f
f
f
f
1
f
1
f
f
1
f
1
1
f
1
f
f
1
f
1
f
f
f
1
1
f
1
1
1
1
1
f
1
f
1
f
1
f
f
f
f
1
f
1
f
1
f
f
f
1
f
1
f
f
1
f
f
f
f
1
1
1
f
f
f
f
1
1
1
1
1
1
1
f
1
f
1
f
f
f
1
1
1
f
1
1
f
f
f
1
f
1
1
f
1
f
1
f
1
1
1
1
1
f
1
f
1
f
1
1
1
1
1
f
f
1
1
f
1
f
f
f
f
f
1
1
f
f
1
f
f
f
1
f
f
1
1
1
f
1
1
1
f
f
1
1
1
1
1
1
f
f
1
f
f
1
1
1
f
1
1
f
f
f
f
f
f
f
1
f
f
1
f
1
f
1
f
f
f
1
1
1
1
1
1
f
1
f
1
1
f
f
f
1
f
1
f
f
f
1
1
1
1
f
1
f
f
f
1
f
f
f
1
1
f
1
1
1
1
1
1
1
1
1
1
1
1
1
f
f
f
1
f
1
1
1
1
f
f
1
1
1
f
f
f
f
f
f
1
f
1
1
1
f
1
f
1
1
1
f
1
1
f
f
1
f
f
1
f
f
1
1
f
1
f
1
f
f
1
1
f
1
1
1
1
f
1
1
1
f
f
f
f
1
1
f
1
f
1
f
f
1
f
f
1
f
f
f
1
f
f
f
f
f
f
f
f
f
1
f
f
f
f
f
1
1
f
f
1
1
1
f
f
f
1
1
f
f
f
1
1
1
f
1
f
f
f
1
f
f
1
1
f
1
f
f
1
f
f
1
f
f
f
1
f
f
f
f
f
f
f
1
1
f
1
f
1
f
f
1
1
f
1
1
f
f
1
1
f
1
1
1
f
f
1
f
1
1
f
f
1
1
1
1
f
f
1
1
f
1
f
1
1
f
f
1
1
f
1
f
1
1
1
1
f
f
f
1
f
1
f
f
f
1
f
f
1
f
f
1
f
f
1
1
1
f
1
f
f
f
1
1
f
1
1
1
f
1
1
1
f
1
f
1
f
1
1
f
1
1
f
1
1
f
f
1
1
f
f
f
f
1
1
1
f
f
f
1
1
f
f
f
f
f
1
1
1
1
f
1
f
f
1
f
f
1
1
1
f
f
f
1
1
f
1
1
f
1
1
1
f
1
f
f
f
1
1
1
f
f
f
f
1
f
1
f
1
1
f
f
f
1
f
1
1
1
f
1
f
1
1
f
f
1
f
1
1
1
f
f
1
f
1
1
1
1
f
1
1
1
1
1
1
1
f
1
f
f
1
1
f
1
f
1
1
1
1
f
1
f
1
f
f
1
1
1
1
1
1
f
1
1
f
f
1
1
1
1
1
f
1
f
1
1
f
1
f
f
1
f
1
1
1
1
1
f
f
f
1
1
f
1
1
f
f
f
f
f
f
f
f
f
f
1
1
1
1
1
1
f
1
1
1
f
f
f
f
1
1
1
f
f
f
f
1
f
1
f
f
f
f
f
1
f
1
f
1
1
1
f
1
1
1
1
f
f
f
f
f
f
1
1
f
1
f
1
f
1
1
f
f
1
1
f
1
f
1
1
f
f
f
f
1
f
1
f
1
1
f
1
f
1
1
1
1
1
1
1
f
1
1
1
f
1
1
f
f
1
1
f
1
1
1
1
f
f
1
f
f
f
f
f
f
1
1
1
1
1
f
f
f
1
1
f
f
f
f
f
f
1
1
f
1
f
f
1
f
1
1
1
1
1
1
f
1
f
f
1
1
1
f
1
f
f
1
f
1
f
f
1
1
f
f
1
1
f
1
f
f
f
f
1
1
f
1
f
1
1
1
1
f
f
1
1
f
f
1
f
1
1
f
f
f
1
f
f
f
f
1
1
f
f
1
1
1
1
f
1
f
1
f
f
1
f
1
1
f
f
f
1
f
1
f
f
1
1
1
f
f
1
1
f
1
1
1
1
1
1
1
1
1
f
f
f
1
f
1
1
f
1
f
f
1
f
1
f
f
1
f
1
f
f
1
f
f
f
f
1
1
1
f
1
f
1
f
f
1
f
1
f
f
1
1
f
f
1
f
1
1
f
f
f
1
1
f
f
1
1
f
1
f
1
f
1
1
1
f
f
1
1
f
f
f
1
f
1
1
1
f
1
1
1
f
1
1
1
1
1
1
1
1
1
f
1
1
1
f
f
1
1
f
f
f
f
f
f
f
f
1
f
f
f
1
1
f
1
1
f
1
1
f
f
1
1
1
1
1
1
f
1
1
1
1
1
f
1
1
f
f
1
f
1
f
f
f
f
1
f
f
f
f
1
1
f
1
1
f
f
f
1
1
1
f
f
f
1
1
1
1
1
f
1
f
f
f
f
1
1
1
1
1
1
f
f
f
1
f
f
1
1
1
f
f
f
1
1
f
1
f
f
f
f
f
f
f
f
f
1
1
1
f
f
f
1
1
1
f
f
1
1
f
1
f
1
f
f
1
f
f
f
f
f
f
1
f
1
f
f
f
1
1
f
f
f
1
f
1
1
1
f
1
f
f
1
1
1
1
f
1
1
1
1
f
1
1
1
1
f
f
1
1
1
f
1
f
1
1
f
f
f
1
f
1
f
1
f
1
1
f
1
f
1
1
f
f
1
1
f
f
1
1
1
f
f
f
1
1
1
1
f
f
f
f
1
f
1
f
1
f
f
f
f
f
1
1
1
f
f
f
f
f
1
f
1
1
f
f
f
1
1
f
1
f
1
f
f
1
f
1
f
1
f
f
1
f
f
1
1
f
f
f
1
f
1
1
1
1
f
f
f
f
f
1
1
1
1
f
1
f
1
f
f
f
1
1
f
f
1
f
f
1
1
1
f
f
f
1
1
f
f
1
1
f
1
1
f
f
1
1
1
f
1
f
1
f
1
1
1
f
1
1
1
1
f
f
f
f
1
f
f
1
1
f
1
f
1
f
f
1
1
1
1
1
f
1
f
1
1
1
f
1
f
f
1
1
f
1
1
1
1
1
f
f
1
1
1
f
1
1
f
f
f
f
f
f
1
1
1
f
1
1
1
f
f
f
f
1
1
1
1
1
f
f
f
1
1
f
f
f
f
f
f
f
f
f
1
1
1
f
f
f
1
f
1
1
1
1
f
f
f
1
1
1
f
1
1
1
f
1
1
1
f
1
1
f
1
1
1
f
f
f
1
f
1
1
f
1
1
1
f
f
1
f
f
1
1
f
1
f
1
f
f
1
f
f
1
f
1
1
f
1
1
f
f
1
1
1
f
1
f
f
1
1
1
1
f
f
f
f
f
f
f
f
1
1
f
1
1
1
1
1
1
1
f
f
f
f
f
1
1
f
f
f
1
f
f
f
1
1
1
1
1
f
1
1
1
f
1
f
f
1
f
f
1
1
1
1
f
1
1
1
f
1
1
1
1
f
1
1
f
1
1
1
1
f
1
f
f
1
f
f
f
f
f
1
f
f
1
f
1
1
1
f
1
f
1
1
f
f
f
f
1
1
f
1
f
1
f
1
f
f
1
f
f
1
1
1
1
1
f
1
1
1
f
1
f
1
1
f
f
1
1
1
1
f
1
1
1
f
1
f
1
f
f
f
f
f
f
f
1
f
1
f
1
1
f
1
f
f
f
1
1
f
1
f
1
f
f
f
1
1
1
1
1
1
f
1
1
1
f
f
1
f
f
f
1
f
f
f
f
1
f
1
1
1
1
1
1
f
f
f
f
f
1
1
1
f
f
f
1
1
1
1
f
f
1
1
f
1
1
1
1
1
f
f
1
f
1
1
f
f
f
1
f
1
f
f
1
f
1
f
f
f
f
1
f
f
1
f
f
1
1
f
1
1
1
1
1
1
f
1
f
1
f
1
f
f
1
f
f
1
1
f
1
f
f
f
f
1
1
f
1
f
1
1
f
1
f
1
f
1
1
1
1
1
1
f
1
1
f
f
1
1
1
1
f
f
1
f
f
1
f
f
1
1
1
f
f
f
f
1
f
f
f
1
f
1
1
1
f
1
1
f
f
1
f
1
f
f
1
1
1
1
1
f
1
f
f
f
f
1
f
1
f
1
1
f
1
f
1
f
1
1
1
f
1
f
f
f
1
1
1
f
1
1
1
1
1
1
f
f
f
1
f
f
1
1
f
f
f
f
1
1
f
1
1
1
1
1
1
f
1
1
1
1
1
f
f
1
1
f
f
1
1
1
f
f
1
1
1
f
f
1
f
1
1
1
f
f
1
1
1
1
1
1
f
1
f
1
1
1
1
f
1
1
f
f
1
1
1
1
1
1
f
f
f
1
f
1
1
f
1
1
1
f
1
f
1
1
1
f
1
1
f
f
1
f
f
1
1
1
f
1
f
f
1
1
f
1
f
1
1
1
1
1
1
1
1
1
1
1
1
1
1
f
1
f
f
1
f
1
1
1
f
f
f
f
f
f
f
1
1
f
f
1
1
1
f
1
1
f
f
f
f
f
f
f
f
1
1
f
1
1
f
f
f
1
f
1
1
f
1
1
1
1
1
f
f
1
f
1
1
1
1
f
f
f
f
f
f
f
f
1
1
1
f
1
f
f
f
f
f
f
1
f
f
1
f
1
f
1
1
1
1
1
1
1
f
1
1
f
1
f
1
1
1
f
1
f
f
1
f
f
1
f
f
f
1
f
1
1
f
1
f
f
f
f
1
1
1
1
f
1
f
f
1
1
1
1
f
1
1
1
1
f
1
f
f
1
1
1
f
f
1
f
1
1
1
f
1
f
f
1
f
f
f
f
1
1
1
f
1
f
f
1
f
1
1
1
f
f
1
1
1
f
f
f
1
f
1
1
f
1
f
f
f
f
f
f
f
1
f
1
f
1
f
f
f
1
1
f
f
1
f
1
f
f
f
1
1
1
1
1
1
f
1
1
1
f
1
1
1
f
1
f
1
1
1
f
1
1
f
f
1
1
1
f
f
1
f
1
f
1
1
f
f
1
1
f
1
f
1
1
1
f
1
1
1
1
1
f
f
f
f
1
f
f
1
f
f
1
1
1
1
f
f
f
f
f
1
1
f
f
f
f
f
1
1
1
1
1
f
f
f
f
1
1
f
f
f
1
1
1
f
f
1
1
f
1
f
f
f
1
f
f
1
f
f
1
1
f
f
f
1
1
f
f
1
1
1
f
f
f
1
1
f
1
1
f
f
f
f
f
f
1
f
1
f
f
f
f
f
1
f
1
1
1
f
1
1
f
f
f
f
f
1
1
1
f
f
f
1
1
1
1
1
f
f
f
1
f
f
f
1
f
1
1
f
f
1
1
1
1
1
1
f
1
f
1
1
1
f
f
f
f
1
f
f
f
1
1
f
1
f
1
f
f
f
1
f
f
1
1
1
1
f
f
f
1
1
1
f
1
1
1
f
1
f
1
f
1
f
f
1
f
1
1
1
f
1
f
f
1
f
1
f
1
1
1
1
1
1
1
f
f
f
f
f
1
f
f
f
f
f
1
f
f
f
f
1
f
1
1
f
1
1
1
f
f
1
f
f
f
f
1
1
1
1
f
f
f
1
1
f
f
f
f
f
f
f
1
1
f
1
f
f
f
f
f
f
1
1
f
f
f
f
1
1
1
1
1
1
f
f
f
f
1
1
f
f
1
f
f
1
1
f
f
f
1
1
f
f
1
1
1
f
f
f
f
f
1
1
f
1
1
f
1
f
f
f
1
1
f
f
1
f
f
1
f
f
1
f
f
1
1
1
f
1
f
f
1
f
1
1
1
f
1
1
1
1
1
f
f
f
1
f
1
f
f
f
1
f
f
f
1
1
f
1
f
1
1
f
f
1
f
f
1
f
f
f
1
f
f
f
f
f
f
1
1
f
f
f
f
1
f
f
1
f
1
f
1
1
1
1
f
1
f
1
1
1
1
f
1
1
f
1
1
f
1
f
f
1
1
f
f
1
f
f
f
1
f
1
f
f
1
f
1
f
1
1
f
1
f
1
f
1
1
1
f
f
f
f
1
f
f
f
f
f
f
1
1
f
1
1
1
1
1
1
1
f
f
f
f
1
1
f
1
1
1
1
f
f
f
1
f
1
f
f
1
1
1
1
1
1
1
f
1
1
1
1
f
1
f
f
f
1
f
f
1
1
f
f
1
1
f
1
1
1
f
1
f
1
1
f
f
f
f
1
f
1
1
1
1
f
1
1
1
f
f
1
1
1
f
f
1
1
f
f
1
f
1
1
1
f
f
1
1
f
1
f
f
1
1
1
f
f
f
f
1
1
f
f
f
f
1
1
1
f
f
f
1
1
1
f
1
1
1
1
f
f
f
1
f
f
1
f
f
1
1
1
f
f
1
1
f
1
f
f
f
1
1
f
1
1
1
f
1
1
f
1
1
1
f
1
1
f
f
f
f
1
f
f
f
1
1
1
f
f
1
1
f
f
1
f
f
f
1
1
1
f
1
1
f
f
1
1
1
f
f
1
1
f
1
1
1
f
f
1
1
f
1
1
1
f
f
f
f
f
1
f
1
1
1
1
1
f
1
1
1
f
1
1
1
f
1
f
f
1
1
f
1
1
f
f
1
f
f
1
1
1
1
f
f
f
1
1
1
1
1
f
1
f
1
1
1
f
1
1
1
f
f
f
f
f
1
f
f
f
1
f
f
f
1
1
1
f
1
f
1
1
f
1
f
1
f
f
f
1
1
f
1
1
f
1
f
f
f
1
1
f
f
f
1
1
1
1
f
1
f
f
f
1
f
1
f
f
1
f
f
f
1
1
f
f
f
f
1
1
f
1
f
1
f
f
f
f
1
1
1
f
1
f
f
f
f
1
f
1
f
1
1
f
f
f
f
f
1
1
f
1
f
f
f
1
1
f
1
f
f
f
f
1
1
1
f
f
1
1
1
1
f
1
f
1
1
f
f
f
f
f
f
1
f
1
f
f
f
1
1
1
1
1
f
f
f
f
1
f
1
f
f
f
f
1
f
f
f
f
f
1
f
f
1
1
f
f
f
f
1
f
1
1
1
f
1
1
1
f
f
f
1
1
1
1
1
f
f
1
f
1
f
f
1
f
f
f
f
1
f
f
1
1
f
1
f
f
1
f
1
f
1
f
1
1
1
f
1
1
1
f
1
f
f
1
1
1
f
f
f
f
f
1
1
f
1
1
f
f
1
1
1
f
1
1
f
1
f
f
1
f
1
f
f
1
1
f
f
1
1
1
f
1
f
f
1
f
f
f
f
1
f
1
1
f
1
f
1
1
1
f
1
f
1
f
1
1
1
1
1
1
f
1
1
1
f
1
f
f
f
f
f
1
1
f
1
1
1
1
1
f
1
1
f
1
f
1
f
f
1
f
f
f
1
1
f
1
1
f
f
1
f
1
f
f
f
1
f
1
f
f
f
1
1
1
1
1
1
f
f
1
f
f
1
1
1
f
1
1
1
f
f
1
f
f
f
1
f
1
f
f
f
f
1
1
f
f
1
f
1
f
1
1
1
f
1
1
f
f
f
1
f
f
1
f
1
f
f
f
f
f
1
1
f
1
1
f
1
1
f
1
f
f
f
1
f
f
1
1
1
f
1
1
f
1
f
1
1
f
f
f
1
f
f
f
1
1
1
f
f
f
f
f
1
f
1
f
f
f
f
f
1
1
1
f
f
f
1
f
f
f
f
1
f
1
f
1
1
f
1
1
1
1
f
f
1
f
1
f
1
1
f
f
1
1
1
f
1
1
f
1
1
f
f
1
f
1
1
f
1
f
1
1
f
1
1
1
f
f
f
1
f
f
1
1
1
f
1
f
1
1
f
1
1
1
1
f
f
f
f
1
f
1
1
1
f
1
f
1
1
f
1
f
1
f
f
f
1
f
1
f
f
f
f
1
1
f
1
f
1
f
1
1
f
f
1
1
f
1
f
1
f
1
f
f
1
f
1
f
f
1
1
1
f
f
f
1
f
f
1
1
f
1
f
1
f
1
f
1
1
1
1
1
1
1
f
1
f
f
1
f
f
f
1
1
1
1
f
f
1
f
f
1
1
1
1
f
1
f
1
1
1
f
f
f
f
f
1
1
1
1
1
1
f
1
f
f
f
1
f
1
f
f
f
1
1
f
1
1
f
1
f
1
f
1
f
1
f
1
f
1
1
1
f
f
1
1
f
1
f
1
f
f
1
1
f
1
1
1
1
1
f
f
f
1
1
1
f
f
f
f
1
f
f
f
1
f
1
f
1
f
f
f
f
f
1
f
f
1
1
f
1
1
f
1
f
1
1
1
1
f
f
1
1
1
f
1
f
f
1
f
f
f
1
f
1
f
1
f
f
1
1
1
f
1
1
1
1
f
f
1
1
f
1
f
1
1
f
1
1
1
f
f
f
f
f
f
1
f
f
f
f
1
1
1
1
f
f
f
1
f
f
f
f
f
f
f
1
f
1
1
f
f
f
f
1
1
1
f
f
f
f
1
1
f
1
f
1
1
1
f
f
1
f
1
1
1
1
1
1
f
1
1
1
1
1
f
1
1
f
f
1
f
1
1
1
1
f
1
f
1
1
1
f
f
1
1
f
f
f
1
1
1
1
1
1
1
f
f
f
1
1
f
1
f
f
1
f
f
1
f
1
f
1
f
f
f
1
1
1
1
f
1
f
1
f
1
f
f
f
f
f
f
f
1
1
f
f
1
1
1
1
f
1
f
1
1
1
f
1
1
f
f
f
f
1
f
1
f
1
f
f
f
f
1
1
1
1
f
1
f
1
f
1
f
f
f
f
1
1
1
1
1
1
1
f
1
1
1
1
f
f
f
f
f
1
1
1
f
f
1
f
f
f
f
f
f
1
1
1
1
f
1
1
f
1
f
1
1
f
f
f
1
1
1
f
f
f
1
1
f
f
f
f
1
1
f
1
1
1
1
1
f
f
f
1
f
1
1
1
1
f
1
f
1
1
1
f
1
f
f
1
1
f
1
1
f
f
f
f
f
f
1
1
1
1
1
f
f
f
1
f
1
f
1
1
1
1
1
1
1
1
1
f
1
1
f
f
1
f
1
1
f
1
1
1
1
1
f
f
1
f
1
1
f
f
f
f
f
f
f
1
1
f
1
1
f
f
f
f
1
f
f
1
f
f
1
f
1
1
1
f
f
f
f
f
1
f
1
f
1
f
1
f
1
f
f
1
f
f
f
f
f
1
1
f
f
f
f
1
f
f
f
f
f
1
f
1
f
1
1
f
f
1
1
f
f
1
1
f
1
1
f
f
f
f
f
1
1
f
1
f
f
f
1
f
f
1
1
1
1
1
1
1
f
f
1
f
1
f
1
1
f
f
f
f
f
1
f
1
f
1
f
f
f
f
1
f
f
1
1
1
f
1
f
1
f
f
1
1
1
1
1
1
1
1
1
1
f
1
f
1
1
1
f
f
1
1
1
1
1
f
1
f
1
1
f
f
f
1
1
1
f
1
1
1
1
f
f
f
1
f
f
1
1
1
f
1
f
f
1
1
1
f
f
1
f
1
1
f
f
1
1
f
f
1
1
f
f
1
f
1
1
f
f
1
1
1
1
f
1
1
f
1
f
1
f
f
f
f
1
1
1
f
f
1
f
f
1
1
f
1
f
1
1
1
f
f
f
1
1
f
1
f
f
f
f
f
1
1
f
f
f
1
1
f
f
1
1
1
1
1
1
f
f
f
1
f
f
1
f
1
f
1
f
1
f
f
f
1
1
1
1
1
f
f
f
f
f
f
1
1
f
f
f
f
1
1
1
f
1
f
f
1
f
f
1
f
f
1
f
f
1
1
1
1
1
1
1
1
f
1
1
1
f
f
f
f
1
1
1
f
1
1
1
f
f
1
f
1
1
1
f
1
1
f
1
1
f
1
f
f
f
f
f
f
1
1
1
1
1
1
1
1
1
f
1
1
1
f
1
1
f
1
1
f
f
1
f
1
f
1
f
1
f
f
f
f
f
f
1
1
1
f
f
f
f
f
f
1
f
1
1
f
f
1
f
f
f
f
f
1
f
f
f
1
f
1
1
f
f
1
f
f
1
1
1
1
1
1
f
f
f
f
f
1
1
1
f
f
f
1
f
1
f
1
1
f
f
1
1
f
f
f
1
1
1
f
1
f
f
f
1
1
1
f
1
f
f
f
1
f
f
1
1
f
1
f
f
f
f
f
1
f
1
f
f
1
f
1
f
1
1
1
f
f
1
1
1
f
f
f
1
1
1
f
1
1
f
f
f
f
1
1
f
1
f
1
1
1
f
f
1
1
f
f
f
1
1
f
f
1
f
f
1
f
1
f
f
1
f
1
f
f
1
1
1
f
f
1
f
1
f
1
f
f
f
1
f
1
1
1
f
1
1
f
f
1
1
1
1
f
1
1
1
f
f
f
1
1
1
1
1
f
f
1
f
1
1
f
f
f
f
f
1
1
f
1
1
f
1
f
1
1
f
1
1
f
f
1
f
1
f
f
1
f
1
f
1
f
f
1
f
f
1
1
1
1
1
1
1
1
1
f
f
1
f
1
1
1
1
f
f
f
f
1
1
1
f
f
f
1
f
f
1
f
f
f
1
1
f
1
1
f
1
f
f
1
f
f
f
f
f
f
f
1
1
1
f
f
f
1
f
1
1
f
1
f
f
1
f
f
1
f
1
f
1
f
1
1
1
1
1
1
f
f
1
1
1
f
1
f
1
1
1
1
f
f
1
f
f
1
1
f
1
f
1
1
1
1
f
1
f
f
f
f
1
1
f
1
f
f
f
1
1
1
1
1
1
f
f
1
1
1
1
f
f
f
f
1
1
f
f
f
f
1
f
f
f
1
f
f
1
1
1
1
f
f
1
f
1
f
1
f
f
f
1
f
f
f
1
1
1
1
1
f
f
f
1
f
f
1
1
f
f
1
1
f
f
f
1
f
1
1
1
f
f
1
f
1
f
f
f
1
1
f
1
1
1
f
1
1
f
1
f
f
f
1
f
1
f
1
1
1
f
f
f
1
1
1
f
f
f
f
1
f
1
1
1
f
1
f
f
f
1
f
f
1
f
f
f
f
f
f
f
f
1
1
f
f
f
f
f
1
f
f
1
1
f
1
1
1
1
f
1
1
1
f
1
1
f
f
1
f
1
1
1
1
1
1
f
1
f
f
f
f
1
f
f
f
f
f
f
f
f
1
1
1
1
f
f
f
f
1
f
f
f
1
1
f
f
1
f
1
f
1
1
f
f
f
1
f
1
1
f
1
f
f
f
1
f
1
f
f
f
1
f
1
1
f
1
f
1
f
1
1
1
1
1
1
1
f
1
f
1
1
f
1
f
1
1
f
1
1
f
1
f
f
1
1
f
1
f
1
f
f
1
1
1
1
1
f
1
f
1
f
1
f
1
f
1
1
1
f
1
f
f
1
f
1
f
1
1
1
1
1
f
f
f
f
f
f
f
f
1
1
f
f
1
f
1
f
1
1
1
1
f
f
f
f
1
1
f
1
f
1
f
1
f
1
1
1
f
f
1
1
f
1
1
1
f
f
1
1
f
1
1
f
1
1
f
f
f
1
f
1
f
f
1
1
1
f
1
1
1
1
1
1
1
f
1
1
f
1
1
1
1
1
1
1
f
1
f
f
f
f
f
f
1
f
f
f
f
f
1
1
1
f
1
f
f
f
f
f
1
f
1
1
1
1
1
f
f
1
1
f
1
f
f
1
1
1
1
1
1
f
1
1
1
1
f
f
1
1
1
1
f
f
f
1
f
f
f
f
1
1
f
f
f
f
1
1
1
f
1
f
f
1
f
f
f
1
1
f
f
f
1
f
f
1
f
1
f
1
f
1
f
1
1
f
1
f
1
1
1
f
1
f
f
f
1
f
1
f
f
f
1
f
f
1
f
1
1
f
1
f
f
1
f
f
f
1
1
f
1
f
f
f
1
f
f
1
1
f
f
f
1
f
f
f
f
1
1
1
1
f
1
1
1
1
1
1
f
1
1
1
f
1
f
f
f
1
f
f
1
1
f
f
1
f
f
f
1
f
1
1
f
f
f
f
f
f
1
1
1
1
1
f
1
f
f
f
1
1
f
f
f
f
f
f
1
f
1
1
1
1
f
1
1
f
f
1
1
1
1
1
f
1
f
1
f
1
f
f
f
f
f
f
1
f
f
1
f
f
1
1
1
f
1
1
1
f
1
1
f
1
1
1
f
1
f
1
1
1
1
f
f
f
f
1
1
1
1
f
1
1
1
1
f
f
1
1
f
1
f
1
f
f
f
1
1
f
f
f
1
f
1
f
1
1
f
f
f
1
f
f
f
f
1
1
1
f
f
f
f
f
1
1
1
1
f
f
1
1
1
1
f
1
1
f
f
1
1
1
1
1
1
f
f
f
1
1
f
1
1
f
f
1
f
f
1
1
f
1
1
1
1
f
1
1
f
1
1
1
1
1
1
f
1
1
1
f
1
f
1
f
f
f
f
f
1
1
1
f
f
f
f
f
f
f
1
1
1
f
f
1
f
1
1
1
1
f
f
1
1
1
1
1
1
f
1
1
f
1
1
1
1
f
1
f
f
1
1
f
1
f
1
1
f
f
1
f
1
f
f
1
f
f
1
f
f
1
f
f
f
f
1
f
1
1
f
f
1
f
f
f
f
1
1
1
1
f
1
f
f
1
1
1
1
f
1
1
f
f
f
f
f
f
f
f
f
1
1
1
1
1
f
f
f
1
1
f
1
1
1
f
f
1
1
1
1
f
f
f
1
f
1
1
1
1
1
1
f
f
f
f
1
f
f
f
f
f
f
f
f
1
1
1
1
1
1
f
1
1
1
f
f
f
1
f
f
f
f
1
f
f
1
f
1
f
1
f
f
1
f
f
1
f
1
1
f
f
f
1
f
f
f
1
1
f
f
f
1
f
f
1
f
1
1
f
f
f
f
f
f
1
f
f
1
f
1
1
1
1
f
1
f
f
f
f
1
1
1
1
1
1
f
1
f
f
1
f
1
f
f
1
1
f
f
1
1
1
f
f
f
1
f
1
f
1
f
f
1
f
1
1
1
1
f
1
1
f
1
f
f
1
1
f
f
f
1
1
1
f
1
1
1
1
f
1
1
f
1
1
1
1
1
f
1
f
f
f
f
1
f
1
1
1
1
f
1
f
f
f
1
f
f
1
f
1
f
f
1
1
1
1
1
1
1
f
1
1
f
1
f
f
1
1
1
1
f
f
f
f
1
f
1
1
1
1
1
1
1
f
f
1
f
1
1
1
f
f
f
1
1
1
1
1
1
1
1
1
f
1
f
f
f
f
f
f
f
1
f
f
1
1
f
f
f
1
1
1
1
1
1
1
f
1
1
1
f
f
1
f
f
f
f
f
f
f
1
f
1
1
1
1
1
1
1
f
1
f
f
f
1
f
1
f
f
f
f
1
f
1
1
f
1
1
1
f
f
1
1
f
f
f
f
1
1
f
1
f
1
1
f
f
f
f
1
1
f
1
1
1
1
f
1
f
f
1
1
f
f
f
f
f
1
f
f
f
f
1
1
1
f
1
1
f
1
f
1
f
f
f
f
1
1
1
1
1
f
1
f
1
1
1
f
f
f
1
1
1
1
f
f
f
f
1
f
1
f
f
f
f
1
f
f
1
f
1
1
f
1
f
f
f
1
f
f
f
1
1
f
1
1
f
f
1
f
1
1
1
f
f
1
1
f
f
f
f
1
f
1
1
1
f
f
f
1
1
f
f
1
1
f
1
f
1
f
f
f
f
1
f
f
1
1
f
1
1
1
f
f
1
1
f
f
1
1
1
f
1
1
f
f
f
1
f
f
1
1
f
1
1
1
f
f
f
1
1
1
f
1
1
f
1
1
f
1
f
1
f
f
f
1
f
f
1
1
1
1
f
f
1
f
f
1
1
1
f
1
1
f
f
f
1
f
1
f
f
1
1
f
1
f
1
f
f
1
1
1
1
1
f
f
1
1
1
f
f
f
f
1
f
1
1
1
f
f
f
f
1
1
f
1
1
1
f
1
1
f
1
1
1
1
f
1
f
1
1
f
f
f
f
f
1
f
f
1
1
f
f
f
1
1
1
f
1
f
f
f
f
1
1
1
1
1
f
1
f
f
1
f
1
1
f
f
1
1
1
f
f
1
f
1
1
f
f
f
f
f
f
1
f
1
1
f
f
f
1
1
f
1
f
1
f
1
f
1
f
1
1
1
f
1
1
f
f
1
f
f
f
1
f
f
1
1
f
f
f
1
1
1
f
1
f
1
f
f
1
1
1
1
1
1
1
f
1
1
f
f
f
f
f
1
1
1
f
1
1
f
f
1
1
1
1
f
1
f
f
f
f
1
f
1
f
f
f
1
f
f
f
f
f
1
f
1
f
f
1
f
1
f
1
f
f
f
1
f
f
f
f
f
f
f
f
1
f
1
1
f
1
f
1
1
f
f
f
1
1
f
1
f
1
1
f
f
f
f
1
1
1
f
f
1
1
f
1
1
f
1
1
f
1
f
1
f
1
f
1
f
f
f
1
f
f
f
1
1
1
f
1
f
f
1
f
1
f
1
f
f
1
f
1
f
1
f
f
f
1
f
f
f
1
f
1
f
1
f
1
1
f
1
1
f
f
1
f
1
f
f
1
1
1
1
1
1
f
1
f
1
f
1
f
1
f
f
f
1
1
f
f
1
f
1
f
f
1
1
1
1
f
1
f
1
1
1
1
1
f
1
1
1
1
