08f6f0f5e711080a01fa0e161e1009fb070c1a13edeaeff2fd
06150be6f60e2209e3e1052204fcee120b1906fc04010e0807
ebedfaf91206fcfe1510fe151c1bfd0b0f0cf8f2130504f8fc
03090cf507f5f7030210f6f30c050f01f70808f7fa0706fbfb
0e091408f2f51f140bfd0b2825fd01111f1afffbf80917ff10
f6eefc1014fc0d21231412161706f8fa01fd0c06fa01020a0a
fcfc03fefd01fffffafffcfefafcfdfefdff050501fefb04ff
fcf8ffff04f6f803fffef8fb0807f7fd020bfdfff9050301ff
fefe0102fffffb06040203feff01fa03fdfbfffbfd040304fe
fb0501fe01fb0404fbfbff03fffbfffbfefc0304fe010201fd
ff0104030301fc0d02f6fffd0ffbfcfc030bfbfcf70102feff
010702fcfafa0701fefcfc0905fafafc04fdf9fefd04fdfdfe
fc060206fffdfc0208fd01050503fffffdfc0201fe04fdff04
fe03fcfffffcff0403fefefb05fefffefcf8f904fffdfb0402
07010201fcfc040101fd0101fffcfd01fe030b06fc0d0f05fc
fc04fffc02030301fdff0502fd060204010907fd0605fefdfb
fafc01fcfd0103ff02ffff04faf8fa03fbff0106fafe0601f8
fe01ff02fb03010304fb07fd04fdffff01f9fe08ff0a0b0d01
fcfb05fe01fb03060602fdfe020503fe0401060bfd0201fa03
fc01050afbfc05071008fe01f90c0f02fbf60306fbfbf9fbfe
fffa01fefb02f90101fafbfaf9fcf8fc01fcfcf9040201fffd
020201fefb0201fd0401fbfdffff01fb03ff0701fd02fcff01
03fefffff7fefdff0cfffbfafe0a0cfdf8f401070201fefc03
02ff06fff7fd030606f901ff03030101fafe0701ff03fffef9
fe01fc0503fffe020305060b100903fd090d1310fe05ff0707
fbfffbff0201fff9fcfcfe08090903f703fc020101faf9f9fe
fe060203fb04fefb03fa01f9fafafffdfc040304fdfe05fcff
04fdff02fb01fcfdfa01fdfcfdf9f904020604fbfd010401ff
ff0101fd010104f9faf9fd0304fffffc02ff0809fcfcfdfa03
02fdfd050403fc01fbf7fc0204f9fb02060705080202fcff01
0403fffffefb01f9ff02fafcf9fffbfef8fffffbfffefefdfe
fff9fcfd01f7f4ff05fef9fe0708fffc0507fafc020907fd01
ff01f80103fa030a080203100dfdff0a03fffbfbfff9f7fd01
03fefb04fd03fe0405ff010101fffafffffb02fbfff9fefd01
faf5f8fe09f9f7090a09f9030b05f4020b01f5f9fc01f8fafe
f9ff0201faff01050c06020b0cfef6040dfcf8f602fcf801f9
fafaf701fd06090c09080d0f0d0a0604fc03fdf504050101fd
f8fc02fbfe04030505fd0404040501f9fbf7f9fdfbff01f6fc
040401fcfff9fbfd0b0bff010c0707fdfbfdfefafefd040904
01ff03fcfffc02fafeff0506fdfd0401fbfe02fffbfbfdff01
fef9fbf5fd090c08070706030904fdfafaf3f5f8fefbf6fcfe
fc0401fefbfe04ff040208031211090101fefdf7f5fdf90101
060404090305ff0a0607fefafa020b07fcfcf8fa0208010104
0206080901f9fbff0a08fff6f40101fdfbf8f9fd06fe01fb01
01040603fc02fcfeff07f9f6fcff04030403ffffff04ff0206
05fa02fafe06030104fa0205020401fafcfffbfd02fcfbfefd
03010402fb010301040cf7f3f3f903fefdf8f8f6090903faf8
03050702020306060609fdf8fb0108fff8faff01070501fffb
fe01fdfd05fffafe010102fafef8fefbfbfdfefcfdfcfcfc04
03050307fcfdff04fcfbfc04fbf6f70504f7f7050102fa0509
ff010701010203fe02fe0b07fafd040202010204fbfc0701ff
01030102ff0603ffff040203fd0108f9fe040101ff01030101
fe060706fefc0508fcfb0205fbf1fc02fbfcfc09f9f9010202
02fe04fb040403fbfdfb07fcf8f7fefffbfa030bfcfc020c02
fb0402010104fd0405fe050405fffdfefcff05060401010403
fefe03fffcfe0406fefeffff04fb02fcfcfd01fffefcfcfcfd
04fdfc040205fcfbfcfc020303fb01fc01010102ff03010501
fd040105ff05fd03fc030102fbfb02fd02fdfe010303ffffff
02fb01fb01010405fbfd0201fdfcfd0102fd03fcfffafb01fe
0204fafffefefefe020105010301fefffafffefffcfefc0101
fe040302fe02fd050a050707fffd0203ff06010301060e0a0a
fefbfc0404010101030504fefbf6fffcff0905f702ff050403
010404fefeff0101fa01fffc03fcf7fcfefb0208fefd060907
ff01fd0107fffb040606ff0101feff050104fcff01ff0806fc
0302fd0105fdfcf701010302faf0f7fe0203fcfaff01060c08
fa0103fc01ff01f704010101faf8fbfc0101fdf80104010804
01f9f9fefb0102fcfe02fdfd010701fffc0204020103ff0101
02ff02ff05fff80102fffffbf9fefcfbfafa03fbfc0701fd01
05fc0105ffff0102fafb01ff030708020b02060403fffff9fb
03fd0103fdfffa03fafffafc04fe0101070204feff030101fc
fdfdf90902fdf701fef8f8fdff0606ff050801ff040302fefc
fcf60405f9f9fd05fefa01fa04ff06ff050c0709070305fbff
fe01ff01fe0202fb04fbfe020401fd01fd020101fc0305fc02
fd0105fafe0303fdfc01fd01fcfe04fcfdfb0304fd0203fb02
04ff03ffff04fbfa010101fc04fdfefbfb01fe03050104fc03
04fefffd01fbfdfbff01fbfe030101fefefb0501020305fc01
fd04fe01fc050401fb03fefa0201fefb01fdfcfffb02fcfefb
01ff02fe040601fdfbfcfffc02fefffffb04fefcfffb01fdff
f9fd0105fffdf5f90302fbff0101fffb0205fefffe02fffefc
fa05fefbfaff0e06ff010313fdf806010efdfcffff0903ff07
fc03feff06ff05f7ffff01f8fdfc01fdf902fffcfafbfcff01
0703fd0502040403fdfc01fbfe03fbfefcfd03050601fc05fd
fb0802fefa0108fff7010910f5f805050502fa04ff06ff01ff
05ff01fb040bfffbfbfc06f9fafefe07fdfbfffd020103fd01
fcf7fbfbfff7fdfa01fdfbfb03ff03fc04090302040203fefb
fbfc050301f8fa100101fb0806fc07ff0d0604050101ff0701
01080afffcff0502fc070106f7fb0301f8fb03fefbfefd02f9
fc050701fd0202feff0302fdfdfefb03030502fdfc03ff04fd
f5f80802fef90a0a01fcfb0bfd05fffc03ff04fc0201fffdff
f7fb05fcff0504fefb010703fbfefd06fdf9fe01fffffffefb
fefcfffcfc03fcfeff050403fdfcfefd070c0a01ff07040309
fffcfefc03ff0301f9fc030705fdfffe06060209ff07fd050a
03fffcfcfc02fbfb0104fbfefc03ff05ff0501f902fdff01fc
fb0101ff0602fdfffffe03fbfe03fa020602fcfefc02060601
fefafafefd0302f7f8fa020401f6f8030a0507030207060203
fafcfd03fb03f9fcff05fcf9fafefc05fefc04fd07050503fc
fa0101fb07fefc040402fcfefb0304fdfa04feff02fb0107ff
fe040402fefbfd0201f905f909080403f90a0502fffa090206
01fcfefbfdfbff030601fcfbff02fcf6fffdfdfdf8f9faf9fe
03fd04fc01fefd0204ff03010103060204fdff01fb0301fcfe
fc0201feff01fa0bfef8fff80e05fbfbf80904fff9fa0304ff
fd01ff01fcfb0101fc04f9020103fcf80606fa04f9ff02ff03
fe0102fdff03fe03ff0103fe03fc02010301fc0102fffd0101
01010101ff01010201010302fe0103ff02fe0102fe0101ffff
02ffff0201ff02fe0303020401fefe02040101fffeff03fd01
02fffffffd01ff0201fefd03040401ff010201ff0102ff0103
fffd01ff04fffe03010102fe03fd01ff05ff01fe01f9ff0204
02fe0101fd01fc0103ffff010102fefffb01fd01fffc01ff03
ff02fd0102fffffe03020103fffe0103fcfd01010101fdff01
01030302fffeffff01ff0103fe01fc01fd02fcff01ff0102ff
fe02fd03ff01ffffff01ff0103fffdfe020101fefd03fdff01
03fffe0101fffe04010201030102fffcfd01fe0201ff0202fe
020203fe0201ff01ff01feff01fe02fd01fdff02fdfefefffe
03fe01fefffdfdfeff02010103ff03fdfffdfdfefd030102ff
0101fe0102ff030303fdff020404fefe0502ff01020403ff01
0104fe02fe01040101010303fd03ff010103fcffff0401fe01
04fe030301ff020301fffdff02030101fe01feff0101fffdfc
01fefffffd03fffdfdfdff0103fffdfeff0501fdfffe01ffff
02fe01fe01feff02fe0101fefe01010102fc01fd0204fdfd03
0302fe02010402fe01fe02fe02fefefe0101ff01fdfeffffff
0102ff01ffffff01ff0402fdffff01fd01fcfd030103ff01ff
0102ffff0301fdff01020403fd0104fe0201010301ffff02ff
02fdff01020203030104ff0103fd030402ffff02ff03010103
fcfc01fefcfe02ff0202ff01fefbfe0302010101ff0301ff02
fdfffffdfdfdfe0301fdfe0102fffffe03ffffff0201ff0102
fe01fe0301ff02ff03010201fffdff030201fe0201feffffff
ff01fe01fe030303fdfefffd01ffff02fe01ff0203fffe02fe
030302ff0303fffcfe0202fe04ff01feffff01fefe02fffe03
fcff040201ff01ffff0203ff01fe010302fd03030102fd02fd
01fdfffffffffefe020101ff0101ff010103fdfeff01fefefe
fffd010202fdff0301020101050103ff0304fd02ff02fffefe
fefc02ff04ff0301ff02010203fc0304010103ff04ffff01ff
fdfe01ff0103fffffbfd030201fdfd02fe01feffffff01fe01
010301fe0103fe0101ff04fffdfffffd0203fdff02ff03feff
fe010401fe03ff02020104fefefb02fffffd0104ff02fe0101
fdff01fd02ffff02fffeff010302010201fe0201ff01020203
fefe02ff01fdfdfe01fd0201ff0203040101ff02ff020301fe
01fcff02ffff02020201feff0503020104fefefdfc02fffeff
01fffe0502fe02ff01fffd01fd03fcfefcfdfcfcfffffe0101
01010204fffdfffe0203fc010102ff01fe030501fe010401ff
01fefefe02fcfbffffff01fcff02ffff01feff020103fffffd
03ff0404ff03010503010101fffefefdfffd0204fdfcfefe01
01ff01fffdfefdfefe02fffffdff01010301ff03feff0101ff
0101fffffdfdfe01ff0101fe0301ff0302ff01fffd020202fe
ff01fd030102020303ff03ff02fefe030101fdfc02fd01fe03
01fe0303fefeffff02fe020301ff03ff01fe01fd01fefdff03
02ff0201fefd0102ff02ff01fe01010102ff0102ff01010304
fd0102030102010302010306010304020203fdff01feffffff
ff01fefefd0202feff01fdfdff0502010201ff03fffd01fe01
01fcffff0101fffffe01ffff04020202ff01fdff0203fc02ff
0301fe03fefefc0102fefdff0201fd01fdfffefd02fdffff03
0101fffeff020401ffffff0104fe0402fd03fe01feff0202ff
0103ff01fdff04fffdfc0303feff02fd02ffffff02fdfefdfe
ff01fffefc01ffff02fc010201040102fdfeff010101fffd01
fffffefdfffffa0102040101050302feff0101fdfffdfd0302
02050202ff0203fffdff0101040604fe010202fdfd01ff03ff
0302fffd0101ff040101ff02010103ff010202ff010101fe01
ff01feff04fffe02ff0404ffff01020301010301fdff0102ff
fdfe0102fd010103ffff01fd02ff01fe020101fffe01fe0103
02fffd01fdff0205ffff0102ffff02ff04ffff01fffffefd02
02fffefdfd02fdfe0404020201fdff0302fefdff030102ff02
fe0102fd030202ff0201fe03fd03010201fd01fefffffe0103
02fe03030201fcfd0203fd010104020301fffefc0101fffc05
feff030102ff02feff02fffc010503fdfe0501ffff0101fc04
020101fc0101fe01ff03ff01ff02030201fd01010101fdfefe
fdfeff0102fdff01fefffffd04fcfe01010101fdfe03fcff01
0202ff0101fefe0102ff01020202ff02fd0101ff03fdfe03ff
01010401fffffffe01fffeffff01fe03fd03ff0101fdfd01ff
fefefe01fdfe0102fffd0202fe03fe0301fd01feff01fe0102
ff01fe01ff01fefefffdfffe03fefffffd01fd01ff01030303
fffd01fd01fdff04010103fefd030201fe0101feff0102ff03
0301fefffffffdfdfffe01feff01010103fe0101fd01fdfffe
fd020201fe02fefdfe01fefffcfefdfefdfe02fffe0401fdfd
01ff02fefd020101fffe02ff02fffffffe0102fffe030101fe
020301030203feffffff02fe0102ff03ff0102feff03fdfefd
0202ff01fd02fe02fefd0201fefdfd02fe0102fffffe01ff01
01fd0301fdff010303fffe030302fd010101fe01ff02fe0301
01ffff01fe01020103fefdfffe0201fdfefd010101ff0303fd
fe01fd0101fe02fdfe01ff01fe03feff0101020101fdff01fd
fe01fd03ffff01ff01030303fe030201fffefe01fefd03fffd
fc01feffffff0203010101fdff01fe02fefd010303fefd02fd
02020102fd0302030102fe010101010103fd01fe0102fefffe
03ffff02fffdfefe050101fffe02fdfc01010101fffcff04ff
ff01fefefdff020201ff02030203010101feff0304ff0203fe
ff05010101010402fbffff01fe01fc01010301ff040101fd01
01fdfcfdfe0301fbfeff0104040405ff01ff010103ffff0101
fffbfe0101fffbfd0202fdfefffc0102fe01fffeffffff0502
03030301ff0501fffffe030402ffffff02010202ff02010303
040202fd020303ffff010103020202fdff0401fefd03ff03fd
01fcff0303feffff0102040103feffff010101020302010204
0202fffffe02fffdfffd010201fffffd0102fe0301fd0201ff
03fffe01ff04ffff01ff05040402ff0101feff01ff01fc01fe
02fffbfefc02ffff010303020101fc01ff0203ffff0201ffff
fd01010102fe030201fffd01010102ff0301fdfe0102feff01
fdffff05ffffffff03fefffdfe0301fd01fcfd0101fc010102
03010101ff0101fcff01fdfb030402fffdfdfe01ff01010106
010101fdfe0101fffcfb02020203fffe01fd010404fffc01fc
02feff0301fe01fdfffdfdfdfefffd03ffff0201feffffffff
fe01fe03fffefffe01fefffffffefffeff01ff02feff020105
01020301ff0101ff030101010305fcfe020102040302ff0201
fffe02fcff03fe01feff04050402ff0403ff0102fdfcfbffff
01fd0403ffffff02040304010503ff0203fefd0102fffd0103
01feff05fffe01fd050202feff01fdfefdff02010302ff0204
02fffd0104fefcfc0104fd02060502ff060103ff02fcfcffff
fdfcfd0304fcff010104fe03fffe0306050102fdfe03fffffd
fefd02ffffff03ff02fdfdfdff01ff010101fffd0102ff01ff
01fe0303fe01fd0103ff02fffe01feff020102ff03020202fd
fdfeff0403fd030201fe01040102ffff01fefdfdffff02fd01
02010102fd03030203fffcfffffefc0101feffffff0101fe03
ffff03feff01fd0203fdff010201ff03ff01fefefffdff01fe
fd03fdfefffefffe0101020504fe0302ff02010101fd010201
01fe0202fe040104ff030303010201ff01fdfc0601ff020404
feffff0103fefb010202fd03fd0302fdfe01fefe03fe020101
01fe01fdfffe0101ffff01fffefe0301fdfc01ff01fe0101ff
010505ff0104ff0102ff010301fd020303fdff0102ff0101ff
fdfe01ff02fffeffff0102feff02ff0304030101fdfd01feff
ffff01010101ffff04fffffcff0102010201fdff0101feff03
fcfb01fd0102fc010104feffff040203ff02fd01fdff01fd01
ff02010101040101fefc01fdfffefefdfd02030202ff0201fe
0101fffd0302ffff02fdfafdfdfcfcfd01020103ffff060704
fdfffe03ff01fd0101fefdfdfefefdfffcffff020501030303
feff0201fe02fffefffd03fefd01ff0201020303fdfe010103
01fd010102ff03fe0203fdfe02fdfffe0203030302fd010302
fdff01fefdfdfcfe01fffdfe03ff0302030301fe02fdfc02fe
01fbfbfd0101ff0203fe02010301ff040102fe0302fdfcfb01
fd0103ff02fd01ff0203fefffe0103ff0302ff020301fd02fe
01ff0501ff02fe040202fe010201ff0303fffd0203fefeffff
fe01ff01fe01ff0105feff0402ff0103020101ff01fd01fefe
fffdfffffffc020405ff020201030402fe0101fdffff01fbfd
020201fffe03fefffefffd0201ff01010302fdff0201fe01ff
ff0202fd01ff010101fc01ffff0101ffff03040402fe01feff
010201020101ff01fd01fdfd0204ff0202fdff0102fdfd0203
fe01fffd0103feff02ff03ffff020101ff0201fd0101ff0302
01fe02fefefffe0302010301ff02fe010202ff0102fdfffe01
01020102ff01fe01ffff01fbfcfefcfbfcffff0101fefffeff
0103fd02fe01fdfefe02fc0407ff010401ff02fd03ff01ff01
fdfdff0101fe030301feff0102ffff02030201fdff01fffffd
030301feff0103010101fdfbfb0101ff0102fd01ff03fdff01
fffe02fefeff02fe03fd02fdfffefd0301fdfdff02020101fe
01fefdfefffcfe0201fe0305ffff01010301020201ff020102
02010101fe01ff0101fcfb01fcfd02ff02fd02ff010103feff
0201fd0202fefffefeffffff020301020201ff0101fdfffe01
fe01ff01010203ff04ff02010104fc01fcfd02fffefcfc0402
fffc0105ff01fe0303fd0101fcfefd02fbfffefffffdfd01ff
0103fffd01fcfffd010102fefcff03ffffff05fd01040204ff
02fe020101030404fc01fe01ffff01fffefc0401020103ff01
0301ff02fefefd01fd01fffcfdff01fffeff02fe0101fdfd01
fdff02010104ff0101fe02fffefd01fe01fffffd01fd01fffd
0303fffffefd01fe03fdfcfffffffd04fd05030101fd0205fe
01fd0101ffffff01fdfefe0501ff0202020204fe01fffc0301
020201ff02fffe02ffff0301fefeff030303fdffff0201fe01
030201ff0301fe01fdfd0202feffffff01050501fc03fdffff
ff0303ff02fefd02010101fdffffffff020101ffff04ff0205
feff04020201ff0302fffffefffdfcfd010101fffe01fffe02
ff01feff01fe01fffe02ff03ff03fdff03ffff01fe02ff0202
02ffffff01fe0304ff030201010401fe02fdfffd020203fc01
fdfdfdfcfe0201fffffd0104ff03ff0101ff0201fffcfc0102
02fffe03fd0102010301fdff01ff0102fffffffffdfffffdfd
0303fefe0301fdffff01fefefeff02ff02ffff0101fffffbfe
0102fffdfefeffff04fffffd0202fd020201fe0101fdfbfefd
fffdffffff01020101040401050402fffd0101fd01ffffff02
01ffff0103010302ffffff020102020202fe01fefe03fd0202
ffff01fefc0201030301020105ffff010403010302fe0501fd
010201fdff0201fb01fffffc0102020101fbfb0202fcfb02fe
01ff01fe01fe03fffc0101fdff04ff01040102fdfcfeff0102
fc0304020104fffefd0202fffe01fffbff01fb0301fcfeff02
fd01fc03fefdfd0201fdfd03fffdfb04fe0103fefeff03ffff
fefffffbff01ff02010101ff02fefb01060506fffff9fcfdff
fefdfe01ff0203ffff02fffefe0103ff03fffffefefffd0101
0101fefc01ff030202020101fefffffc0102feff030403ff01
fefe01fe0201fffdfd010101fd02fd01fffffffffffffdfd01
01ff0101fe010101fffefe01ffffff01fffcfffefeffff01fe
fffb01fefe01ff0102010201ff0103fefffe02ff01fd010301
ff0301ff03fd02fe03fdff0201fdfdfe02fdfffe0302fffefe
ffff0101fb01fdff0102010101fffd01050301ff01fe020602
02fffffbfefffffe0301fdfd07ff0103ffff02fefdffff02fd
fd010203ff03fe03040101ffff04ff01fbfefbf903fffefe01
feff0101fe01fc05040102ff01ff03fe01ffffff02fe0304ff
ff010401fffdfd01feff02fe04fe01fe04fffe0202fefe0301
fd0101fdfffe010101fefffcffffff010202fffe0201fdfe01
020202030102060503fefdff03ffff01fe04fe020302030301
0201010101fd02010201fffcfe0202fefdfd020203ff0201ff
feffff01010201ffff01fd0204ff01fd03fffdfeff01ffff02
fffe01fefffefe01fffcfd010101fffcff02fe0101fe020102
03010301feff01fffbfdfc03fffffdfe0101fdfdfe01ffff03
fefe02020203ffff0302fefd0203fdfe02fe010101010201ff
fffe01010201fe01ffff02010102fd01fe0203fffefffe0101
01fdffff01fffffffffe01fdff03fd02fe03fd0202fdfd01ff
02ff01fffeff0201fdfdff0201fcfffdff02fe01ff0101ff02
fffeff02fe03ff0103fd03ff0201fffe0102020202fd0301fe
fd030105fcfd01ff06010301ff02fdff03fffffefdffff04fe
ff0304fffb010204fefbfefd04fdfe0201feff0201ff03fdfe
010301fffbfd010103ff01fc0101fefffdff02fdfefeffff03
0102fefefe02fdffff0101ff010101ff02010301feffffff01
ff030401fffe04fffc01010201fd02030102fe01ffff010203
0101ff0101fd030201ff0301ff020101010102ffff03040101
ff03fcff020203fbfdfd01fffe0201fd03040202fdfcfefdfe
0105fd0202ff010302fefc03ff0402ffff01050201fefffd01
fd020401ff02ff02fdfd01fd01fc0101fe01fd0101ff010102
ff02030102010105020101fe0301ff03fe04020201fe01ff01
fffe03fe0301ff02ff040304fffe01ff0101ff03fefe0104ff
01fe01fffe01fd0301ff01fe02fffd01fe01fdfd01fe030302
ffffff0102020103fd0103ffff01ff03fdfefffffe03ff03fe
ffff02fffdfc01020301fefffe01030301fe01030203fefefe
01ff02ffffff01fdfc01fffefdfffdff02010203fffffe0201
03ff010201ff02fefe02fffffffffe0101fd03fefd01fffefe
fdffff01fc030304020102fd04fffd010102ff03ff01fefe03
02ff01fefe010201fefd02fdfdfefeffff01ff020101fe0301
ff020201fbfe02ff0101fffc02040504010104ff020103fffe
01ff02fffffeffff01fe02fefe0402fdfe03ffff01ffff01ff
02ff03030102010102fe0301fd0202fffffd03fefefefffffd
fffffd01ff01fffe010202fffffe01fe01fffffffefd02ffff
fe01fefffd0103fe02fe02fd0202030101fe03010202fe0301
01fe01ffffff0201010203ff0201fffd01fffefefdfeff0102
0102ffff030102ff02ff01fefd02020101fdfeff02fffdff02
ff02fffe01fd010103fefffe01fefeff0401fffdfdffff02ff
01fffefffe0101fefefd0102fefffdfe02010302fe010301ff
01ff02fefeffff02fefdffffff02fefeffff0303fffffffd03
03ff03fefd0201fffe02fefdfffefe0102fd0101ff0202feff
0202010301fffefdff02ff0202ff03fdfd010103fdff0202fe
fefffe01fefd03fefffefe01fffffd01fdfffeff03ff01fd01
fffdfd01feff010202fffe0203fd020101fffffefefefdfe03
ffff0102fffefffe0201fffe01fffe02fdfffd03fd0102ff01
fffffffffdfdfe0301ff01fefefd01010203ffff010102ff02
01fd0202ff020103fffffdfd0102fffffe02ff0201fefe0102
fe0301ff01fd030102ffff02fffefdff01fffd0301fefffd01
fdfffefeff01030201ff01fffdfe01fefd02fffdff03fe0301
fdff0102ff03020201fffefdfefe0102ffffff0302fd02fffe
01020301010102fefd01010102fffeff01fe0102ff010203ff
ff01ff0301fefefe01ff0203ffff03ff02fdff02fdfdfffe03
0101fcfefffffd0101fdfe01fffe03ff02fefffeff0201fd01
fdfe0102020101fefdfffe03010102020102fd030302010101
01ff01fdff01fdffff03030301fefe010102fdfefe02fdff02
fffefe01030201fe01fefefe02fffe02ff0102ff0103ff0201
01fd0201020102030101fdfffe0301feffff03020102fe01fe
ffff010303ff03fffffefefffffd01ff01fd01fffe01fdfdff
03ffff010303ff01fdff02fdfd01fdfffdfdff01fffeffff03
01fdfd0301ff03ff01fdfdfd0102fe01030101ff010202fd01
fe02fefd02ffffff01ff01ff0201feff01ff03ff02fefffeff
01ff03ff02fffd01ff02fffe03fd0103fefc02010201ff01fc
01fffe010103fffd0101feff0302fefffffeff01fefffd02ff
fe0301020201fefdffffff02fd010201ff02feff01010101fd
01fd0101feffff030501fe03fd04010203ff0101ff03ff03fe
02fffc02020101fefc010301fefeff02fffffffd0201fd0301
fe010201fe040303fffffc02fffefefdfcfffefe0201fe01fe
020102ff010402fb01fc02fe02ff010104ff03fe01fcfd0102
fffbfd010201fbffff0301fefefcfe02ffff010103010102fe
ff010202feff0303ff040506fd01fc0102010204ff01ff0101
ff04fe02fcfe010501ff04020403fffffd03fe03ff02ff0203
fdfdfcfd01fdff03fdfe03fefdfcfffe0103ff0104fe030101
fd03fe03fd0103fffdfe0301020102ff030102010303fd0101
010303fe020302fd020103fe0103fe02feff0101fefcfffffe
fffdff01ffff01fe01ff03fffffdff02fffe01ff0101ff02fe
feffff0101fdfefffe0101ffff03fefefd01fe01fefdfdff01
fefffffffefeff03ff0202fe02fd05ff02fefdff01ff0205ff
0103fffdfffdfdff0201fdfffefefffe010106ff03fefe0302
0302fe020201fe01fefc01ff01020405010104030101fdffff
02fffe0101fffbff0402ff0102fe010302fd01fdff0201fffc
01fefffd03fdffff0304ff01ff0202ffffff0101fdfcfdfd02
01fd0102ff02fffffdfe01fdff01fe02010201fffdfdffff01
fefe01ff020101fd0101fe0102ffffff03ff01fefd030503fe
03fdff0103fd03010101040101fdff03ff0102fd02020301fe
030101fcfffdfc01fd02ff020403ff02ff01fdfefffd0101fd
02ffff0301010102ffff02fdfd0201fffffffdfc010101fffe
02fe0203ff03fe0103030301fe01fffd01ff02fd0203fffffd
fffffe02feff01fdffff0101fe020103fffdffffff01fffe01
03ff01fefefdfe02030301feff0102fffffd0101fe0101fe03
fe0201feff010102fdfd01fe01fd01ff0204ff0301040202ff
01feff01ff03fd03ff0102fcfd03fd0202fefdfcffff03fdfe
01ff0303010103010203fd0202ff0103fffe010302ffff01ff
010201fdfeff03fffc01fffffcff03fe02fd040101fcfe0101
030401fd0502fefefdfffffffd010101010103fe01fe0101fe
02feffff03ff0102ff02030303ffff0103010204fffefe0304
ffff020102fffc01fe01ff03020201fffd01fdfffffdfffe02
fe0404ff0201fe0302010202010103fffcfc01fe02fd02ffff
01ff020202fe02fffefffd02fefefffdfd03fefdfe04ff01fe
fdff03ff02ff02010101feff030303040103fe0203fefffc01
fffe01ff02fbff0104fefefdfe03fffe0201fefd0202fefe01
01fe0302fffefffd0401fffcff01fffefa0101fffffd050303
fffffc0201fd01fcfb01fefffefd0201fc02feff040103feff
02ff040102fffbfefe04fd01010303ffffff03fe0301010101
ff01010303ff0302fdfdfffefeff01fefcfe020501ffff0504
0201fd01fe0302ff02fefdfe0202ffff01010103fffd020402
fefefefdfeffff01fffe01ff0101ff030502ff010303fd01fd
01fe0101ff02feff0404fe02fffffd01fffdfb01ff02020301
fd020302feff02fffdffffff01fdfdfefefffd01fefeff0304
0104ff02030102ff010203020101fefffe0101040101fdfe04
fffeff0103fffe030101fd01050301010204fbfffd0302ff01
ff01fffe01ff01010201fe0101fc01010101fdfdff0302fdfc
01fe01010302fefeff01ff020101010301fe02fffeff01fcff
fdfe01fffffcfd020402fcff0103010203fffffe010301fd01
020302fdfefd040103ff01ffff010303fdfffe0103fd01fffd
02010106fefd02070504fbfe01fffffeff01feff02ff030503
03ffffff030102fcfcfc01ffff03ffffff0207ffffff0405ff
01fc03fdfffffdfeff030205020305040602ff02fe03ff02fb
030401fefc06fffef7fd0202ff010402fbff06ff02ff010301
01ff0101ff04070201feff0502f9fbfe0406fe07fdfbfd0304
02fefcfefe01ff030202ff030201ff02fd02fffffefefefafd
030101fefe02fe01fc02fdfdff03feff0302feff01fdfe0203
02ff0201010401fe01fe02fc01ff01fefcff0203fc01fb02ff
01ff01ff01fdfe020103fffc01040501ff03fd03fffffffeff
03fd01fd010201feff0101fe03ff010203fdfe01ff02ffff01
0301030701fdfe01070101f6fa05feffff0307feff0504fcff
040202ff0102ffff0304fdf80308fdfd010104fcff0605fcff
050101050101fbfbfffcfeffff05fb0201fe010203fc020404
01fffe0104fdff0101fffcfcfdffff010203fcfdfffe03ff02
0102fd03fe0101fe02fdff01fe01fe020401fffc0301ff03fc
ffff01fdfefcfffa01010304fefffffe01fefcffffffffffff
0303fd01010301020101fffcfcfe02fdfd010101fc01fffd01
010405ff0103fffc01fdff010301fffffefffd02fbfffeffff
fdfe01fc04010402feffff01fffbff0203fdfdfc02fffefdfe
ff0302fffc0405060201fffff8fbfcfffefe060301feff02fc
0204fefeff05040601fffefdfeff0301fb01010301ff010102
fffffe01fe0102040101030202fcfc0203ff01ff0203feffff
ff010202ff03fe010201ff0203ff01fffe0102fefdfdfffdfe
fe0404010201fd01020101fc0104fdfefefc010202fefdffff
0204010304fdfbfdfbfffffffe03ff02010303fffeff010201
fdff01fe0202fffd010302030103fefffffefffe0301fffffe
fdff01feff02fefffefffefe01ff03ff01ff0204ffff0504fd
030401fdfffcfeffff02ff01fd03fffcfe0102fcfe020402fe
0103030401fe01fdfcfe0302fe06ff02fefefffd03fdfffd01
0201fe01ff02fe0105ff0103fe01020101fefdfcfffdffffff
02fdfcfffcff03fd01ff040201ffff03ff0402fe03ff02ff01
fffffffffe0201fd01feff0104fefffd02fc010102010103ff
0201ffff01fffefe03fe01fb0101fffeff0103fd01ff01fffc
02050101010505020304fdfffd01fdfe0202fefeff0202fefe
02fdfeff020302ff01ff0204fffc01fd04feff010202ff0302
03010101fffe020404ff0501fefdff01fefc0302fffcfd01fb
010102020101ff0601fefffcff030501ff0101fefe01fdfe02
fffe0102fefefd01ff02feff04feff0303fffcfffdfffe02fe
ff01ff0301030102fdff01ff01fe0101ffff03fe010203fd01
0404ff020101010102fffefffd0402fd01fefffdff01ff02ff
0202fdfe03fffc01ff04020101fdfeff0103ff03ff010101ff
03fe03fffffffefdfd01ff03fefeff01fefe01fffd03fe02ff
0301fdfffeff01fffdfd02ff0301fffd01010101fd05010301
02fffd010102fdfefefffffd030301ffffff0104ff03040201
0402020101040503fe05fdfdff020301010101fdfdffff01ff
02fdfffefdff01ffff0301fffe02fd010101fffe010201fefd
0101ff0103fffe0301fe01fffd0102fd01ffff03fe01fefe01
01fd01fe030302fffd02fffffeff020401010303fffdfe01fd
ff01ff02fd0201fd0202fdfffe0103ffffffffff0103fe01ff
02ffff04fffefcfcfffdff0102ff0103ff02ff01ff01ff0202
fffdfdffff010202030103fffefffffe0101fffe01fffe0301
ffffff010102ff03fffffffffdfc010102fdfcff0201ffff01
ff02fffdfe0202ff03ffff01fefffffdfefd02fd0303fdfd01
0103fefdfffeffff020102feff02fe02fdffff030101010101
02fffe03ff01fffefd0102fdfefffffdff0303ff03fffd0102
fffeff0303fefffcff02ff01fe030101fd0404fdfdfdfefe01
0201030302fd01020203fefdff020103fefdff0301ffffff01
ff0203fdfe01fd0301fd0301fd03fe0101fd01fefe0201fdff
fe02fdffff02fffe02fe03fefdfefd03fd0103fd02ff0203fe
01fffe0103030201fe04ffffff0204fdffffffff01ff01ff01
01ff020203ff01fefffc03fffdfefd03030202ffff03040202
fd01fffd01fe02ff0301fefffdfd0101ff03fefe010101fdfd
fe01030301ffff04fd03ff03010201fefd01fffffeff010301
fffefe0202ffff03feff02fe02ff02fe03ff04fdff01020103
fefd0202ff0303ff0201feff02fd0104fe0304fe03010305ff
ff01fdfffefdfffcfd01fffeff01fd06050301ffffff01fe01
0201fe02fffd03fefdff01ff01fd0101fff9fcfe02fdfc0101
0101fcff0301020201fdfeffff03fd0104fefd02010703ff05
ffff020101fffc0102fe03ff03fffdff02fdff020303010202
02fdfdfefefeff02fd030101020302fdfe01fbfb02ff010103
fffd01fe01fffd0102fe01feffffff01fd02fd0103fefd0303
fe0101fdff02fffeff0102fefcfffe01030103020201fcff03
ff01ff01010303ff02fe0102fe02fefe0402ff0402ffff02fd
fdfdffff03fd01010302fdfe01030102fffe020201ff0302fe
ff03010201fd010103020103feff01fe02fdfe0103fcfbfe02
01feff03fffffffffeff0301fefefe010101030101fcfc0201
0301fe01fe0103fffcfefe0201fe010105020403fe01fffefe
0102ff0103fdfdff02ff0201fefe02ffff01010303ff020402
fefe0104fefdfdfffffffe0101fffdfbfefd01ff0302ff0301
010203fefe020301fefc0102ffff02ffff0304ff020401ff02
fe02fe0101fdfffffcff010103ffff02fd04050203fefe01ff
0104fd02fffcfe01fffeff01ff020303ffff02010103fdffff
0201ff0202fd02ffff01ff01fefcfb0201fc02ff04ffffffff
01ff0302050101ff030202010104010503fe01fdfe0101fd01
fe030401ff03fd020103010301040103020403fc010203fdfe
0202fefd02ff0102010103fd01fe01020102fffe01fe03ff01
fe01fd0102fdff02020201fffffffd0301fffeff010101ffff
fe0202fd01030404fffc0503fe010401ff01020103ff01ff02
fdff04fffe010101fe02020102feff0203fe01fe01040503ff
fe01fe01fefeff01fefefefefd03fd02ff01fefdfdff030101
0101fefe04fffffffefefefaff01fffffbfffefd0101fd01ff
fd01fc0202fdff01fefcfcfdfcfd01fe01ff0101ffff020102
ffffffff030103fdfb010201fffe020201010407ff010101fe
ff01fffdfdfefffefcff01ff03fcfe030101ff02ff01fefdfe
02fffd04ff030301ff01020102ff01fffeff0103fd01fffe01
fcfd02fefdfffe02fefdff010101fd010203fd010102fe0101
01fe0301fffefefcfcff010303ff03030101ffff0101fdfefe
fefcfd0103fd01ff020401ffffff0101ff02fffdff0301ffff
01fffe0101fffb02fffcfdfffefefefefeff02010102060301
020202ff020101010104010202fffdffffff01fefeff0201fe
01fd01ff02fffcfeff0301fcfcfe030302030101030204fd01
0201ff03010101fdffff01fdfefb01010102ff0302fe0102ff
0302fffd0201fdffff0102fffd02ff02ff01fefd01ff0101fd
fefe0101ff01010403020102fe0303030301ffffff0103fd02
fc01fe02020301ff010101fe02fffefefeff0203ff01fd04ff
010303feffff0303ff0302030102fefffefd0302fe03fe0303
02010101010203fdffffff0102fdfefffd02fb03ff01fdfd01
02fdfe02ff0301fe01fffd02040201ff0101fc01fffe010402
ffffff0103fd02010102030303fe04ff03fffe04fffffffe01
020101fffdfffd02fdff04ff01ff020201fe01fffefefeffff
fffd02ffff01ff010201fe010205010203010303feff010301
02010104fffeffff03030201ffff030101fcfc020102fffffd
fd02ff0303fffe0104ff0203fe02020101ffff01fc01fe0201
04060304030102fcfc030401fdfc01ffff0201fefe01fdfcff
0202fdfefffd01ff01030201030203ff01fd0202fe01fdfdff
01fdfdfffeff01fe0202fdfcfdfffcfe06ffff03fffffcfefc
0102fdffff01fe0301fd02fffffe010402f9fdfffcfdfefffc
fffefd0101ffffff0101fefefd01ff01ff01ff0103ff0401fc
0103fffefffdfffefd02ff01fdfe03ff03fdfdfdff03fefdff
0203010203fffbfcfefcfeff0101010201fffe01fe01ff0101
fffe02ff0401ff02ffff01fffdfffd0201fc0201fffdfd0102
fffefe02ff0303fe01010202020101feff0302fffffd03feff
ff02fe030201ff01ff02fe07060305ff03040102fd02020401
0301ffff04ff02ff0201040103ff0403fffdfefffd0101fffe
0206060504fe0102fc02fefefcfffffdfefffd01020101ffff
ff030101fffefd04ffff0305ff0104fc01fe02ff02fe01ff03
ffffff010203fe01fefffdfc01fd01ff05fffffefd01fd01ff
ff020201fffefbfe04030105fffe02ffff02ff010101ff0103
010301feff02030104ff01050303fe01fd01feffffffff0201
03fdfe010101fe0303fefefffefefcfafeff03020102040301
fe050504ff01fe0301fffffcfefeffff040201fffffafefffd
fffd010404fefb01fd01fc01fffc02fffafc0202fefe030501
fe01fc01feffff01010202ff0201ff01fbfd01fd02ff0103fe
05020202fdfefcfeff02fdfefe010302040101fefdfb01fd01
fe0102020101fd02ffff01fffeffff0301fe02feff03030302
fdfcff02040102010201fffefefffffafc040201fbffffff02
0103010202fefb010201fffe0201ff010101feff0104ffffff
0101fe030103fe0302fffd0102fe0101030301ffff02fdffff
fd040303030205ff01fe0304ffff02fdff0402fffe0502fb01
02ff040202010503fe0102fefffffefffe0201fe04070201ff
02030201010403fc04ff01fd0404fe02fefe01fffc0101fefe
010201ff03fe03fffdfdfffc04fdff01ff06fffe0301fffbff
fffe01010101fe0203fe01fe0203fefdfbfdfe01fefffe01fe
01ff04fffffe050303fe02ff0304ffff01010102010101fc02
fffd02fffdfefd010103fcfaff010101fffffdfdffff01ffff
ff0106fffeff010101fd020101fe03fdfd04010103fdfd0202
fffffffe0201fdfe010101fe030203fefe0201ff01fffefefe
ff04fffffd020605fe030103010204ff0203ff01fcfbfefffe
01ff04ff0101020204fcfdfe01ff03ff04030201fc0103fdff
fcff01fefdfe020302ff0102fd0102fcfe0101030101ff0102
03fe02fdffff01fffefffffefffffe03fd01fefe0102feff01
0505ff04010101fc010201010101ff0101ff01fc02fffbfd02
fe0301ff02fffc02ff03010104fffffefe01ff0202ff010202
ffffffff020301fefe0201fdfefffe02feff0101fe0201fd03
01fefc0102fffdfdfc06fdfbfaff030201fffefeff01fe0103
01fffc01fdfffef903fefefaff0701fffe010202fefc010101
0101fe01ff0201fc030101ffff020102ff02fefd0101fffdfe
fffffcfefffbfffefffffe010101010101fd020103010102ff
fdfffefefe0102fffcfefc0101fffe010102020104fffcfc02
01fcff0403fcffffff0202fffd020102fe01ff02ffff040101
01fffbfc010204fefefd03010102fffc010304010101fe01fe
ff03ff03fe01ff05ff02ffff010203fffefefe030101020201
fd01feff01020102fffaff0202fafd040201fffe01feff0202
fd01020201fffe0408010202fffeff03fe01fffe030202fefd
fcfffe0201ff04fefe060203ff0101fffe0101fdfefcfd02ff
0104030202fefcfb01fdffff04ffff0402fefffffd01020102
01ffff03ffff01fc0103fefe01ff01fefd010101fd02fffffd
fdfdffffff020204fe0103020103ff030102ff01fe02010403
01010403fe01fffefefd0303fefc0102ff01fffc0104ffff01
ff0101fe0202fdfefd02ffff01ff02fdfffd0101ff0202fdfd
0103fefcfe020401fffbfffe020101fdfffe01010303010201
fd020303fe030602fbff02fe02fdfeff01ff0201fd03ff02ff
ff02030104fc0502fefefffefffdff01010102fffeff0401fe
030302ffff05020103fffdff0402fe02fcfefeff0201fdff03
fffffefd010203020102ff01fe0401ff030101feffff0201fe
ff02fefe010301ff02ff04fdfd0102fdff01ff0201fcff0102
feff020102fdff01fffeff01ff020103ff020203fffeff04ff
0303fe01fc01fd02fffd0101ff010203fefffe03fffefc02ff
fffffe02fdfeff030102ffff02fe030201ff0103ff030302fc
fffffe02ff0102ff0203fe010103ff050303feff01fdfa01ff
02fffeff02feff03fdfd01fc0202feffffff030103fe0103ff
fdfefeffffff010303010302fe03fffd020201010306010101
fffd02feffff020302ff01fdff030201020101fd01fdfefffd
ff0102fefdfe02ff01fdfefffe03fe02fcfefeff01fe01fd02
0201fffdfffdfe010101fffffeff020102ff03ff01fc01fe03
fffe01fe02fffeffff02feff010101feff03ff01ffff02ff02
ff0201fefefd0101fe02ff0202020401ff01010103030101fe
010102ff0102010102ff01fffffefefd01fc04fe0101fc0101
fffd010201ffff04fefd0303fd01020202fe01fffe01fbfe03
01fffffdffff02fefffffe01fc020202fc01fffffd01020304
fefe010302fdff030201ff01fd020403fffd0101fffd02fffe
fe02fffffd020301fffdfefeff02fd0402fffefdfffefd01ff
02fd0305fefffdfe0202fcfe01fcff0102fefcffff020201ff
010201010203fffefa01fdfcfefbfc02fdff04fd0104010102
010302fe0103030305fffdfffc01010101ff050103feffffff
01020403010101fd01fffe03ff0101fc01fffdffff0101ff01
02010301ff02feff06fcfffefbfdfdff01fffffd02ff02fdfe
03fefefd0103010102fe02fffeffff0102ff02fefd0103ff02
fe0103fd02feff02fffe02ffffff01ff02fefe020302ff02fd
fd0101fe010103fdfefffdfbfffefc03040101fdfefefe0203
020106010102fcfffffdff02010303ffff01fe030104ff0103
feff03fefe0202fefffdfefdff02fffefffdfffffeff0102fe
ff01f9ff06fefbff01ff0101fc0301ff01fd0105ff0202fffd
fdff010202fefdfbfe01feff0103010102ff0302ff02020201
fffffd020401fefc01fefd02fffcfffe02010402fdff0402ff
fefd01ff01ff02fd020301fffffe04fffeff03010402fdfd01
0102010301010301ff0304ff010302fe010203fc01ff0202fd
fefefbfeffff02fdff0203fdfefefeff0201fe01fdfe010101
03010102ff0203fdfe020302fffe0103fd0201fffefe010302
01fbfb01010202fbfdff020103ff02ffff01fdfffd010103fe
fd02010301ffff0103ffff01fefd020101fdfdfefe01fe01fd
fffdfdfffffdff01fc02fe01fefffd05020101fd0103ff0101
0101fe0101010101ff0101fefc01fffe0404fe010302ff0104
fffd0101ff01fbfe0201fffffefbfd0301020201020202ff03
fe03fdfefefe02ff03030203fe030102030102010102fd01fe
0101010101ff0103fffcfeff020102fefe020201fdffff0202
01fefffeff01fefffe03ff01010402fffdfffffe02fc01ff02
fdfe01fffffdfd010103feff0201ff01fffd01fe0303010203
010104fdfe01ff030301ff0303fe03fffffd03010203fe02fc
01fd02fdff01fffe04ffff03ff02ff0402fc0301fffeff01ff
02fcfefeff02fe03fdfb04050402fd03fefdff02fffffcfffe
fd01ff06ff02fdfe0102fefe0204fefffe02fffefffd0102fe
ff020202ff0302ffff01030101ffff0201fffefd04ff01fffd
fe0101ff01fe01feff02fe01ff0101fffd02ff03ff02030201
03ff020201fefffffffe02fd010101fd02fd01fe02ffff03ff
ff04020101fefc01ff01fcfffffffe01ffff0401ff03030403
ff0101fdff050401fffdff01fffd02feffff0104ffff010401
04ff01fd0102fffe01fd02fdffff02fffafafefffeff020204
02ff03fe01ff0401ff01fffafe0102fefdfefafefe01fc0302
01fffffffd03ff0301fd04030202ff01010102ff0101fefffe
fffefdff02fffefefd010101fefe01ff03fffffd0102ff0101
010201fffefefdfdfd0201fbff0203fd030403fefd01ff04fe
ff0401feff0201fdfb02010102ffff0103ffff030104020104
010301ffff0101fe0303020201fffefffe0101fe0101fffdfe
fe010103ff0201fcfdfd03fcfefe0302fdff030201010101ff
ff0102fffcfe03fffffffe01fdfcff01010204030302ff02fe
03010102fffefefd0103fdfffcfb03fe0104fe010102010201
ff0102fe02fcfefd04030101fd01feff010301010304fffffe
ffff01ffffff03fffcfefffd04fc02ff01ff01ff0101ff01ff
0301020402fdff04fffdfe0201fd01ff02010304fe01040301
ff02fafffd02fefefc01030701020103010403030202010102
01fffe0101010103020103020301fd010201fd02fe0201fbfe
feff0103030101fc0303fcff03fffdfe0201fdff01fdfe0103
fe01ff0101fefcff0105ff020305ff030101fffbfffdff02fa
01fefefffffefbfefc040605ffff020105010101fffcfffbfc
fe01ffff01fffe010302fcfdfd03feff01fdfe0102fdfe0103
fdff0101ff0201fefe0102fffefefdff01fe02ff01ff0204fe
fffd01ff01fdff04fffeff05fd04ff03ff0101020402fdff02
04020103ff01ff030302ff0201ffffffff01fafe01020302fd
fd03ff01fefdfefffffeff01020103fe0301fe01ff0101ff01
fd0401ff010305fffe010401ff07fffffcfeff0201fc04ff01
02fefd03ff010501010303020205fffffc01fbfdfafe020102
010203fffffefcfd0102fffeff04fd01fefc01010202fe0102
ff0201fbfd0104fefcfd030204fefc02ff0103fe010301fe02
02fcfcfc01fffffffe0201fdfdff02fefefe03fefe0302fffe
ff040303fd01ff020301fe0101fe0102fefefffe0101feff03
fffd020301fe01020102ff02fffffc01fc0101fffd01ff02ff
fe03ff0201fffdfffdfdff02fdfefc0201fcfeff01fcfd0103
fd01feffff01010203ff02fbffff0201fd02030102ff0202ff
feff020101fdfeffffff020401fe0101020302010301ffff01
fefefe0101ff01feffff03ff01fcfd0101fffffc02ff01fe02
ff0202020101fffc0101fffe0104fffe0101fe02fe03fffffe
0201ff03fdffff0201fdfffefffffd0101fe01ff01feffff01
01fe01fffe02020201ff0103fe0101020302fdfe01ff01fffe
01fe01fefc0302ff02fcfdfffefffffefdfe02ffffff030201
ff0203ffff02ff03fdfd01ffff0101fefffffeff0103ff03ff
01fffcfe01fdfe01ff020103ffff03feffff0202fdfdff0301
fdfffefe0301ff03ff010303010101ff01fd0101fdff030101
01010301010301ff02ffff01fcff02fffffdfefdfd0101fe03
02ff0101ff0302fe020203fefd020401fc02ff010101020102
01fffe0401feff010203020101fd02fffdfefefffd02010301
01020302ffff0104030101ff01fffdfefd0101fefe020303ff
03fffe01ff0202fd0101030301fdfdff040103fe0101fefffe
01fbfd0103fd01ffffff03030703fffe01ff04ffff0202fdfd
ff02ff03feffff010104fdfe0201030101fdfdfe02010401fe
020301fefe03fe02010103fe04ffff02fdffffffff020102ff
010303fe0203020103010305fd0301feff05040101fe01fffc
fe0201fffe010203020202fffefe0403ff01fcfefefdfc02ff
fefe0302feff0102fffdff01ffff0201fd01fd02fd01010103
fffefefe02fe050503ffff040303010301fe010101ff01feff
ff03fdfcfc01fffe03fefe03ff01ff04fdffffffff0202fdff
feff0303feffff03ffff0203fe01fffefeffff01ff0202ff01
02fe01ff030301fefd0302fdfffeff0301fbfdfffd01010204
01fefc0103ffffff0302fd02030102fffffdfe0101ff020101
fe01fefffd01feff0102ffff010101fdfffffffffffeff0103
01fe03ff02fffffd01fd01fd02ffff0103fffeff01fdffff02
ff030303fe01fdfffffd01fefffcfcfe02fcff0102030202fe
fdfeff0302fefefdfefcfffe0104ffff04020101ff02ff0301
feff02fffffcfd02ff01fffefeff010301ff02feffff03fffd
01020201ff01fffeffff02fc01ff01fe0303fdfdfdfd02ff02
02ff030105010104010102fe03fafc03fefc01010201fd02fe
fffc020402ff01020104fffd03fdfc020102ff010101fe0302
fefefc0301fd01fefffffdfcfe010201fdfefeff0304fdfd01
0202ff0202010404fffe010103ffffff01030101020103ff02
ff02ff01ffff0101fd01ff0101ff01fd01030103ff01fdfffe
01fffffffe02fffd03010101fffe01ff01fdfffdfefd0203fe
fdffffff01fdff03fe01ffffff01fc010202fefefffefe0102
03fefe03ffff02fe01fffffffeff01fe01fdfe010202fe02fe
0201fffffcfdff020203fd030101fdfe0604fcfeff0301fe01
01fcff0402010103fffefffe06ff010103ff0202fffffffffe
01fffd03fefd0101ffff01fd02fe01fbff01fffdfffe0402fe
fe01ff03020201fffdfffd02ff03fe010103fd01feff02fe02
01020602ff0301ff020101fffc0202feff05fffeff0402fcfd
fffbfe0101feffffff01ff0601ff0202010505ffff0301fffd
03040301fdfffcff01fdfffdfafefd02fd02fffe010302ff01
01fefd0401ff03fd01010302fe010201ffff0201fc02030301
ff02070201ffffff01060102ff01ff0306fffbfdfdfdfefcfc
fdfe03010102040204010201f9fe01fefbfd060101fc040602
020101020102ff030302fbfbf9fffffafffffd04fe03ff0604
01ffff0102fdff010204ff0301fffe0101ffff03fcfdffff01
0301fefefd01feff010203fe030102020303fffe02fe010101
01fe0302ff030101030101ff0303fefbfbfffe02ff01fefefd
fefcfefc0303fe030305010104030102ff060402ff0103fbff
fe0301ff0203fefe0101fffffffdfefffeff02ff01fefdfd03
03060504fefe020401ff02fefb01fffcfdfe0602ff05040102
ff020101020102fa0202fcf9fb0403feff0401ff03ff05fffe
01fdffff02ff01fd0101fd0202040401feff0303fcfbfdff01
fe02ff0303fffe010101fe010102ffff010501fe01ff03fffd
0102ffff0102010103ff03ff0302fdfeff0201010201ff02ff
fffd0203fffcfffefdff0201fcfefe02ffff01fffeffff0101
01fe030203ff02010102fefc01020301fffe03fffffcff0201
fd01ff03fefe01fdfeff04fbfe03020201fe04ff0201feff01
01fffe030201fbfdffffff0303feffff05fffbfcfffdfffffd
fefdfd03fffefe01ffffffff01fffe01ff02ffff0302040302
ff01fe02fe0102feff01ffffffff01ffff0201fdfe0101ffff
fefeff02ff0303ffff01fd0101020201fdfffe0103fefd0102
0102030301fdfffefe0301fe02fffe01fefefffeff02ff0301
fffffe010301fcff01fdff01fbfe0301ff0201ff010302feff
0202010203feff01fffffffdfefdffff01fefffd01fd01fffd
02fe01030303fe02fffefe03010103fffeffff01010101fd02
ff03fe04ff01fffe05020101fe05ff02fd01ffff0104fd0303
fffcfe060301fd0106fffefc0101fffefd01fdfe0101fd0102
fffe0101ff01fbfc01ff0203fb03ff0403fffd01ffff01fffe
ffff020101fe03fffffd02010402fdffff02ff0203ff010303
ffffff0203ff01fffffffffefffe02fffffdfdff01ffff0201
010102ff01fefefdfffd01feff0201fffefefffdfd03ff01fd
02ff01ffffffffff02fdfd0101fffffffefd0102fefe0201fe
01fd010101010302fe02ff02ffff030101fffe01fe02ff02ff
fffffefefe0301fffeff01fefefe01fe010201fdff01fdfe02
03fd0102ff020102ff03ff03fffffdff02fd0301fd02ff0301
fdfefdfe0103fe03ff02ff020102fe010101fd01fffffffd01
fffefffffdfdfd02feff020102ff02fefe02ff0301fffefd02
fd02010102ffff02fffeff01fefefdfffe01fffd0202fdff02
01fefe03ffff010203010103fd03ff01fffffdfffefffe0103
fe020103feff01fdfe01fe0101fdff01fefdfe03ff02ffff02
fefffdfe02fd02ff01010103fdff020203fefeff03fdffffff
ff03ffff01ff01ff01fffd020203fdfe01ffff0102fffffefd
01ff01fe0101fcfffd0101fffd0102fffffdfdfc020102feff
03feff020103ff01fe01fdff01ffffffffff02fdfefe01fefe
03010101ffff0302fd02ff02ff010103ff03fdfd0103ff0301
01fd03ff04ffffff0301fefcfe01fffd030104010301010101
01ff03feff0402ff020203ff02fdfe01ffff0101ff0101fe03
ff0101fd02fd01ffff0202fe02fffffffefdfffffffd010403
fefb01fbfdffff01fb01ff0604fe0301fffd0103fffffd0403
010101010102fffe0101ff01fb0204ff0301ff0201fe04fdfd
fefefefefefcfbffff01feff030301010403ff01fe01fcfffe
fcfd010201fcfffdfa010202fffbfd03040202fefc0101fe01
030501ff01ff01fe0101fd01fd05ffff0402fdff0404fffcfe
ff01ffff020101fffefd02fe02030101fefeffff03fdff0101
fffdfefefd0103ff01fffe040202fe0101fdff02fffcfd02ff
020102fffefefe0201fe03fffeff01ff01fffefefdfb02fffc
030202010202fd01fdff0103fe01fffffffefeff03fdfe01fc
feff01ff01ffff030406fd0102ff05ff010204fffeff0104ff
fffbffff010101040601020501030101fcfb0301fe0103feff
fdff01feff01fefdff01010302fefd01fefdfdfdfefdfefd04
ffff0403feff02010101ff02fd01fefdfd010204fd02020202
ff01ffff0103ff0201ff03ff0201fffffd0201fefdfefd0201
fdfefdfffe02ff01ff03fefe0301fefdffff0201feffff01fd
03fffffdfe02fd01fefffe0301fefdfd0103fdff02ff0302fe
fd0201020101ff03fffe03ff01fd0101ffffff03fdff0201ff
01fdff010303fdfffffffffdff010303fe0102ff01ff0102fe
0202fffdfffefc03fefefefdfffefd01ff01fefe030202fdfe
01fd02fdfefffe02fdfe0101fefd01fe0101ffffff0101fe01
fefffd030101ff01ff0201fffefffd010201fdfffe0302fdfd
ff01fdfeff0102ff010301fefeff02fe02fd01fefdff0102fe
fffd01ff01fe01fffd020101fd02fefe0102fdfe02fefeff01
fe0103fe01fd02ff0102ffffff0103fd010102ff01fdfe02fd
fd03ffff02020302ffff01ff0102fdfd020202ff0103fe0101
03ffff01fd030202ff02fe02fd01fe0103fd0101feff02fe02
fe01fefd02fffefdfffe01fe01ff01fefe02fdfefe01020301
03fe01fefefe010303fffe02ff03fefffefe02fd0202fdfeff
01fefe03ff010201fefd01fdff02fefdff03fe03ff010302ff
fdfd01010102020102010101feff02010201040101ff0102fe
fffdfd010102ffffff030101fe010301fe03ff020102fffe01
ff02020201fffefe030101fbfe0103010102fc03fdff0202ff
010303fefe01fffffffd01ff0101ff0302fffd02fefefc0201
fdfeff0103feff010402fffdfefc0201ffff030303fc0302fe
020201fefffffefffffffcfbfdfffd04030501ff01fdfbfc01
0202fffdfe010103fffdfb01fdfaff010303ffffff02ff04ff
0101ffff0101fffeffff01fefdfffdfcfe02010201010104fe
fefefdffff010202fefe01ff03fdfe02fdfe020203030202ff
ff030103010202fe030201fffeff01fefffdfbfd03fefc01ff
0201fd03ff0101010103fd010305ffff040201ff02fdfefcfc
ff03fd030201feff0102fe03fd02fe02ff03ff01ff01fffe01
01fe02ff0403fdff01040102fd0303010401fe020201fd05ff
fffefeff02fd01ff04010102010302fe01010304fffd0102fd
fefefefdfefffffdfdfffdff0403fffffefffcfe02ff01fefc
03fffefd01fcfcfe030202feff0302fd0201fdff01ff0102fe
0201fffd0201ff0202ffff01ffff02fefdfd01fefd020301fe
ff010303ff03fffefeff0101fe01030302010102fdff02fd01
01ff0102fe02010303fffefdfffd010301fefd01fffefe0103
fefdff0103fffd02fd0101ff02020201fffffffffd0101ff02
01fdfdff02fefe02ff0303fe01fffe01fefdfe010201ff0103
fd01fdfefe02010101fe01ff01ff01fefd01fdff01fffefd03
fdfd02fefffefdfe03ff02fdff020202fffe01fffffd010101
0301feff01fd030201ff03fdffffffff010301fd0101fffdfe
0201fefefefe0103fefe0101fefeff0102fd02fe0202fefd01
ffff0103fe02fefe0303ff01fefd01fe010101fd01fdfd03ff
fefffdfdff01fd01fffdfd0201fefdfefeff0202030101feff
fe02fdffff02fefdffff0101ff0101ff03fe010103fefffefd
ff0201ffffffffff0202010302fffdfffeff01ffff02fffd01
01010102fd03fe010202fefffd02fffd0101fffd02fefeff01
01fd0101ff0201ff01ffff01fdfefffe02ffff0202fe01ff03
fdfeffff0101fdff0202fe02fdfeff01010102fdfdfffd0101
0404020103030203ffffff01fd01fdfe04fefe0102fefe01fe
02fd02feff0301fd0102010304fffefe040103feffffffff01
fefdff0302020101fffefd01fcfb01ff01fffcfd0203fffe01
fdfffefe01ff010101fffdfe05ff03fbfd01ffffffffff0201
0303fe010201fd01ff04020102ff0101020203fdfffdfefcfe
0202fc01ff01fcff02030302fefd0101faff0301fcff030302
02fe01fdfdfffd02fe0302fd0202feff01ff0104ff010103ff
fd0202fffe03ffff01ff02020501fffd03fefe0301fd0101fe
03fdfefffdff0202fd0202ff03ff01010101fd01fdfefe03fe
fd0101feff03ff020102ffff0201ffffff020302fbff01ffff
fefffc02ff01040401fe0501ff020103fd01fe01fffdfe01ff
ff01ff030201fdfdfe03fdffff0101fffe01fdfffe01fd03ff
01020501fefe0101ffffff01feffff0204040103ff0501fd01
01fefffffffe04030202feff05ff0401020305010201ff01ff
0102fe01ff0202ffff01fe0102fffffefd030303fffd010101
01ff010402fefd03040101fdfffdfcff0401fdfffffffdfffd
fffffe01fd0101020202ff01fefe01fe01010501fe01fefdfd
01fc0202fffe01fe01fe01fcfdffffffff02fd020301fd02ff
020102ff0202ff0301ff01fffeff02fffffe020203ffffffff
fcfdfcff0103fffe03020301fefefd0201feff010101fdffff
ff0102fe02fd01030502ff010203feffff0202fe0202fffdff
01fffaff01fffdfb030302fffffeff05ffff03fe030102feff
ffffff02fefefbfefcfffffefd010302fe03fefe0402ff04fe
ffff03ff01fefffe0102fffd010102fdff020401fe03010302
01fffefe02ffff02fe030103ff01fdff0101fe0102ffff0201
fefcfe03fe0101fe0103010101fdff0101fcfcfffdff02fdff
01fdff0301ffffff02ff02fe0202ffff0303fe01fffefffe01
fdfffd02ff03ff0202fd0201fe01fdfdff02ff03ffff0401fe
02ffff03fffdfefb010202ff030403ff0304fdff02fffefcfe
fffefbff0103fdfc040401fe050401ff01ffff0201fd01ffff
02fffc0202ff0401050204040101fffefdfffcfdfefefe0201
fdfe01ff0201fcfe04ff01fdfe0302fffc01fd01feff01fdfe
01020202fe02fd0303fd03fcfe01fd01fefc030101fdfffe03
fefeff0202ff03ff02fdfefcff04fefffffe0304fd03fdfeff
01030302fe010101fb0102feff02fd03fffe03fe05feff0203
030101ff010101ff01fe02fe02ff01030301fe010303feffff
ff01fc030603ffff01fefefdfefefcfefdfd01feff01ff0303
ff01ffff01ff05fe020201010202ff0403030301ff040204ff
0102fffffdfffefcfeff02fefffdfffeff0201fd04ffffff01
fcff01020302040404fefdfefdfdff02fefffbfffd0302fd01
ffff0101fdffff0101fe010203fffefdfefd01fffeff0301fe
fe01fdfc0101fdfffeff010202fdff060302fd02ff0201fd02
03fe01fe0102fd02fefeff01fe01fe02fe02ffff01fefffeff
fefdfdff02ff0101fdfe03fdfe0102ffff010302010203fd03
fffefd03010303010403ff01010101fdfefcff03fffcfdfe05
0103fd0304ff01010204fefbffff02fff9fb02fffbfeff0204
02fefdfffbfaffff01ff01ffff0101ff03ffff010201020202
03010101fdffff01fbfefd0304fd0101fffd020101fffdfffe
02010102ffff03020104ff020101fe0101fd0203ff0101fd01
01fe01ff01030203fdfe0301030303fe010401ffff0102fe02
fffd02fffd01fcff02fffcfafc0103ff0101ff0203040101ff
fffdfcfefffefcfefeff01fd02fd01fefe0303fffc02010303
ff0102010302ff05010105fdfffdff0101ff0105fdfe02fffd
01fe01010402fffdfd01fd01fdfd02fe0103040501ff030305
fe030102fefe01020101fefeff0201fdfffd010204ff030502
ff0102fffd040304fffeff02010101fcfdfeff010301ffffff
fffffe03fefd03fffffefefd0101fffe02fe0301fdfdfd01fd
02030103fdfdfffffe01fb0203ff01fb02ff040401fdfefeff
02fdfeff020102fffefe02010201ff0204ff0502fffe0101fd
0203ff01feff02fe01ffff02fe030201ffff02fd030203fefe
030302020201020102ff020101fe010102ff0101020201fcff
fe02fdfffdfe020102fe040301ff0103010401ff02feff0202
fd01ff01ff0204fe0101fcfe0101ffff01fffffcfffe04fd01
fe020203fefe0102ff01fefcff03fffeffff02fdfdfe010101
ffffff03fdfe030102feff0401fd0301fefe0203ffffff0202
ff02fefeff0101feff01ff01010103ff01feffff010101ff02
fe04fefdff0203fdff02fefd020101fffdff04ff01010205fe
0203fffcfefffefffffd01fefd01ff01ffff01ff01fffefd03
fe010101fdff0303fdffff0301fdfe0402fd0204fffefe0202
ffffff01fd01ff01fdfd05feff01ff03fefc01ff01fc01fffe
01ff02ff01ff02fefefc03020101ff03ff01fffffd01fdfeff
0201fffffdff030301ff02ff0502020101fffe03fdffff0102
fdfffffd01ff01010201ff0203fffdfefe0301fffe0201fe01
0401fffc0101ff02fd010102fd030401fffe04fe03010203ff
ff02fd01ff010102fffffc01010102fefd01050502020103ff
fd03fe01fdfefe01fdfd03ff0203ffff01030201fe010301fd
ffffff04fb03020105fc010308fdfeff01ff01fe0103fd0101
fe0101ff0102fcfe01fefeff010102fdfffe0201feffffff06
01fefffefa0101fefefd01fffd0401fffdff04fdfdfd0203fe
01fd02fffe02fe0404fdfffefeff01fe0201fefffe020102ff
fd030301ff0101fe04010101feff0401fe03ffff020103ff03
02ff01ff010102fc02ff04fe0301020202fcfefffefdfe0101
fe0201fe010404feff02ff040101fc02fefefd0201fb0306ff
fdfffffefd01fffffdffff0103fe03fefffffc0402fdfd0504
ff02ff0406ff03fffd05fffffc010102fefc010401ff03fdfe
fffcfbfefffcfefffffe01040304040201ffff04ff01fdffff
fefdfcffff02fefcfefefe0201feffff020202fffffcfd02ff
fffffe010201010203ff01ff0102020306fffdfc0403fdfdff
ff02ff01feff0303fffd01ff01fe01fffe01fcff02030302fe
0101fffd0202010201ff0101feffff01fefc0102fffcfffffe
ff01fdfd04feff01fcfe02020205ff03ff04010102fe03fdfe
fdfe02feffff0102020203fefeff0202030102fdff03fdfffc
fe0303030201050101fffd0204fd01010102010202ff0702ff
020102fdfd0302080101030501ff010101f90401fd01040102
02ff01ffff01fd0102fffeff01030301ff02fffcfd01fcfe04
020301ff040104ff01fe02010103fe03fefeff03feff0404ff
0303fefefeff0202fcff01fefcfffffffffe02fdfffffe0301
01fffd01fefd0101ff020202fb0301fdfffd02010202ffff03
030302fd03fffffffe010403010201fe03fd03fdfeff0201ff
0102ff0301fd0104020103fe0202fefefeff01fd01ff010201
feff02ff02fe01fefefffe02fcfd01fefd01fffe0303feff01
01010305fe010102fe0402fefe02fefdff0202ff0101fffdff
01ff0202010102ff020302ff020202040201ff02ff02fefdfe
0202030301ff0203fefe020202feff01fffdff02fe02fffe01
03fffe01fefd0301fe0102fefffdfffeffff0301fe02ff0101
01feff0101fdfefdfffeff02fc03ff03fd01010302fffe01ff
fd0101fc02fd03fd02ff01fefefd0101fe010302ffffff02fd
fdffff0103fd0203fd010101ff01fe03fffd01fffffe010102
010402fffefefe03fd03030204fefe0201ff010401ffff02ff
fe02010301010402feff02fffcfeff0102fbff02fe02fcfeff
fcfdfe02fffd01ffff040101ff0101fd02fefe0101ff010201
01ff02fdfdff040203fffe0302fefefdfeffff010202fefefe
01fe01fdfe02fffdfe0101010201fd02ff0201030301ff0102
fffefdff030101ff01010102030301fefd0201fe01fd030301
0102ff010101fd020102fe01ff01fdfd0102fffe0103fffeff
fdffff010301fdfdff030102fefe01fffe01fffefd0202fffe
ff02fffe01fdfeff01fe03fffffe02ffff01fefeff01fd02ff
020201fe010201feffff0102fe01ff01fffefffe03fe010103
03fffffefdfe0102fe01020201fd02ffff01fffd01fefe0101
fdfffd030201fffdfffe0202fdfefcfffeff0101fe02ff02fe
fdfe01fefdfdfdfdfeff01fd0101ff02fe01010102fe020303
fd0201fdfe01030103fd01ff010102fe02fefdfd01feffff03
0101fe0202fe0302ffff03fffd0102fefefdffffffff01ff03
ff010201ff0103ff0202ff02030303fefe0202ff02ff03fe03
02fd020203fffefe01010101fefe01fdfffe020202ff010303
fd0101fffdfdfefe02fffffefefe010101fdff0102fefffe03
fe0102010201ffff0203010101ff02fffe02ff01fffffd03fe
fdfdffff01fdffff0202ff01ff02fe03ff02ff03fdff010203
03ff01fefefeff01ff02ff0403fd010204ffffff02fe03ff02
fdfefffdff02020101ff01fffffe01010201fe0103fe01ff02
03fefffe02fefdfd0101fffdfd0101fdfe01fdfc02040301fd
ff01fdfe0101fc0404fefefc02fefdfbfffcfffffd020302fc
03ff0302ff020105feff040103ffff0306040301fffefe0101
03fdfc0403fdfdfbfd01fbfdfefffefefffe05fe010301ff01
02fffd02fefcfcfcfd01fffafdfe01fffd01fe01ff01010103
0302020402030502fffe01feffffffff01fd010402fd02fe02
fefe0101ff01ffffff0303feff0101ff0103fd03fffe02fefe
fc01030304fcfe03ff04fcfcfd03fdfffc02ffffff0103ffff
fdfeff02fefe02fe0403010102fffffe0104fefcff0102ff01
fe01010102feff03fdffff0201fffffe0202ff0301ffffff03
02030203ffffff02ffff01ff04ff020103ff0303fd01fefffc
0203020302fe01010502ff040103fffe02020302ff040102fe
fffcfe01030102010502fffe0303fffdff03fd0101010301fd
02fefefe03010101ffffff01fd03fd0201040101ff01fffe01
020101ff0201030102ffff0201fe020303fc0301fdff0201ff
02fffcfdfdfffefffe0101fd010203feff0402030101fd0201
0103ff020201feff0102fefffb01ff010101fe0101fffe0101
fffdff02fffdfffefb02030101fdff02010203feff01fd0102
ff01ffff03fefeff01ff04fffdfcfc03feff01030102010302
fd010202ffffff01fefd010201fdfbff010102ff0101010404
fefe01fe02ff0103fe01fbfafcfc02fffdfd01ff0203020202
01fdfd03010302ffff040303ff0201fd0202fefeff0103fdff
ff01fe03010202ff03fe02fe02020303feff03fffeff030101
ff0101fc0201fffefcfe02fdff03fdfcffff03ffff01fe0203
fdfd01ff03fdff0201fc01fffffffdfd020103040102ffff02
fefffdffffff01ff01ff03ff030101ffffff010101ff0102fd
fd01fefe0201fc03ff04fffd01fe02ff040305020101020201
fe01fe01fffffd010204feff0502ffffffff0301ffffff01fd
01feff02fffdfd0101fe010103fffdfefdff010102fffe0101
0201ff04fffcfe0302030203fe01fefe01fdff01fdff03fd03
ff01fffefd02040102fffe020101fefdfcfe02fffcfefe01ff
fd0201fdfefefffefcff01fd0101020303fe02fcfdfdffffff
ff03fffd01020101010101ff0403ff010303030202ff0402fd
040302fefffffdff030102fffbfd010403ffff010204020101
fdfe0201feff03fdfffd01fbfefdfbfefdfbfaff01fefe0202
fffd0101fffd020201fffffe01fdfd02010201fc030404fffd
0101fffffe02ff0204030301fefeff01fffe01fd03ff02fc01
01feff030202ff01fdfcfcfffcfd0102fbfffd0101ff02ff01
0301fe02ff02fffe01ff0102fdfdfdfeff01ffffffffff02ff
0103fe0102fffbfc02fffe01fffd010202ff02ff0302fdfefe
ff0201fcfffd01fd01fcfefdfdfdfe01ffff0102fdff010101
02010102fd0101fe03fe03fffeff0103fe03fd01030102fe01
01ff02feffffff04ffffff010504fefffffbff03fdfefc0501
fe020304ff020304fd02fefffffffffd01ff03fd01f90101fd
0203fffcff01fc020401ff02ffff01ff0301020303fe040201
010201ff0203fffe02010201040202ffff01ff03fd01fe01ff
02030201fe0101fffffefe03fe01fffc01ff0201fdfe05fffe
0103fffcfe03fe04ff0101fffe020402ff02fd0101fcfffefe
0101fefefffefe0103fcfcffffff01fcfe0101fefdfbfe01ff
010201fcff02ff02fdfffefd0202010203fe02ffffffff02ff
fe020101fe01ffff01010203020301fefffdff0102030602ff
fffe01fc01020301fdfeff010302020304ff020401fcfe01fd
01fffdfffffffefdfdfefdfd02fffd010305fffffe01010203
ff01ff0101ff020401010201fffe02fffe0201fe02ff050201
fffefefffd030201fffffffd0102fffdfd0201fefffdfefeff
02fefe0201ff01fdff03fdfefd01ffff0101ff0203020202fe
ff01ff01ff03fe01ff03ff010104fdfdfe01040201fd040101
01fd02fe01fe01fffefe02010302fefd01ff020201ff020201
ffff0104fdfe0201040402020201ff02fdfeff0202fcff0101
fdfffffeffffff0101fffd01050301fffefbffffffff010301
01fe0102fffbfc0102fffdfdfe0201fffffefdfd04fffdfdfe
02fffe0303ff01fefffefefe02fffe01fefbfefefd02fcff01
fe0303ffff03fe010304fdff01ff040202fffe02ff0101fe01
fefffffe02fdfefffefdfd01fffd01fe010101030301fd02ff
0302fd0302fe01fffffffdfdfeff03fcff02ffff02ff010102
0101ffff03fefefdfe0102fdfd01fe01fe03ffffff0102ffff
0302ffff0101fe05fffefefffe0102fefcfdfe01fd0201ff03
fd0303020301ff0101fe0104fffbfffefdfcfcff030203ffff
0201ff010101fefe02ff0101fffcfe01fefffefefcfefdfd02
0303010103fffe0302ffffff02020103010303020101fe02ff
0101fdffff01fd0103ff01fefdfefffd01030101fe0101ffff
0102ff0101fffffefcfdfffbfe0301030101ff01fe02ffff03
fd0104fd0101010301feff01fe020302ff010301ff01fe04fe
03ff02010101fefe0103fd02ff010202fdfefeffffff03ff01
fd0301010302020102ffff0203ffff020101010201feff0204
fe01ff0103010102fefffefc02ff020101ff0102010204ff02
03ff0101020201fffffefe01fffdff02ff0101feffff0303fd
feff02ff01fdffff0302ff0302020401ff01fffe01ff01fe02
03fffe02fd02feff030201fd01feff010102fffe02feff0203
01ff01fefffe030503fefc020303fefefd0302ff03fffd0101
fd020205fffdfeff0103fefffefffcfd030102ff01fe01fffe
ff040201ff010103fdff01ff02ff01fffd0102ff0403fe0102
fefbfcfffe02fdfe0405fffeff0302fcfefe040201ff050503
04ff02fc020101ffff01040102010102ff030402ffff02fdfe
0403ffff01ff0202fffc010101ff03fe02020402fe01fffffe
02fffeffff01ffff0401fffeff020301fffd0403fffffe03fe
fe02ff01fcfffd01ff020301ff0101fefe0101ff01fe01ff03
0401ff01fe03ff0102ff03030201feff030101ff01ff01ff02
fffefcfefc01fe0201ff02fefffe0302feffff03010101ff03
0203feffff0201fdffff01ff020201030202fdff01fe02ff03
01ffff030101fffb0101fffeff03feff0201fdff03fcfd03ff
0102fdfdfffdfffc0104fffd04020201fefefdfefffeff0101
03020204fffefefe03fe0101fd0302fefffc01010302fc01ff
0101fdfdfffffdfefe0101fefefbff0103fefd02fd0103ffff
fdff01fe02020101fc03040101fe060203fdff0102fdffff01
fdfefd0201fefffcfe03fdfdfdff03fffffffe020101fe0102
ffff02ff01fd01ff0105fffb0101fffefffeff010101fc01fe
04020203ffffffff0102fdfdfffe03010402ff0301fdffff03
0201fffdfe030204fd07020403020101fe01020304060301fe
ffff02fffe010203020401ff01fe01fefef9fe03feffff03ff
01030303fe02010203fd02020102040101fcfd0102fbfd0302
fbfeff03fffffe01fe020303010201fe030103ff02fe01fffe
0101ff010101ff020101fdfffffd01fffe02ff0201fffeff01
ff010104ffffff01fcfdfefdffff01ff01fffffffffc0102fc
fffcfbfd0503ff01020302fffa0402010101020101010101ff
01fe01ff0103fefdfdfffe0101ffff0301010203ff0302ff01
fe0304fffcfe0201fd01030101fc01ff05fefb04020402fd02
fffefffe0204fefdfe01ff03fe01050405fe02030303fe03fe
fffffe0201ff0205030101fffffffe010101ff0104fffffdfa
feff020201feffffff01020101010402ffffff030102ff0301
fffffcfcfd03fffc01ff02ffff03fffefffefd03020201feff
ff04ff0201ff01030402ff05fffffefdfffdff01fd0204fefd
fefdfb02ff03fe02ff0101060302fffefd020403fd010101fe
ff0303ff03fdfe02fefeff0201fdfffc0102030102fefffd02
0103fffefbff0202010101010204030301ff03ff0302ff02fe
03ff03ff01010101fd02010105fffeff01fefc0102fdff01fd
feffff010102fefe010202ffff01010101ff01fffd0201fcff
ff03fe02fc02ff0101fdfdfefc010102010101fe02fe02ffff
ff02ffffff0202fe03fd01fd0302010202030101fffdfdff01
fdfefffd03010101ffff02ff0103ff040102020202030301fe
03020203fd030201fffcff0102fb01ff040101ffff020204ff
ff0201ff02fffdfe02fe03010201030102ff01ff03fffdfefd
01fb01fc01fe0301ff0101ffff02ff0102fdfcfb020302ff02
ffff040102fd0604fc010103fe0202fe03010101ff06fdfe02
ff0503ffff02fefffe010301fefffffffd0201fe01ff0404ff
0302fefe030304040101ff02ff02ff010302fefe0101010301
01feffffff03fffeff0101ff02010102fe04ffff02fdfffd01
fe02fdfefdff03fdfefdfffeff0304ff03ff01fd020102fffe
fefefefdfcfefffffffcfe03fd04ff0101fffe02fffffffd03
fe0301fefc0103050302020204ff02020101fefefd030201fd
0103fc01fefdff01fbfbffff04fefbff03010401ff04040504
feff0203030202050206ff040101ff0103fdfd04fd0101ff01
ff01040103fe0304fd040101fe0105ff0101ff04040202ff02
fffefefe02ff0102fd010303fdfffefeff03040401fd0501ff
02fffd010303fffefffe01fe02fd030101ffff03fffefe01ff
fcfefefffffdffff02030102ffffff0101fefffdff0201ffff
fdff020301ffff03fffeffff01fcff0103fe01fe02ffff0302
fe01fffffdfd03fd0202ff0301fe01ffff03fe010301fffeff
010301fcfcff010201fefffcfffefbfd0103fefe02fffffe01
fd0203fefd03ffff01fb01ff01fdfdfefe0501fefdfd0203ff
ff0103fdfc01010405040104ff0103fd0204fe03fd02010301
fe01fd0201fdfd02ff01010101020302fffffdfffefefffffe
01ff01fefefe02fdfcffff0401ff03feff02ff0301fb010302
01040204fffdfe0202fefdfe0304feff01fc02030202fe0102
fdfcfdff03fdfbfe0401ff02ff0103040101ff010103fe01fe
03050201020102070401fefefefffe03fffffefd040401fbff
fd04fdfafc02ff01fffafdfc0602fffffd0302fefffdfeffff
0103010102020203030502ff02ff01fc0101fcfc03fdfffffb
01fffe040101fe01030101ff0102050201fe01fefe0401fdfd
ff0301fcfdff01fd01fcfd03010101ff02fefe0102ff0203ff
fffd0201fffefeffffff01fe0101010103fd01fffe0201fffd
0104030301fdfeff02ff02fffd03ff0403ff02ff01030303ff
030302fffd02fe0104fffb01feff010202fefdfefeff030101
fffe020102fd0103ff02fffdfeff03030101fffe0102fe0401
fefcfbfa01fefefffffe0302fffe01ff0101ff0102feff01ff
fefffd0101ff03fffd01040302fffeff0301010401fe020204
0204050203fc01ff0103fffdff0102fefefdfdfeff030502fd
fe02fdfdfefe0101fffdff0101fe010102fd03fe020101feff
ffff02010102020301ff01fdfefe02ff03fffdfe0303fdfd02
01fffdffff0101ff0102ff02fefe010103fefe03ff01ff0203
fd0203fe0103fdfeff02fefe02fd03ff01ff01feffff01fefe
fd02ffff02020101ff0103ffffffff03fefffefffe0302ffff
01feff0203fe01fe010202ff02fdfffe02fefe0102fdff0201
02fefdfd0101fffdff0201fe01fd03ff02010101fefe0302ff
02fd02ff01fffe02020302030303ff030103ffff020101fefe
0201ff01ffff01010102fe0201ff01fefeffff02fefdff01ff
01fd02ff02fd0201ffff030103fefefffdfefeff03fffd0101
03fffdff01fefffffdfdffff0102fdff03fe02030203ffff01
ff0101fd0102fffefd01ff01ff02ffff0202ff02fd02fd01ff
02fdffff01fffd01fffffd02fdfd010102fe020201feffff02
fefefd03fd02fffd01ffff01ff01fe01fe01fffdff030202ff
02fefeffff02fefefe02fe02fdfffffdfefffe03fefefe01fe
fffd01fffffd02ff01fefefefefffe0202020102fffd020301
02030101fdfdfe010102fe02ff020101fefefdfdfffefe01ff
fefffe0101fe01030103fdffffffff01fefefffffd0302fe01
0301fd01fdfe0102fe03fd010303ff03fffe03fd01fffeff01
fefd02ff01fffe03fdfe03fdff03fdffff01fefdff020102fd
ff0301fe01ffff02fffd0203ffff020101fffefd02ff0201ff
fe01fffe02fdff03fd01fefe01030101fd0203fffffefe01fe
0201020201fe03010202ff02fd01010302fefd01fffefdffff
01ffffff0301feff0201fefdfe01ff02020201ff0202fffe02
ffff02fe01ff010201fd02fffdff0101030103fd020102fdff
020103fe0101feff020201ff01ff020201fdff01ff030201ff
020201fefeff02fffdfffe030301fefe0301fd03ffffff0301
01ff03fffeff02fd010201fffffffd01fdfffe01fd020203fe
ff01fffffdff0202fdfefefffeffffff0101ff0101ff03fdff
fd02ffff0301fffe02ff0102fffe0101ff01fdfffefffefe01
0102030301fd01fffe0101fefe010103fe01020103fffffeff
020301fe0102fffcfdff01feff01ffff0102fd0103fdff01fd
fffffefeff02030102fe02fe0101010202fdff03fd02fffffe
ff02feff01fefd030401ff01ff040102feffff01ff04fe01fd
030202ff0101ff0302fd01ff0202fffffdff0102fefd01fe01
ff0302fffeff0103ff02ff0203fdfd0301fffdffffffff0202
0302fdfc02fd03010101fffdfffe02fe03fd02ff02020302ff
02ff0101fd0301fffffffefe01fefffffe03fdfffd02fe0102
0102fdfdffffff0201010101ffff0202feff01fd01ff02fdfd
ff01ff0102ff02fc01fd0101ff02ff02fc01ffff0103ff0202
03fffeff01ffff0101fd0101fefe0103ff0104fdfffd04fffd
feff03ff02fe01fe01feff0202fffefefdfe01fefffefe0201
0202ff020202fffe02fffe03fdfdfefe010201ffff02fdfe01
fcfffffe01ff01fffeffff02fffefdfffffdfd0301ff01fefe
ff02030201ffff01fdfdfffdfd010101ff0302fffe0301fe02
02ffff02fc01fe01fffefdfefd020101fe0204ff010201ff01
03fefefefc03fd01feff03010202fefffd020201ff03fffdff
03ffff01010103ff020103fffe0101fffe03fffffffdfe04fe
fdfdfd0101ff03010302ff01ff02fffffefffffdfeff01fe02
01fefdfdfe0101fd020101020301ff0303020301fffffefd03
03fd010101fefdfe0101ff02feffff0302ff0201ff0101fefe
ffff01fe0101fefdfe0202fefd0302fdfe01fe03ffffff01ff
030302fe020102fd030202fe020201fd010103fe0201ff03fe
0102ff0302fffffd01fd01fefefd0302fffe0301010101fefd
ff03fe03010101ffffff02ff02fffffffdfffefe03ff020102
03fe0302020103fffdfffffdfffffefd02ff03fdfefe0101ff
030201fffdfe01fd01fefffdfffe02fd02020201fdfefffd03
010301ff03fdff03ff01fdfdff01fe0103fdff0102ff02ff02
010103ff0201010202fefeff01fd01fefe02fe0103ff01fe01
ff01ff01fe0201ff01feff01fdfefe0101ff01fffdff01ff01
fd01ff02ff03010301fdfeff0101fd01fefeff030102fd0101
fe010302fd0201ff010101ffff01ff0101fdff0102fd0301ff
01fefefdfffefffefffdffff03fefdfdfdfefdff0103fdff03
fdff01ff01ff0201fdffff0203fe010201fefefdfe02fefe01
ffff01fdfffffeffff0201010102ffff01fefd01fffdfdfe02
02fdfc030101fffefcfefdfefe01fffcff030301feff01fffe
fe030102fe02ff0303fffe010201feff01fd01030203ff0303
02010101fffffdfcfe01030301ffff04fbff04ff03fe010301
ffffff03fffd0303fffefd030204fd0403faff0403fe0202ff
020503fffb040202fffffdfafefffd02ff0102fdfe0105ffff
fe03050701ff01ff0202fe0105fefefe0102fdfd02ff040102
fdfd02ffff01020101010105ff02fe0101fefffd0101ff0201
0404ff01fe0103ff01fdfffb01fffeff01ff0303fe0401fffe
fffe01ff0401ffff010102fdfe01010101010301fe01ff01fe
ffff01fcfeff010304fe010201ff040203010201ff01feff03
fe0102fffbfffefd01fc03fc01010103fe0201fe01ff030101
ff0101020203010201fe0301fefd01fd0202fefd01fd01fefe
fd01faffff0102fefffd03ffff03fffdfbf90202ff01fb01fd
fcfffdfe01fdfffffbfeff01fdfffefffffd01fffeff030103
010101fdff02ffff020304ff0201ff030501ff010301ff0101
fefd01fbfdffff0301fd03ffff02fe010301020202feff01ff
fffffffd02fffbfe010101fdfe0303010102fd020301fefefe
0101030301ff06ff030301ff02ffffffff01010102ff02ff01
fd010503fefd010704050101fefffe02ff010101ff04fe0101
020103fe02030103fcfcfdfe010102fbff05030204ffffff02
01fffef7f801fffe0502ffff010202fffe010601fdfcfffffd
010204fafb0304fffefd01fffd01fffffe010203fd0103fe01
03040402fe03040302fbfd0203fcfc0202fefe02fd03ffff03
02fefffbfd0202feff010101020203feff02ff02fefd02ff03
ff010301fcfe0301fefdffffff03fefd02fe03020103020201
ff01fe02fcfffefd02ffffff01fefdffff0202feff03ff01ff
0103fefbfa04fd02ffff0102ff010301fefdff020204fefd01
ffff010102fe03fd0202feffff030203030201fefe02ff03ff
02fbff040202f9fc0102fffffe0103fffe01fffe0102fefd01
feff0101fefdfffbfeff02fd02060402ff01030403fffcff02
ff03010401010203ff0303ff01fffffe0203fe020303030102
feff01010101ff0101fffefffcfffd010102ffffffff03fe01
ffff02fdfeffff01ff02ff01fffe02feff01010302030102ff
fe01fc02fffffdff030301ff0101010104fdfefe0202010201
01fdfefffffdff02fe03fe0601040201fefe01010303fb0201
ff03020103ff0102fe02020302fdff0101fefc03feff01fe01
0301fdff010101fffc02fffdfffe010302ff0301fdfe03fffd
fdffffffff01fbfffdfe01ff02fc010101ffff030301ff01fe
01fe01ffff010501fffe01040101fe01fefffffe01fefb01fd
ff0303fefe01fcfc0302fefffffffe030401feff01fffd0301
0102030103020301fdfc03ff0201fffefe03fd0101fffe03fe
0101040102fc02fefe02fd01fe02fc0103ffff01010101ff01
03ff02fe01fefcff0101020101fffefefefffefe02ff0201fd
02fe01ff03010303ff0203fd02fffeffff0303fefe01fefdfd
0104fffdfefe0204ff03020401fdfe020304030202030406ff
fe0102fe020101030201feff010104fdfefe0101ff0604ff02
ff0104feffff0201fe03ffff0301fc01fd03fdfefe01fefe02
fefeff0201ff040301010101ff0303030101010201fe0103ff
02fefffdfd02fe0202fe03fd02fefd0102fdfe0301fffffd01
fdfefffdfd01feff01fe03fd0103fe010101ff01fefd01fffe
01fffdfd0101fd030101fefd0101fffefffd03fefe01fffe01
01fffffd03010102fe02fefdfd02feff010102ff01fdff0101
ff02fd0101ff02ff01fffdfefefffd03ffff0103fe020201fd
03fd0102ffff0101ff02ff0103fffefefe0102fd03ffffffff
fffe02feff01010102fe03ff02feff020302fefe01feff01ff
01feff0201fd01ff01fd0202ffff0101ffff0101ffff02fe02
fe01fe01fdff0202ff02fe010103ff0203fefd01fefd0101fe
03020202ff01fdfe0101030101ff0301fffefe0203fdfdff01
fdff02fefe01fdff0102fe030202fe01020102fdff03fdff01
fd01fffd01fffe03ff01fefdffffff01fffe0302ff0203fe01
01fe01fd01fdfffd01ffff01fdfdfd0101fd03fe0103010201
0102ff020302fdfd01ff0202fe01030103fefeff01020101fd
01fefeff0103fffdfe02ffff0201fe0101fd01fe0102fdff01
fffe010202030202ff020101ff02fd01fdfe02010101010102
02fffffd0103fefd010203020103fd03fd01fefffe01ffff01
fffeffff03fdfeff01fd0302fe02030101ff0202fefeffff03
0302ff0301fefffefe010201fffeffff02fefdfeff03ffff03
fe0101ffff020102fffffeff0201ff0102fefe01fffefd0301
020201fffe02fdfffd02fe02ff0202fdff0201ffff0203ff01
fffffe02ff020101fffe0301fdff01fffffe01fffdfd01ff03
02010203fefe01fffefdfefe0301fe01fefefd030103010301
ffffff010102fe01fe02feff020102fefe0102020102fffe03
fdfdff0101fffefffffe0201feff010201fd02fe03fefeff01
01ff03fe01fe0302feff01fffdff010102fffffefe02ff0302
ffffffff0301fffffdfffffd01fe0203fffdfe01010301ff01
ffff01ff030201010301ffff03ff0202fefd020101ffff01fe
fd010202ff0302ffffffff0201fdfe020301fffdff02fffefe
fefffe03fffdfefeff0201fefdfefefffdfe01fe03ff01ff01
fdfeffff03fefd01fffe01fdfdfffd01010202ff03fe0101ff
01ffff02ffff01ff01ff01ff0102020102fe030301fe01ff02
ff020201fe020201fffffffffffefd02ffff01030203fd01fd
03fdfdfffdfffefeff02fdff01fffd0202fdff0103fe020101
fd0102fdfd01fffdffff0302ff03fefeff010201fe0202ff01
fe02fffd01fdfffc0101fdfe020102fffe01fd03fffefe0201
fe0202fffefe03010302fdffff0203020201030102fd02ffff
03fefefd01fdff0102010302fffd0201fffdff02ff01010101
0301fffdfefd0102ff0101fdfeff01fe01fffefdfdfe0102ff
0301020302fffe01fe01fdfe03fd0203fefefd030302fefeff
03020101fd0102fdff01ff03fe0301ff03fd0302020101fdfe
010302fffffe0101ff0101ff02fffd02ffffff01fffe01feff
fffd01fdfd01fd01fdff01010101020101010102fefe0101fd
fefefd010203010301ffff010203020201fffe02fdff02ff03
03fefffd01fdfdfffffefdfdff020101ff0302ffff01fefdfe
fd02ff010201fffffefe02fdfdfdfefe0101ff010101fe01ff
fffeff02ff02010102ff0301fffefeff02fc02fdfe01fdfe01
fd02010103fffe020203feff0102fffe010101fd0101feffff
ff0201fe0201fe010201fe0103fefefd0101ff03010404fe01
02fcff020101ff01fd02fefffdff0101010201fc02020101fd
ffff0102fffd0101fffffefdfffe030103fe01fe0101fe0302
ff01fe0101fdfdff010202ffff01ff010102fffd01fffdffff
01020201ff01ff020303ff0404ff01fffffffdfdfdff0202fd
fffffcfffffdfefc0204fefefffefe0401fdfdfd04ff0201fd
fefe02ffff0101fc01fffe01fffe02020201fffe01020203ff
ff03020201fe02fdfefcfe01010303fd0103ff02fd0101fefd
01fdfffeff01020201fe01ff03fdfdfffffe01ff03010103fd
fffc010302fefefffefe0101fcfdfd0301020101fdfeff0101
fdfbfdfe01fffe050203fe0101fe01fdff01fd0301ff02fe01
fe030102fffe01fe03ff0301ff0201fe0103fe0203fefeff02
ff03fe04fd01010102fe01fe03ff01fefdff04ffff020102fe
02fc01feff01fc010303ff0101020101feff04fcfffe03ff01
fffeffffffff020102fcfefefd0201ff020104ff0103fe02fe
fffe0402fffd0201030101ffff01fffe01ff02010101ff01fd
0201ff01fe01020101ff01feff020102fe0102fffdfdfe0102
010103ff03fe02fefe010101010202030302fdff03fefe03ff
fd03020303fe0201ff03fdff0103020102ff01ff03fffefc01
fd01fffe02fffffdfffffe010101ff020301fefefeff02fe02
ff01fcfe0203fefdfe04fffeff030103020201ff01ff010101
fdfe02ffff020102ff02fd02fefe0302fefe04ff02ffff01fe
fe02ff0201010102feffff01fdfefffdff01ff0103fefe0101
feff01ffffff01fe0201010303fe01fe01fd0201fe02010301
fe010103fe0101ff010102fffe0201fffefd02fffffd02fffd
fffe02040103fefefdff02fefffd01fe03fffe03010102fe02
fffcfffffffe03010104ff0101010201ff030101fffeffff02
02fffdfffe01ff0202fffffe010203ffff030301ff01ffff03
02fd0102fffe030201fd01ff01fefcff02fffeff0103ff01fe
ffff01020301010102fe03ff03fd030402fefeff02fd02fffe
02fefefefeff02fe04fffefffdff010101fe02ff030402ffff
fe010101fe0101fe010202fe03fdfe02fd02ff01fffcfd0202
fffd0303feff02fd03ff02020401ffffffff01030102fe0401
fefefefefeff0303ff02fffefd0102ff02fe02ff0403ff0201
0401030201fe0301fdfc02feff0101ff04010403fffffdfdfc
030401fdfcfd01020503fefd01fffffeff01ff0103fffeff02
02fbff01fffffffeff040202010101fffefffd010302020206
fffe02fdfc0501ff010102fffdff01fffcfffffe0101fefdfd
030304ff010105ff02fb0402040201fffffeff02fb01fdfffc
fd01fcff02fd05ff01fffe050202ff030201ff030203ff0102
fdfefeff0201fffeff03fefe0203fe01fefffefe020302feff
fe0101fffffe0102ffff0102ffff03ff030301fe0202ffff01
010101fdfffffe01ff01ff01fdfcfdfffefdfd0103ff020201
02010101030301fe010201fdff01ff020203fe01fe0203feff
0303020101ffff01040203ff02ff03ff0201fffdff01020202
0203fffffffffefbfe0301fb05ff03feff0401fdfe01020106
0504ff020201fd020401ff0101fdffffffffff0203040201ff
fffffe01fefffdfe03fdfe0102fffffdff03feff01fffe0202
02ff02fe0101ff01fc01040503fdff02040104fdffffffffff
0201fffffe01fffd0103ff010102ff0301fcfe02fffffbfffe
ff02ff0402fcfe02040401fa0104010301feffff0202fefcff
01ff02fffefdfc0203ff02fe010101fb04fffbfc01ff02fd02
03fe06ff020103010301010503ff01ff04ff0202fefefcfe02
fdff020203fdfdfdfdfdf9fb0101fffefc01ff01fdfc0102fe
fdfe010302fdfefd01fffafaffff02feff01faff0403ff0303
010104ff01fe0402ff01fdfe03fffdfd02ff0301ffff010101
0101fd01fdfefe03fdfffd03ff03ffffff01ff0102fe020101
02030105030101010101fefeff02fdfa0201fc03fc01010102
fffffefffffeff010102030203010301fbfdff04fdfefffbfc
fe01fffd0301fffefd03fffd0202ffff0101fd02ff02030202
03040101fefd01ffff03ff07030101010702ff01ff0301fffa
fe0204fefeff02040303ff050202010604fe010404010101fe
fefd0304040201ff0403fcfe02fefefefcfefffa01ff01fdfd
fffffd02fffdffff0401ff0203ffffff040301fe03fffefdfe
fe0303010101010101fdfd03ffff01ff01fffcff03fe03fd02
01fdfffd040304fdfbff0402ff01fdff0402ff02fefe0102fe
030101fe010103fdfdfc0505fffefdfeff04ff03ffffffffff
01fe01feff0301fcfe02ff06070303fd0103fe02fe01030102
fd02020405ff02ff02050202ff0101030202fdfa01fefffffe
fcfc0303ffffff010202010501020201fe01fdfc02ff0303ff
0101ff02ff02fffefc020201fd04060106fffe02fdffff01fd
ff03030404fdfc020103fe0401fc01030401fcfffdff020201
01fd010402ffff01ff02fffffffd01fe02fefefffefe0204fe
fffffffffe0204fffeff01fe02ff0401ff01ff01ff02010302
fe01fbfd0501fffeff0102020102fe01ff0202fcfd040402fe
02fd010203fffdfffefe02fffffe010302ffffff020301ff02
030101fdffff030202fbff0104fefcff010101fc01ff010101
ff0101fe0501030201ff01010101fc01020101fcfe010201ff
fd01fe01ff0203fffdff010106fefdfdfefe01010201fdfefe
03010505ffffff01fffeff0303020201010301fffc01010101
fe01fffd01ff0101fffffffdfdfdfdfefffe01ff0204ff0102
01fffffefffffd0103fc0203ff02fdfd010402fefefefefffd
ffff0101fefd01fdff03fdfffe0103fe0101fefefe020101fe
fdfcfefffffdff0101fdfdff030201010103ff01fdfd02fd03
fe0301fefdff0102fffefefffefd020203fffffefdfefffefe
01ff04060402fdfffe01ff0201030101010103fe010401ff03
0101010302fffdfe0104fffe01fd02020202ffff0301feff01
01ff0202ff01020201ff01ff02fd0301fefd01ff02ff01feff
01fd02010103fffdff01fffffd0102fe0201fe01fffffffeff
fffd01fefffdff030201fffd020301fd010203ff02fffeff03
fdff0201ffffff0201fefe0104ff02020302fffefffffcfeff
fe0102feffff01ff0201ff02fe02fefe01fdfd01ff01fffe01
03fd010103ff01ff020303fffffd01fffffffd0102fe03feff
01fefffffffd0101fe01fdfffdfe02010202fd02ff0101ffff
fefd01fefdfe01fefe02fd01020203010103030302010302fd
03fefe020303ff02fd01fe030202ffff01fffe030301020201
fd01fd02010302fe020102ff0103fd040402ff0302fffbfefe
01fdffff01fffdfcff040201fffffd0402ff01ffff010102ff
0101ff01ffff0204feff0103030101fefffefeffff0502fe02
ffff010303010203fbff020504fa02fdfdfffd03fe01ff03ff
0101fffffefe01ff01fafdfeff01020407010101fdfbfbfe01
01fe040201fbf90102fdfffd01fe03fcfdfcff0402ff01fe01
01fcfffdff01fefe0204010103ff040301fbfe0103020201ff
0305ff02ff01fdf9ff0102fe0101fe040202020101fbfe0102
0103020301fe01fe02ff03fefffe02010201fdfdfd02020301
fe01040102fd0303fdff030303fffefdfffffe0101ff05ff01
ff040603fffdfd0101ff03ff010102fe03fd0301fffdfcfd01
0102fffffeff03010201fdfeffff020101fffd02fdfefd01ff
03fdfc0101fd0603fefcfd01fe01ff020202ff04fdff060101
ffff0202ff020404fefeff02ff01ffff070601ff0306fd03ff
feff030102010401ff02fe0203fe01fffe03fd01fbfe03fe03
ffff0202fd0405040202ff01fffefe0101fffefeff0202feff
ff01ff02fd03030101fefdfdff02fffffe0101fe01ff010101
fffffe01ff02fe0102fe02fffeffffff03fe01ff01fefd03ff
010201010101fdff0302fffe03fffefffefffdfeff010102fe
01ff0101fd02fffe0101ffff0101fe02fd03fc0201fe0102ff
03020101010401fdfcff02fdff01fffe01ff03fffffeff02ff
0203fefdfcfe01fffffffe040301010202fefd03fe03ffff01
fe0101010202ff0101fe030301fefcfefc01fefe03fd02ffff
0202ff02010202fefffcfd01fffefffefe01ff01ffff01fe01
030101fd02fd0301fe0103fe0103ff0202ff03ff03ff01fd01
01fdff03fd010101ff01fffdff01fdfefeffff02010101fdfd
030302fcfd03feff0103fffdfdfffffffeff01ff03fe030101
fdfffdff01fd0303feff0203feff03ff01fffd01ff010103fe
fffc02ff01feff01ff01ffff020202ff0303fe0303ff01feff
02010302fd0101feff0102feffff02fd0201030201fdfeff01
01ff03fffffefffe010102fd01fe020201020302ff0101ffff
020102010101ff0105020201ff04fefd01fffd0102feff01fe
ff030301ff03fefe02ff03fefffeff01fe0101fe02ffff0102
03fdfefffe0301fffe04030401030201010101fffe010102fd
fe01fd01fefd02010103ffff03fffffe01ffffff0301fffc01
fcfefefb0303030102fe0402030104fffc01ff02fdff0101ff
01ff0202020101fd0401fe01fd0103ff02060202fcfcfffefe
feff01020501fcfbfffcfffdff01fffdff040402fe01050201
0403fe01fffe01fafb03fe0101fffffd03ff0403ff01020301
010202fffeff01feffff02ff02fc030104fe0203fcfefc0302
fefefffd010301ff02fe010102fefe0101fffe0102fffe02ff
020101fd02ff040102fffd02030403fbfeffffff0102fffe01
01fffbfe01020101fe010403060202ff020102fffe01fdfffe
ff0301fd01fffd01ffff01fdffffff03fdfe02010101fdfe02
010205ff020104ff0301ff01fe02fdfd0105fffbfe0401fbff
ff0103ff03fd030501ff020304ff0202050803010304fffcfd
0201fefc0202020105ff03fe030503fdff04fd0101fffefbff
fdff03ffff02ff0201020201fffcfd0201fffd02fffffc0101
0301fdfffffe01010101ff01010102010101fcfffffdfd0101
01030401fd03ff0102ff03fe02ff0201fffe0202fdfffdfeff
02fffe030301fe0101ff0101fefffe0101ff05fd04fdfffefe
fd0102fdffff010301fefdfeff0302fffffd01ffffffff0101
ff0101fefcfefdfffcfe03fffe01ff0105feff01ff01fc0103
02fe01fd030103feffff01fd0201ff0202030402ff010203fe
010102fffe03fe0102ff010103feffff010305040502010304
02fefe0201ff01fd020103fdfd0101ff02ffff01fd02ff0403
01fe030202fffffffe03ffff02020202030301fe02fdfffe02
04fffffefe02fd01030403fdff0101fd02010301ffff0202fd
010302fdfffe020102ff020101fe010403fffcfc03fe01fffe
020102010101ffffff02ff0103fffe02fefffffe01ffff0303
feff02ff0202fd0202feffffff02ffff0202ffffff01fffbfe
fffe01ff010201ff0303fe01feffffffff01fe020301fafafd
01fcfefffe010101fe0203ff0103ff02fe03ff030201fe01fc
fd02fffffffefffeff01fefefffcfe0104fffcfe02020101fd
02ff01ffffffffff0101ffff02ff010202fdfd0301ffffff02
01fffffd0201010102fe01ffff0102fe0102ff01fe03010101
0101fefffd0101fdff01ff01fffe02fffe020302020103fe03
ff01fe0101ff01fefeff0101ff03020101fffe01ffff01fefd
0302fd0103fdffff01fefe01ff01fffe03010101fe01fe03fe
01fffffdfeff0102fefd010103030101ff0202ff03fefe01ff
02ff01ff010303fefefd0201ff03fdfefe0102030202fffe02
01fefe03fdfd01fffe02feffff020102ff01fe01020102fffd
0203fefe0202fdfe01fffffefeff02fefeffffff0101fe0301
fd01fefffdfefefffd030101feffff0101010102ffffff0202
030101fe0301fe0301020201fcfd02fefefffdff0202010102
fffe01010303020203ffff0103fdfdfe02ffff01fe01ffff01
fe01ffff02020201fe01fdfe0401fe010102fffdfffe01ffff
fe01ff01fe03fdfffdfdfd0201fdfffefefe010202fffffe02
fe03fe03010202fffffdfd01fdfefefd02ff020302fd0301fd
01ff03fefe01020102fe01fffffffefd010102010102fefefe
ff0301030203fffffdfd02010201ffffff01fe010302fdffff
feff02010402010303ff02ff03ff01fdfeff0101fffe04ff03
05040103fdff05fefdfc0104fd01fcff0402ff02ff03ff02ff
fcfcffffffffff03040301040304ff01fc020401fcfffffffe
03fffe0501ffff01fd0401040303ff040604fdfefefdfefc04
fefdffff01ff01ff010101fc010104fffa01fffb02ff0504ff
04040102ff0201fdff03fe01fdff01fffd02ff020401fe05fe
ff01ff02fffdfefeff02ff0202ff04ffff010102fb01fc01ff
010203ff0201ff0203fe010102fcfe02fefffefdfffefe0201
02fc02fe0101ff040301fefd06030201fe0105010202fffe01
01fffcfefdfd0204fe0103ff02ff01030301fafffe04ff0103
01010102fefe02ffff01fd0102fefffdff03fdfdfefeffff03
0105070403010203fffd01ffff01fd03020204fffd0201fcfe
03ff0204fffe03ff0101fffe02ff01fd030402fc01ff02fe02
fefefcfe03ff01fe030104ff05fdff01fd030505fc01ff0202
02fe05040201ff01feff02ff0101fe03fe05fefffd02fcfffe
0203ff030202fc01ff0201ff03fe01fdfbfb01fffdff0103ff
ff03010103010403fdfd01fd0201fd01030101feff0201fe02
01030103ffff02fcfcfffefe01fffc03ff0201040201feff01
010203fe01fe02fffefe03fe020401ffff02fc0104fffffc01
fffd01feff01fc010502020204fefcfbf8fbfefb01fe07ff04
03010302fdffffff02050102020102fffe01fc01030402fc01
03fffe03fd010101ff0301feff0504ffff02fffdfffffefd01
fffffe0302010102ff01fffffd01fffefefcff0103fd020404
fe03010102fe03fe01fe01ffff01010303ff01fffeff010402
fefffffd030101fffd0103ffff01ff0201fffeff010201fdfd
0101fdffffff02040202fefefffffc030302ffff02ffff0403
ffffff0201ff01fffefeff0202fd01010203fffd01fefeffff
fefefdfffdfefdfd02010101ff03fefeff01ffff0201fbff04
02fefffd0101fcfd020101ff0501ffff0101feff02fc0104ff
02ff01fffefcff02fd0103fffffcff05010303ffff0402fdfd
fefdffff0102fffd010102fffffffffe01fefeff03fe02fe03
03ff02ff02fffe01fd01fd03fe02fffe010102fe02fe020103
fefffffd03fffd02ff03fdfe02fe0203fffffeff0101feff02
fdfdfd01fd01fd02fefe020201ff01ff0202fd0303fffdffff
0103ff010201fd01fefefd01ff010202ff02fffffefdfe02fe
fffffdfe01fe02fdfe01ff010102ff01ff0101020101fd0303
03fffd03fffe01feff0101feff01fffd0103ff01fd01ff0102
fdfe03fffefefe02ff0303ffff0201fdfdfdfefffffffeff02
fdfd03fffdff02ff020101fe01fd0101fffffefe01010202fe
fffeff02feff020103fefeff0101fdfffe02030201fffeff01
ff0102fdfe0103fffeffff01fffeff03feff02fdff02fffd01
fefe03fffefffefffefe0302fefd0101ffff020201ff020301
02feff02fe0301fd0101feffffffff01ff01fe01feffff01fe
01fdff01feff01fefd01fd010203feff01fd01fd010303fefd
0301feff01fd0102fefd02ff01fe02fe010101fdfdfffd01fd
ffff01feff020303ffff01010201ff03fe01fd0303ff0103ff
0101010303fefeff0101ff02fd03ff02fe02fffffdff030303
fdfdff0201fe0201feffffff0303fefffeff02010301fd01ff
01fffffe02ff03ff01fc020101ffff020201ff010104ff03ff
01ff010302fd0304fdff02010103fe02fe01ff03ff01fd02ff
ff010103ffff0403fdfd0302ff01ff02030301010401fd01fe
0203ffff01fe0103fdff01fefdfd01fffdfcfe0201010101ff
01fe0401ff02ff01ffffffff01fefd010504ff01ff060102fe
fd0103ffff02020102fefffffd04fffe0104fe020103010204
01fefe01fffd02fdff0101fffdfeff0302fe02ffff0101fffd
ff0202fffffefffffe02ff01fffffffffe010203ffff010203
fffdfdfc020201fffdfd0402fe0103030503fe01ff01fffe03
030101ff0101ff02ffff02fdfb0101ff01fcff0304ff010202
ff01010201fdffffffff01fefffdff03fe02fdff0201ff0202
fefffdfd01020202010202fc04fdfffdfffffdff01fffb0102
fd0201ff0302fd01fd010102fffbfd02fe02fefd01010102fe
ffff0102ff020203feff010101fcfd040103010301040402fe
01ff0102fefeff03fffdff01ff02ff01ff01ffff0102fdfffd
02fffafcfcfd03010101ff0304fffffdffff0203fffffefdff
0202050101fcfdff0103fd0204ff0301010201040202040101
fefefdfc01fe01010103ff03ff04010102fe0103fd01fe0202
02020404fe02ff05fe0201ff01fbff04fdfefefe02ff010303
fdff01fbfcff03fffef7fdffffff0102010404010103010303
feff0701feffff030403040306fffcff06fefe01fefffefaff
ffff0403040103060402ff030104040101fffefe020501fefe
01010101010202fc0101fdfdfe03030101ff01ff0101010101
ff01fefe020101fdfefefe01fdfffefffdfd0201fd02ff01fe
020102010101fdff0502030504fefe030503ff0201020403ff
01060605fcfeff01fdff0203fcfdfd0301fefffdffff010402
ff0101ff03ff01fffeff02010102ff0102ff02020301fe01fe
fffdfcfdfffffcfbfcff01fdfffdfe02fcfe02fffe01fffffd
ff02fefefffd05fdfaf802fe01fffdfbfd01ff010202040402
01ff03020201fdfefbfe0201fffdfd01ff0402030201040206
01fffffeffff0304fdfd01fe02fe030302fd010203ffffffff
fefe030302ff0101fdfe03fffdff010302fdfe04ffffff0102
fffe01030202fdff020301fd02020203ffff04fefdff030302
030201ff0101fefefefdfefe020203020104fffefffffe0201
01fefefffe0303feff02ff01fd020101ff0303fe01ff020201
03fe01ffff02fd01fc0103ffff02fefffffefffffffefe0204
fffffd010102020201fd01030101020201fcfc010203fffefe
fd03fd02fe02fefe0201fe04feff030102ff020102fffdffff
0103fefefdfcfdfdfffffdfffd0202040202ffffff0101feff
fefffd010201020101fd02fe010103fffdfe01fd01ff03fdff
0102ff01ffff0204ff03fd02ff01fefd02fe01fefe0202ff01
03ff02fefe01ff02fffd01fffffd0302fefd0301fffe0101ff
fdff0202fffeff03feff020101fefd01fffffffffe02fdff02
03fffe0101ff04ff0102fe01ff01ff0101feff02fffffefd01
ffffff02fffffffffdfffffffefd0101fdfeff04ffffff03ff
fffefdfdfe01ff02fe030102feff03ff010103fefefdff0103
fe01fe010101ff0103ff0301ff03fd01fe03fe0101fffd0201
fffefeff01030104ff01ffffff02fc02ff01ff020102ff02fc
fd01fe01ffff01ff01fffdffff02fd02fefefe0202010101fe
01020101fffefffe0101ffff01fe01fd0201fe02010104ff01
01fffe030303fefe010203fe0403ffffffffff03fe0102fe03
fd01ffff01fc0101fd01ff03fffbfbfefcfefdfe02feffff01
02fffeff0501fa010204feff01fffe02ff020101ff02ff0302
fffefe0101fdfd020302fffaffffffff0103fffd020303fefe
fd01030404fe0101fefffffdfeffff02fdfd02fffe03ffff01
0201fd0102ff02020201ff01feffff03fefd020202ffff0101
fbfbfd0102ffff0101fd01fffe0301010103ff0101ff0202fe
fdfe010203ff04ff03fd01ff0101ffff01fe01fdfffffdfe01
fdfffdfffffefd02fe0301ff03ff03fefffdfffffe02fdffff
ffff0202fffefd0101fe01ff05feff0201fdffff02feff03fe
fefd01fffe01fa04030201fe0501fd0201fb04fe01ff010201
fcfffffeff01ff0302fffe01010104ff0201ff02fffffdffff
01010302fefd0103fefefc02ffffffff01010102fefffd0201
ff01ff02fefe040101020403fffffefe010101ff03010101fc
fefffcffff0201fe02fe0101fcfdfe0102ff01ff01fd01fdfe
ff01fdfb02040302fffd0301ff02ff01fc01fc01ffffff03fe
02fd0201020401030101040405fc03fffdfffbff0203fdff02
0202ff01030101ff01feffff010101fffe0101ffff05fe02fe
fbfdfffffdfffe0503ff0206040501020402fffffe01ff02fb
fffe0101030304fefcff02070402fdffff040303fffafafe01
0103fdff02fffdfdfcfffefcfd0301040102010103010302fc
0202fe02fdfffe03fe01fefdfffefe02fdff02fffeff01ff03
fffd010302ff03ffff0401fefd01ffff01fdfdfdfcfbfffeff
0102fffe02fffffffffffe01fb0201fefbfe0402fefdfe01fd
03fd02fe01fd030301fefeffff03fd03fffefffffeff02fefe
ff0301fffe02030202040201fffdfe0101fffe0101ff0604fe
fffe01fd0202030302fe04fffcfffffffef8fefefe02ff01fc
01ff04fd040101ff03ffff01fd02fffd02fffdfcfffefd0101
ff0403ff02ff04030603fffffc0404fdfffd010301feff0401
fdfefdff030201fe0202fffdfd05ff01ff030102010401ff01
020101fe010102ff0302ff0203fe0101fd02fe02ffff020102
fbfd0204fdfffe0307fffffcfefcfe02ff01010102ff020201
ffff0104fdfdffffff010202fd02010301ff0401fe01050401
010404fdf9fe010301fffffefc0104fffeff050501fefffffd
01030102fd03fffffbf9fd010403fdfffffcfcfdfe0601fe05
fe01fffe010204fe06fefe0401fefdff0103fdfd0101010202
010402fffb03feff04ff01fd01020202ffff01fd020101fcfb
fe0101ffffff02fe0301fd01ffff01fe02fdfe01fdfd01feff
02ff01fefe0303fffc01010302fd01fefffffd04feff02ffff
ff04fffefafefffefefc030203ff020301fffeff02ff01fc02
fd0301fd010102fd0101fefdfeff0203ff01fdfd02ff02fefe
fefdfb0205fffcfd01fffefcfd010301fe0101ff0303fe01fc
ff010101fffffefefcfcff02ff03fffeff0203ff01ff020101
01ff02ffff0302fefdfe0202fffefd0401ff0201fffe040105
02fffbfe01fe0402fffdfffdfefc0102010203010104fe01fd
03ff01020101fffd050101ff0305fe02020202fd03fd01ff03
fdfdff0104fffffd02010301fffffdfeff010301fdfefd02fd
010402ff0301010201ff03010302ff0202fefffffe010101fe
0201ff03030202fbfd02fffcfffd0201ffff01ff02020101fd
02fefe0203ff01fdfc04fe0501010304fffd0101ff03ff03fe
01fe010101ff01ffff010301fcfc010203fd03ff0602fefd02
fd02fd03fe0101ff01020403030203fe03fdff01fdfdfdfcff
020202ff0201fcfaff02fffdfd0102010201fefdff03010102
01fffffe01fefe0102fdfdfdfeff02ff030102fdff01fe02ff
fd020102ff01fffefdff0102ff02ff0503ff0201ff0101fd01
ffff030403ffff03ff01fd02fd01fe03fdfd01fe03ff01fffd
ff03ff0102ff0302fe020302fefe01fffdfffffe01feff0102
fd02fe03ff03ff030201fd03050201ff04ff0302ff050101ff
02fdff0203ffff030403fe0202ff01010101fffc04ff04ff01
01ffff0301ff01fd01fd030301fe0201feff01fe0302fc03fe
030301fffeff0301ffff0102020503feffffff04010101ffff
01feff0401fe01fffd02ff0201feff010303010102ff05fffd
ff01fffefdfdfffd020303fffdff0201fffdfffe03fcfe0102
0203feff01fe01fdfefffffbfffd020301fffdff01010506ff
01ff01fffeff01ff0201fffefb01fe01fdfe01fefefaff05fe
0101020401fdfd020101fffd01030403ff02fd010101fcfffe
01fdfefd01ff0206ff02ffff0201ff04fefcff03ffffff0101
fefd020301fdff0103fd030102fffffe01ff01ff01ff030101
02ffff0104fd01040101ff020404fffe01fffe01ff0401fb01
fffefe030201feff0301fefffd03ff03ff030202fdff01fdff
ff03ffff0102fe02fe01fffdfd0101fcfafe0101fefdfd0102
ff0104fefe01fd03fe04020304ff040101ff05fe01fa010101
02ff0102fe020301fe02fd01ff010102feff0101fdfffefffe
020101fefdfd0301fffe0201fe020301feff03ff01ff0602ff
fffdff01feff01ff02ff03ff01050301fe02020101fc0503fd
01fefefffd0105ff040301fefb03020103ff03fdfffbffff03
03020102fc01010101fdfd01fd0102ffffff01fe01fe030401
ffff020304ff030203fe03ff0301ff01ff04fffeff03fefefd
020101ffff0202ff0203fe04fefffd0401fffdff0201ffff01
01fefe01fdfd03fffefe01fefdfdfffefffdfb02fffffffe02
0301fcff030101ffffff01fefefc020101fd02fefffe020601
010201ff04fe0305fd02fffe01ff02fe0201fdff0405fffdff
fffc01010203030102fd0303fc02fefffdfe040202fe0502fe
0201fffefffefffd01ff030101fffd01fefafd03fdff01ff02
03ff04fffffd01fe0104ffff040304fe0102fffcfd02fffdfd
fe01fe0301ff03fffd03ff03fe0101fdff0201ff0303fffe02
fdff02ff02fd01fbfc0103fefcffff01fe03ff01fcfe03ff03
fd0103040403010101ff02fdfffe030201ff02feff0202fcfe
020301fdfeff03fefefeff0103fe03fffdfd03fdff0101ff02
ff0202fffdfffe04020101fe02030201ffff05fc03040501fc
010301fffe01030402ff0101fffffdfe020205fb010106fffc
fefefffd01ffff01fffffffffefffc0401ff010102fe040304
03fe02010101fe05fffdfc01ff02ffff0204ffff0303030101
0203020101ffffff010201ff01ff01fe03ffff010204010201
fffd01ff02ff03fe01fd0101ff030101010201ff0102ff01ff
fe0203ff0203040101fffe03fd01fefc0203fe01fefdfc0101
03fffdfcff04fffdff03fffeff030502fdff010301fdfd0201
03fffefefffdfffefc0103ffff02ffff0101ff010104040202
fd01fdfdfd01fc01fcff02030401ff0302040602fffcfafbfe
01ff0101ff020301fdfefe0102fffffe020801050101fdfffe
fcfeff03fffdfe0102ff0202fefefc01ff03ff01040401fffe
fdfefd01fe03fd03fdfe01ffff01020303fd0101fffe0102fe
fefe01fefdfeff030101feff01fe0302fdfe0201fe01ff03ff
ff0201ff010201ff02010203ff05fdfe01ffff02fe01fe02fd
010203fdfe01fffdfefd02fffdfdff01ff01fefffe03ffff02
ffff03060201fc050404fdfcff0401fffe01ff0102010104fb
0102ff0102fffc0403ff02ff04010102fffcfffcff01fffd01
01ff02fefd02030203fffe010105010201fbfffc020101fd02
fe040401fefffd0103ff0101fffefefdffff03fdffff0303ff
fd0103fdfd02030201010102030102fdff0104ff02fefe01fd
01fffffeff02fdfffe01ff01fdff01ff02feffff03ffff01fd
fe02fcff01fe0401feff020304fdff03fd03fdfeff02feff02
fffbfffefffe0102fdff01fe0101fe04fefffffc02020101fe
ffff01020101fdfe04fefdfbff03fd0102ff01ff02030301fd
fdfbfe0303fdfafd020301fc02ff01fd01fefffc01fdfd02fb
01fbfeff03fdfffa010101ff02ffff0102fe02fc020102feff
ff03ffff0201fffefd0101fdff02ff0203ff02feff01ff02fe
fe01fd010401020201fffeffff03ffff0101ff0202ff03ff01
fffafe03ffff01fdffff03ffff010103ff02fffefe03ff01ff
fefeff0103fc02010101fe0201feffff01fffbfffe01010203
fe010102ff0201fd01ff0302ffff0101ff0202ff01ff01fffe
01fd02fdfbfe04010202ff01020502fd02fe010101ff030301
01fe03fdfefd0405fffefefe01fffffdfefe01fefe03040201
fffefeff03010204010202fffefdff01ff0201ff02fd01feff
ff02fffe03fe01020302fd0301ff01fffe01fffd0203feff02
fdfffdfd0301ff02ff03fdfe02fe03030101020101ffff01fe
ffff01feff01030102fd0202fefeffff01010303fffdfd02fd
0302ff01010103ff0201fefdff01fdfefffeff01ff03fe0102
030301ff01feff0102020101fdff01ff0102fd03fd0201fefe
0102fe01fdfefffdff02010204fffd010103fe0201feffffff
020303ff02fdfffefefeff01ffff020101fd02fefd02fe02ff
ff0101ff0201fe02fdfeff03feff0102010101010102fdfefe
0203020301fe0201fefe03ff03fdfe02fe0302fd01feff0201
fdffff020303010302fd02fdfd0301fdff0102fe01fe01ff02
feff030201feff02fd01fffefd02fffdfdfe0302fffe01feff
fe02fefe02fffd03fdfd0101fffffd020203fd02fd02fd01fe
fffe010201010103ff01fd01ff030102ff02fffe0101fdfeff
0301fffffdfdfe0202fffe01ff0102010103feff02fd01fe02
0202fe01fffdff01fd0301fffdfefc03fe03ff020201030101
fffe01fefefffd0201fefe02fe010102ffffff01010301fefe
fd0201fd0302ff0301ffff03fefd02fffe0102fe0203010203
0101fd02ffff03fd030101010102fefefd02fe01fffffdff01
02fdfd01fffd0102fe02ff03ff02010202ffffff03020301ff
01fd02fefe010201ff0101fdfefeff01ff01fefffd01fffdfe
ff03feffff02010301ff0101fdfe0301010203ff02ff01fffe
010202ffff0301fdfeff03fefcfefefefdfefd010201fdffff
fdfd030101fe030402ff010203ffff0303fffffe01fe010203
0203fe030201010302030101ff01fe03fdffff03040103fe01
01ff03ff0103ff0102010103fe02fffe01fe01ff0101fefeff
fefefeff01ff02fffeff01fefe01fe0203fffffeffffff0202
ff03fd010301fffe010101fe01ff020301010302fffffffe01
010401030302fe01ff02fffdfefffe01fefffe010102030301
030202fefeff0102fffefffeff0101ff02fefe01fdfffd01fe
fefe01fd0102fffffffffffffffefc0103fffffd01fefefd01
01feff01fefffffefdffff04fffeff02ff01fdff01fffeff02
01ff01fcff02fffffd01020104030102010203ff03ff02fefe
02fffefffefeff03010201ffff03ff03fd03fefd010302ffff
fefdff0303fefffeff01fefc020201fffb030202fe0106fe01
010505fffefe01040204ff0105fdff03feff0102fefffffefe
fc02030101fdfe0106ff0202fffdfefe02ffff0203ff01feff
03feff0301fefe01fcfe020704fcfffffeff010303fd01ff04
01fffffbfc0202fe0204fd01fe02080101fefe04ff02ffff02
04fffffcfeff01fcf9ffff02030604fe0103020302fffcfcfd
0304fffe02feff0203fd020503fcff02030202020102fffdfe
0301fefdfdffff020204fe01fc060402010103fb01010101fd
010302feff01fd01fdff01fd0301fffffefdff01010101fcff
ff03fefefe0202fffdfd0401ff01ff01fefcff01ffff010202
ffff04fcfcfe0101fe03fe03030502fffefffefe01fc010101
01fffe0203fffefffffcfffdffff01020202020102fefe01fe
fffffd0205fffffd0105fefefb01fe0301fd02fe02ff010502
fdff02fdffffff02fc04fe03fd040101fffd01fffe02ff0104
ff01ff030102fefafe05ff040102ff0301fd03ff03fefb0301
ff010101fffd01fffd04fffdfcff03feffff01fffeff0105ff
0101ffff020203ff03ffffff02fdff01ff02fffefd0302ff01
02fd01fffd020103fffdff01fdfd0201feff02fe020201fdfd
ffff02ff0102fdfefdff03fbfefe0202fefffefcfd02020101
02010101fdfe02fe010301fefffdff04ffff02ff02fe03fefd
ff0102feff0201fd0304ffff0203ffff0201fdff030402fffd
0102fd01ff03050102030305030102ff0101fefeffff010101
ff01ff0302fe010201ff010201010301ffff0103fd010101ff
03fefdff03fe0304fffffe02ffff03ff0201010304fe01fe01
01020103fffe03fefffeff0303ff02ff0201020302fefe02fe
01fefffeff0301fe0103fefcfffcfefdfffe02fffefffe0103
0201ff02fefffeff0401ff0103ff01fcff040201fe01fffe03
01fefdfffdfe0301fe01fd0202feff02feffff0201ff02fd03
fd02fefc02fffffefdfe01fffc0102fffd02fffdfd0103fcff
0201fe01010101fc0302fdfffcfffefffe0102fffe0101fcff
fefdfdfe03fdfffffe0301fefffdffff0401ff01fffffdfdfe
0202fdff0101feff0201fe0101fefefe01fefd01fd01fffeff
ffff0301fdff0203fb01fefe0202feffff0403fefcfcff0302
ffff02ff0201010403fefe0102fcfd01fbff0304fffe0502ff
01ff02ff02fb01fd02fc030202fefdff030505fdfffe0202fc
fd0201fd03ff010302fe0105fffefa06030201020101fdfe01
fe02fffdfb01030101fffbfb0405fdfbfeffffffff0102ff02
ff02ff010402fd0404fffefffe01fdfd0201fbfb0501fefbff
fd04ff0101ff01010401ff0103050102040103fe040405fdfd
0104fcfefffe040104feff01ff040101fcfc03ff01ffff0401
0101fdff03fefefe0101fd01ff01ff03fe01ffff0301ff03fe
fdfe0101fd01ff0502ffff030101fe01010402010206030103
02040102feff03fd0103fbfdff01fefdfe02fc01010403ff03
01ff01ffffff02fdff030203fffffdfd01fffffefe02010103
ff01fefefcfefefd01fa03fffd02fcfffffb0203fffbf9ff03
fd01ff0203fc0101fdfdffff01020102fb0101fdfdfc0201ff
fefefbfdfbfdfbfdfbff01fffffdfc0202fd0404feff010405
fffffdfcfd020402fcfefeff06fdff0302fefd0302ff010201
0302030102ff02fd02ff03ffff01feff02fffeff02030203ff
fcfcffffff0102fffdff03fe030201fd0101fc01fe02fffd03
fffefefe01fefcfffd02feff0203010201ff01fdfe0201fd02
fbfd01ff01010101ff0303ff040201010203fd0101feff0101
fd01ff030201ff0204fffffefffdfffffdff0101fe0103ff01
fd02ff030301ff01ff03fd0202fd0202ff010201ffff0202fd
01ff02ff01ff01fdfffffdfa01fe010102fe02fc0503fe02ff
0202020302fe010201fd01fdfefefcfefcff030101fe040201
0301fe0101ffff0302fffeffff02fffd0303ffff03fdff01fd
fc01fe03fdfe04ffff03fc01feffffffffffff010102fffe03
fffdfe0301ff02feff030203030302ff02fffffd010201fd02
0201010102fefffdff02fe02fd03fdffffff02feff020301ff
030101ffff010101fffdfefe04fe01ff0101fe02fffefd02fe
fefe010101fdff04020103010201fe0403fe0101fdffff0102
01fffdfefffdff050101ffff0102ffff0301ff0202fffffffd
01fffe03ff02fe01fffd0101ff0301ff03fe0201ff03fbfd02
fdff03fffe01fefe02fd03fefeffffff03ff03fe0102fdff03
01fd03ffff0301010101fd010303fffffffd01ff03fd0202fe
02ff0302fefefefdfd01ff01fdfd010201fefe0101fe02fd01
01fffe01fefefdfffefefffffd0202fefe0103fffffffdfe02
fe01ff03fdff0301ff0102fffe0103feffff0101ffffffffff
ff03fefdfdfe01feff0102fe02ff01ff0202ff03fdffff01fd
010302fe01fdfffe010101ff010101fe01fffffd0302fffdff
02ffff02fffefe03feffff03fefefefeff03fffffe0101fe01
0301fd02fdfffdff01fe02ff0301fdfefd0201fd03fdfdff01
ff010302fe0102ffff01fffdfffefe02fffe0203fffd01ffff
ff01fe0302fe0302fd010102fffeff0303030102ff02010201
fefffdfefe03ffffff02ff03020101020101fffe02fefe03ff
ff0101fdff01010103fdffff01fd0101fe0201fe03fffe0302
0103fffd02fefdfdfdfe02fefffefeff020102fefe0301ff01
0102010103ffff020201fffdff01030201fefffe01fffe0201
feff01010203fdfeff01fefdff03feff01ff0203ff02fe03ff
ff0202ff02fefe020102fe02010201fffefc01fffd010101fe
fffe01020303ff010202ffff03fd01010101010201ff0403fe
03ff01ff03fd03feff04ff0403ffffff020401010102fcfc01
02ff030404fffefe01fefe01fffe010201fdfd01020401ff01
02fffefd01fffefd0303ff01050403fc0102fdfffefeff0502
fe01fc0101ff01fcff02fd01ff0101ff02fe01fc0102feffff
fffe030101fefc0102fd02fe0302ffff02ff020203ffffff01
040101ffff01fefffffffeff020204feff01fefe01fd03ffff
fd01ffff01fffdff0201fefefdfefefefe03ff02fd010102ff
01010102fffe0201010101fe040101ff020102ff010603feff
fffe02feff03ff01030201fffcfcff01fffffdfc02ff0204ff
01020103ffff0101fd030202fd03fe0103010201feff020203
fdfdff040102ff010104fe01ff020101ff02ff030102fcfd01
0103010101fffe010103020303ff0102fe03fcfffefffc01fe
feff0201fffdfffdff01fc0303ff020301fe0203fd04fffeff
fefd0201010103fefdfffe0105fdff0202fe0201fffdff01fe
03fffffffffefeff02fe04fe01fe010101020202fffd01ff02
fefd0201ffff01fdfd02ff03fefd0201ff02fe02fffdfe0102
fefffe05ffffff02020101fffdfc01030102fd020203fd0202
ff02fe01fefefd02fefefe010102020101fffffd03010102fd
0201fe0103fffeff05040201020101fdff030101fcfd010101
fe01fe02fefffffe02fffe01fe01ff02feffff03fe01010402
fffd02ffff0201ff03fffffdfcfffffeff02fefe0203fefe04
010101fe010101020104fdfd0103ff01fdffff01fe01fe0201
020202ff01ff03feff0101fe0101fe02ff010103020302fefd
ff01ff0103fe02fe0103ff010102020202fe03fdfffefdfd01
fffffd03ffff02ffff02ffffff03fefefffe01fefdfffefffe
03fefffe0102fdff01fdfeff01ff0102fdff02fe03fefefefe
02fe010102ff02feff04fd01fb01fefe0303ffffff05fffbfc
fffe0103fefd03ffff02ff010106010103fffdff010102fcfd
ffff010302ff02feff02fd030101ff010101fffeff030101fe
0203ff01ff02fffffeff0101ff02fffe03fefd01fffefffffc
fe01ff03010201ff01fdff01ff0301ff01fdfffdfdfc01fe02
040304fffffc010404fffcfffffffffc01ff02fffe05040401
030102fe01fffa01020101ff01010202010401fefd01ff0103
020205fffdfbfb01fffbfafffefd01fefdfe03fe0105010102
fe05fffefd02080101feff0105fffcff0104ff010301010601
ff020404fd03040301fdfd0101fcfefefcfefafdfcfefdfdfe
ff0301ff01feff05ff03fe01fdfffd01fefefffffdfefdfcfe
0101fefcfdff0304ffff0201ffff0302fd03fffefffe02fefd
ffff01fdfdfd030103fd01fe030201ffff010102ff0302ff01
030102fbfefd010104fefd01fdfc04040102ff0301ff0301ff
01070303fcfefdfd01fffffc03fefd0201feffff0103ff0402
01fdfeff0201fefe010102020101ff01fd01fffdff02ff01ff
fefffa020503fcfafefe03feff0103fd01ff04040201010505
0201fe0201fcff01fcfdfd01fd0601fcff0302ff0101030405
01010403fdfcf9fafbfe01fdfb01ff030103010402040406ff
fd01fdf9feff0101fffc0101ff01ff030401ff01ff0201ff02
0103fd020101ff03ff0101020101fd0102020202ff01fffffd
ff02fe01ff02fefffdfe0101fdfd02fe02fefd0103ff010201
ff02fffefefe01fefe01ff02fd0201030202ff02fefefffdff
01fd010103fefd01fe01010101fdfe03fe02fd02fe01feff02
02ff01fffffdfffefd030201fefd0201fdfefe02ffff010101
fe0101ff03ffff01ff0303ffff03fe02fefefd0202fe01fe01
01fdff030101010101fdfe03010101ff0201fdffff010101fe
0203020201ff01fffdffff030201fefe01010101ffff03fd02
ff010103ff0103fffe0101fdff02ff02feff0102ff02fe0101
ff02ff02fe01fd02ff01fdffff02fefdffff02fd030303ff03
0101fdfdfdfe01010202ff010302fefdfd0201fdfefdff02ff
ff010201ff0101ff0101fe0102010303ff0102fefffdfefffd
03010102fdfefffffdfdff01fd01fefffffffffe02fefffd02
fefefe01fe02fffdfefffe01fe01ffff01ff03fdff03fdfeff
fd02fd010101030101ff01fefd0301fe0103010103030301fd
ff0301ff01feff0301fffffe01fdfe010101ff02fdfeff0202
fdfefdfd01ff01ffff01ff03fdfe01fffd01fffe030103fe01
fdff01fe0102ff020101fdfefffffd0201fd01ff0302fefe02
ff03fffe03010401fc01030404fc01fcfdfefe01fdfdfc0101
0101ff01fe010202fffe04ff0501030102fdfdff02fefffd01
ff01fe02ffff01fd0104ff010305fe010102fffdfe0201fd01
03010101fe02fdfeffffff030605030302ff020102fcf9fefd
fffeff01fffffffefeff0104020103ff06010201fffe01fdfe
01ff01ff0301fc0103010103fdff02ff03040301ffff04fe01
0102fd0101fdfeff0201ffff01fd0302030301fe020301ffff
fefffd01fdfffefdff02fffe01ff0103fdfd03020102010102
ff01ff010101010203ff02010101fdfdfcfefc0201fc01fd01
020301fe01020201ff02010101ff0202fe0204fe02ffff0101
030102fefbfe010102ff03ff01fffffefe03fffafffd0101f9
fffffefc02fd0305040201fffe0101fffcff010102fe04fffc
ffff01fe01fd010405fffffffd01fd02fdfcfbfbfffe010101
fe010102fe0202fd0202fd02fffffefefc03fe0102ff02fd01
fd01fd010101fffffd01feff03020101fe01ffff01ffff0302
fdfdfefdff0102fdfffdfd0201fd03fdfefdfe010102ff01ff
0302010202010301ffff0201ff03fefefffeff02fffffd0201
fe01020101020101ff02020405040502ff02fffd01ffff0101
03fffe02fefdfefefdfe01fffffbfe03ff0202ff01ffff02fc
fd0201ffff03fffefe04ff0303fffe010503040401fdfcfffd
03fffffd01fe01ff0402fd0102fe0103020601fffefefd0202
01fffdfefdffffff01fc03fffcfe01fd030101ff04020401fc
fd020203010202ff0101fe03fd0201ff01fd020101020102ff
0202010102ffff02ff03ff03ff0401fd0101fdffff0101ffff
fefefcff01ff020301030105fffe0102fefe03fffbfefefd01
01fdfdfefe010302ff01fdffffff020201fffffeff02fe02fe
030203fbfe02ff01fffe020101ff0303fd01ff02ffff03ff01
0102fcfffdfffd0302fdff01fffeff02fefd02fe01fffe03fe
02fcfc01ff04040501030202010503ff010102fd02ff010202
0102fe0301ff0101040302030102010101fdfdfdff03fc0301
02fdfdff01fffdfffdfe02010401ffff01040101fe020701ff
fd020402ffffffffff02fdfefffffe0301fefbfe0202fe02fd
01ff01fd0103ffff02fffffe010401fe01fffc0101fcfc01fd
fdff0306ff0101fefffffffdfbfefd01fdfb01fd03fffcfefc
02fd01ff0201feff010101fe030603ffff030402ff010203fd
fd01fefeff02fefc0205fb01ff02030101ffff0202fbfffefc
fd02fffffd0102feff030303fdffff01010101fefefefdfcfd
ff020102fd0301fd02fffe0201ff0401ff030301030104fe01
ff03ff01fd02ffffff01ff02ff03ffff02ff01fefefefe02ff
fffcfc0204010201ff01fefefbff0104ff01fffe0301ffffff
0201040201feff010402ff01fffdfffffb02ffff01ffffff01
020102ffff01ffff030201ff0201fefffffdff010201030103
fffcfcfc0103fefc01020201020603fe02fd07ffffff0405fa
03ffff0104fd02fefe02fffffe01ffff01ff01fefc0102fffa
fdfeff040101fe0101fefd01fe02fbfefffcfefd0105fbfdfd
fefefffdfdfe04ff01fe0402ff0101ffff02fe0302fe0301fd
02fd02fe03ff02030102fffdff02fffdff02fffe0102feff01
fefeff01010202ff030203fd02fe0303feff01fefefefefe01
01010101fefffffeffff0301fdfd0202fefffd0201fe01fe02
fffefefefdfefffeff0301fffeff0201ff0103fffe02fe02ff
0101fffd01fe0303ff01010101fe030301fffe010103ff03ff
fffffffeff0303ff0102ff02fffffdfffefdfdfd0101fd02ff
ff0102ff010103fffdfdff0301fefe0101010201fdfefefefd
0201fffdfffdff020201fd01fffdfffe02feff01ffff0102ff
030201ff03ff02fefd010202ff01fe03fffdfffffe0101fefd
ff03fffd02fffdfefeff03fffe020101ffff03fefefffe0301
010301fffd03fffeffffff01fefe0303ff03fd010102fefeff
0301fd020101fe01ff010102010302fdfefdfffdfe01ff0101
fffdfefeffff01ffff0102fe01fefdfd03ff0101ff01feffff
ff020202feffff01fd01fffeff02ff01fefdfd01010102ff02
0102fffffe01ff01ff01020301ff03fffeff01fd01fd01ff02
feffff01fffd03fe0301020201ffff01ff0101010103ffffff
03fd03fe03010101feff0302fe01fffe0301fdff03fd0101ff
fdfe01ff010101ff0101fffe01ff0103ff0203fcfd01fffefe
ffffff02010203fe010302fdfeff0201fefe04fdff0203ffff
fcfdfeffff0301fffd01fffd020101ff03ffff0103fffdfefd
ff030101fd01fc01fffe0103020203fd02ffff01fcfcff0302
ff0101fdfe0102fdfd02010102fe010102fc02fefd0301fd02
030301fd0202fe030301ff030402fefffc01020102feff0202
0101fe02fe01fdffff01ff0102fefeffff01020101fefeffff
01030201ffff0302fe01ff02fefffffdfe02fd02030102fffe
03fffe020301fe04fdfe01fd0101fdfefd020201fffefefefe
fefd0202fffefdfe03fdfffdfffd03fefd030202ff02fefe02
03ff0102ff03ff02fdfe0101fefdfffe01fe01fffefe0301fe
02fe03fffc0301fe0103fdfefffe0302ffff0202fd0201fd01
01fefdfcfc01ff0201fe020102fffefffe04ff0103020102ff
0102fc0103040102ff02fe02fe02ff01fefffd02fdfd02fe01
01010101ff0202ff010103fffefdffff02fe01fefffe01fffe
030203fdfd020401feffff05fffcff0104fffd0102ff02ff01
01fcfc01ff03ff01fd020102fd04fffdff0302fdfdff01fe01
feffffff030203fffffe020101ff02ff0201feff010204fffe
02010101020201010503fefc0304fefdff02fdfd010101fefd
feff0103ff01ff040104fe0102020103fe02fffffdfffe01fe
fefffb03ffff01ff0303fdfdff010103feff02ff02fcff01fc
fe01ff0102fe01fd01040301010302fdfffc010101fdffffff
01feff0302fefdfefe01010303fc02fdfefbffffff0101ff01
ffffff030203ff01fffffdfe02fefffe01fe02ff01fe0101fd
02040301fffe01ff0201fdfcff02fefe01ff01fffffd030101
02fdfbffff030201050402010202fe01020103ff0201030301
03fe0101ffff01010101030102020201fefffdfefffefffe02
010304fdffff0106fefdfd010201ff030502fe02fd0201ff01
0402ff01ff0301040501ffff03fefeffff02fffffd01ff03fd
ffff03fe02ff0106010102ffff0102feffff02fd02ff01ff01
fefe0202fdff02030101010302fefffd0202ff02fefefdfeff
03fffc020301fe01fefffffdfcfefd020102fefefe02fd0102
fe020501fe0202ff0301020605fcff0302020201fb01fe0103
fefeffff02fc01010401ff0203fcfd04fffe010302fe02ff04
01feffff0101fe02ffff010403fc01fefd01ff03fc010204fe
03ff01fdfc01020401fafffffd060501040104fdfdfdfafefe
fffeff01fefafdff01fefcff01ff01ff02fffe01030302fcff
01010402fffcfcff0304ffff01010101ff0203030402010102
0106fefdfeff0101010203fffcff010202fd05ff01ff01ffff
fd01fffe01fe02fd010103fefdfefefefd03fffd0101010101
0101ff0101ff0103010401040501ffff02020102ff03ff0103
01040303fcfdfe02fdff04010303fe02fffbfdffff01faff02
fe02ff02010202fd03fffefe03fdff01ff030101fffffffeff
fffdf9fc01020101fffcfdfdfe01fd02fdff0401020301feff
fcfdfeffff020203fefffd0601040302060301ffff02fffffe
fbfd01fc01030401fc02ff050704fffdfdff0302fdfe02ff03
fc0301fcff01ff0201fffffffffd020205fffeff0103feff03
02fdfd0102ff010102fe02ff03030302fffefdfe03fdfffffe
03fe010103020102fefe030201020103ff03fffefe0303feff
ff01fffe01fe01fe02fefc03fffefe01fdfffe030104fd0201
01fd02ffff020201fefd030101fdff01fffefdfe03ff01fd02
01fd0103fffffffe02feff01020302020103fdfeff03fe03ff
01fffdfffe020303fdfefdfc01ff0201fd0102040101ffff01
0302fd03030103fffe01fd02fffe01ff02ff020201fefdfffe
0202fffffe02fffdffff030101ff01010103fdfe03fd030302
fd0301fdfe01fd0301fdff01010201fffe01ffffffff02fffe
020201fefe0201ff0101ff01fdff0102010301fffefeffff03
03fe0302fdff0101ffff02fe02fefeffff040103fffefffdff
ff02ff02ffff01fe0302fffffdfe03fd03feff010102fd02ff
feffffff0403fd0101ff01fffd03fffe010103fd01ff02fd01
03ff03feffff0102fefd0101fdfefefefdfffffe030104fe02
02fffe01020201fe01fffd0202feff010103fd02020301ff01
fffefefefe02ff02fffffdfffd0201fe01fd01fe01ff01fd02
fdffffff020303030101fffffe0101fefdfb020102fefe0301
fdfe03fdfffdff03fcfffeff030103ff0203fffeff01fffdfe
