28d6d0d5cc31282a10db2e33373029de262c3531cecdd0d2e3
23332bcbd62e3829c9c9223820e1cf312b3423df21142e2727
cecedddb3123e0e33330e4323635e22b2f2cd8d2322221d8e0
1e292cd525d5d71f1c30d6d32c222f19d72828d7db2523dfdd
2e293228d2d537322be22b3a39e31a303735e8ded82933f430
d6cfe13032e02d38393231333324d8dd17e22c23db181d2a2a
e0e01ee4e215eaebdcf0e0e3dcdfe2e4e2e6212218e3de1fe7
e1d9efe920d6d91ef5e4d8dd2826d7e21b2be1eada221f19f3
e3e5171de9eadf251f1b1de3e818dd1ee1dee7dfe3201d1fe3
de2214e417dd2020dddee81ee9deecdee4e01e21e5161a12e3
eb17201e1e13df2d1dd6e8e32fdddfe01d2bdde0d7191be6e6
19251ddfdbdc2718e4e1df2921dcdde020e1dae5e11fe1e2e4
e0231c23f8e2e11d27e21121221deee9e2e11d17e520e2ee1f
e41ee0e6eae0e6211ee3e4de22e6e7e6e0d8da20e9e2df1f1d
26191b11e0e020151ae20d13eae0e215e41e2b24e12d2f22e0
e020e8e11c1e1f11e2ee231ce1241c1f1a2927e22522e5e2dd
dcdf14dfe11a1de71ce7e720dbd8dc1ddfeb1724dde42413d9
e414ee1bde1e0a1e1fdd26e221e1f1e611d9e528f52a2b2d17
dfdf23e310dd1d25231de2e31d211ee61f19252be11c13dc1d
e019232adddf21263028e51ada2c2f1cded61d23dddedadde4
e9dc15e4df1bdb0d15dbdedcdae0d8e016e1e1db201d18ece3
1b1c19e6df1d12e32019dee2eee715de1ee82516e31ce0e618
1ee4e8e6d7e3e1e92cf6dedce32a2ce2d8d40a261c15e6df1e
1aeb24e7d7e31d2425da19e81e1e1410dce32519f81defe3d9
e514e1211fe6e61b1e22232b30291ee2292d3130e621f02627
dee6dde91b17f2d9dfe1e42729291fd71ee11d1412dbdadae3
e4241b1edd21e5de1edc19dbdddcf1e3e0211e20e1e322e0e9
20e1e61bde16e0e1dd12e2e1e1dad9201c2520dee30f2117e7
f01813e3150f20dbddd9e21e1febe7e01ceb2829e1e0e1dc1e
1de1e223201fe117dfd7e01b1fd9dd1b252722271b1de0e614
201de7eae4de0bdbe91bdcdfdae7dee4d8ebeddde6e5e4e3e5
e9dbe1e317d7d4ed22e6dae52527eae12326dbe11b2925e210
eb16d80f1edc1e2a281d1f302de2e72a1de7dedde7dad7e215
1de5de20e21de52121ea13140fe9ddebe6de1cdee8dbe5e21a
dbd5d8e529dbd7292a29d91e2b21d41b2b13d5d9e018d9dce3
dae71c13dce716232c231d2b2ce3d6202de0d8d61ce1d916db
dcddd713e223292c29282d2f2d2a241fe01de2d51f231719e2
d8e01cdfe5201e2121e320211f230ddaddd7dae2dde710d6e1
21201adfebdbdee22b2bf0192c2525e1dfe2e3dce5e2202921
18f81ddff2e11cdde3f12224e2e12012dfe51de9dddee1ec19
e3dadfd5e1292c282626241d2921e2ddddd3d5d8e6dfd6e0e4
e02019e6dee621e6201a281e3130291812e5e1d7d5e3da1211
232020291e21ee2a2526e3dbdb1d2b25dfe1d8dc1b28181920
1a24282912dadee82a28efd6d41614e2dfd8dae124e414df14
1720241de01cdfe4f227dbd6e0e7201e1f1ee9e8e620e61d24
22dd1ddde6241f121fdd1c211d2017dde0e8dfe21ce1dfe3e2
1f1a211cdd141f0f212cd7d3d3da1ee4e2d8d8d629291edcd8
1d22271d1c1e24252429e2d8de0e28e6d8dce716262317e6dd
e61ae2e222f0dbe315121cdde3d8e5dedde3e4dfe1e1dfe01f
1f211e25e0e1ed20e0dee020ded6d72120d7d721191add2329
e7192619191d1fe51ce32b27dbe2201c1b141c21dedf251ae9
111d181cf5231feee91f1d1de21628dae4201919e7181e1a12
e4252725e5e02328e1dd1d22ded1e01adfdfe029d9d9121c1d
1ce51fde20201edde1df26e1d8d7e6f2dddc1e2be0df1b2c1d
dd211c18161fe32022e5222022e7e1e6e0f1222321100c1f1f
e4e41eece0e52024e4e6ebe621df1de0e1e30ee9e3e0e0e0e1
21e3e01f1b22e1dee0e11b1e1ede19e10d19151de81e17221a
e31f0f22e822e21de01e151ddedd1de21be2e60f1d1eebe7f8
1bdf08de13182123dee21d11e3e0e2141ae21ee0ecdddd10e6
1d1fddeae5e4e3e41b0d21131d0fe3ebdcebe4e6e1e4e01614
e4201e1ce41be1212a232726e9e21c1ef124161e0d232e2a2a
e5dee12121150e131f2320e3dfd6eddfe72922d71ce8221f1e
18211fe4e3eb1715dc0fe9e11de0d7e0e5dd1d28e3e2232927
f315e21725eede212423f00f0fe5f1211520e0ec17ec2823e0
1d1ce21922e2e1d718151d1cdbd0d7e51c1fe0dbf20e242c27
dc181ee115e70dd7200d1910dcd8dee10e18e2d91720162820
1adadae5de141cdfe41be1e2152614f4e01c201a1a1ee7190f
1bf41bea22e7d8151be7efdfdae5e0dedddd1fdee12517e218
22e01222e9e8151cdddf19ec1d27281d2b1c24211df3ebdade
1ee2121ee2eddd1edcf3dbe021e31818261d1fe3eb1f1714e0
e2e1d9291ce3d717e3d8d8e3ec2424ef212816f4201e1be4e0
e0d61f22dadae321e6db11dc1fec24f6222c2629251e22dee9
e519e914e41b1cdd20dfe41a2019e215e11c0e14e01d22e11b
e30e23dde51e1fe3e012e214e0e621e0e2df1e21e11d1ddf1b
21f81eeaea21dedd151215e120e1e3dfdd18e41e221a21e11e
1fe4ece215dee1dfe912dfe31e0c16e3e5de22151d1e21e11a
e221e317df222019dd1de6dc1d0fe3df15e3dfebdf1be0e5de
17ea1de51f2413e2dee0e6df1ce4ebf1de20e4dfebde14e1e8
dae31722f2e3d5da1d1cdee90615e8de1d21e5e6e61deae6e0
db21e6dddce82e24ee091e32e1d824192ee2e1ebe6291feb26
df1ee3ee25e723d7e7e918d8e2df11e2da1df8dfdcdddff117
261de2221c20201fe2e019dee41fdee4e0e11e212318e023e3
dd281ae4dd0f28e7d7182930d5d92322221cdc21e824eb1ae9
22ec0cde202becdedee023dadce4e327e3dee8e21c181de116
e1d7dfdee8d7e1db19e3ddde1feb1edf1f291e1b1f1d1de5de
dfdf221f19d9dc300f18de2825e026ee2d2420221818ef251a
19282aebdff2221ce0271623d7de1d10d8dd1ee4dee3e11ddb
e0222518e21b1ce5f11e1ce3e3e5de1f1e221be1e01fe620e2
d5d8281ce3db2a2a16dfdf2be322ece11ef220df1b17e9e2ea
d7de22e0f2221fe4dd17261fdee4e224e1d9e30ef0eae7e3de
e5dfebe0e01de0e5e921211fe2e0e4e3252c2a18eb25211f29
eae0e4e01fed1e17d9e11d2622e3eae325241a29ef26e2222a
1febdfe0e11cddde181fdee4e11ee921e8210dda1de2ee19e0
de0a13ea231be1f0f0e41fdde41fdd1a241be0e6e01c232517
e4dcdce4e21d1cd7d8dc1b200ed6d81f2a21261e1d25241c1e
dcdfe11edd1edbe0e622dfdadce5e022e6e020e22521231fe0
dd1513de25e5e120201be0e5de1f1fe3db21e5e81bde1725e8
e5201f1de4dfe31b08db23d929281f1fda2a221ce8dc291b23
18e1e3dee3ddea1d2418e0dff21ce0d6e7e1e2e2d9dadcdae3
1fe221e01ae5e21d21e71d14141d231c20e1e918df1e12e0e5
e01c18e3e916dc2be5d9f8d82e22deded82920fbdbdd1e21e9
e215f017e0de120edf1fdb1c151fe0d92324db21daeb1ce81f
e4181ce2e81de41eee131fe41fe01a161f15e0191ce7e10d18
191a110fec19151c15151e1ce3191fe91ae4111de40e19f3e8
1deae61c16e81de61d1e1a1f15e6e51c1f190de8e4f91de119
1beae9e8e313e71c17e4e21e201f19e8171d11f1181ce7181d
e6e216ea1feae31e19181de41de318e622f113e30edaf01d1f
1be61419e315e1141fe9f015191ce4e9dd12e316ede014ec1e
ed1be20d1df0e7e31d1c051de7e5161ee0e210191915e2e81a
171d1f1ce7e4e9e80af10b1de619e111e21ce1ec18f6171de8
e41ce21eeb15f3eae917ec151df2e3e31c1713e6e31ee2e819
1ff4e41a14f1e621191c181e141ce7dfe313e41c13f11d1ce5
1d1c1fe51d12f113e70ce4e816e31be215e1ef1be2e3e4e6e3
1ee31ae3e8e3e2e5f71b19191df01ee2e6e3e3e4e21e0c1bec
180ce4181cee1e1d1fe1e81c2121e3e5221de80d1b201eef17
101fe61be514201210131d1ee31ff419181ee1e7e82015e51a
20e41f1e14e91c1d11f1e2e61c1e1819e617e3ec1715fae2e0
15e5f2e8e21defe3e1e3e9111df1e1e3ee210ce2e8e318e8e9
1de615e61ae4ea1ce41015e5e41410131ce10de21d20e2e21f
1e1ae41d181f1ce30ee41ce41de3e4e61513f21ae3e5e7edec
171cf214f4ede717e81f1be2e9e709e207e0e21f151dec0fec
191df3e81f15e2eb141c1f1ee20f1fe41c15101e11ebef1be8
1be3e6181c1c1e1e1720e6181ee21e201ce8ea1ce81d16121d
e0e11ae4e1e41dec1a1bec18e6dee41d1b191515f31e0fea1c
e2eef1e2e2e2e41e16e2e3171de8e8e51ee7eef01b14ef171d
e313e61e19ef1beb1e171c13f0e3ea1e1c0ce61d14e3eaede8
e718e419e31d1d1ee1e6ebe219e6ee1ae316e71c1eece41be4
1e1e1de71d1fe7e0e41b1de420e818e6e9ee14e3e41aefe51e
e1e8201c18e811e8e71c1ee812e4181e1be21e1f0c1ce21be1
1ae3e8efedeee3e31c1511eb1615eb100d1ee3e4e619e4e4e5
efe2171d1de2f81e151d191221191eef1e1fe11ae71ceae6e6
e3e11be71fe71e19e61d121c1edf1e1f18181fe81fecf119ea
e2e515eb1a1ff6ecdee21e1c11e2e31be617e3e8edf213e517
131e19e5181ee30e1ae91fe7e2e7e8e21b1de2e91bee1fe4e9
e4111f12e31ee71b1c1420e4e3de1aebf1e3101fe91ce41710
e2e70ee21ce7eb1de7e6f00a1f1c171b19e31c0ef6161b1d1e
e4e41aed16e2e3e315e11a15e71a1d211919f21cea1b1e15e5
18dfe71de6e71b1b1c19e3e6231d1b091fe5e4e3e01cefe4e8
13f3e4221be51bef0fe7e216e31ee0e3e1e3e1e0e8ebe5110c
05191d20ebe2e9e61d1ee013181df31ae41e210de6112116ef
10e3e5e61cdfdef0eae915e0e61be7e915e6f51b1a1ee9e8e2
1ef12121e81d14221f191115eae4e5e2efe11c1fe1e0e5e518
17ee17ece2e5e2e5e51de8eae3e814161d17ee1de5ee1319e8
0f18e8e6e2e2e31aeb0d18e41f12ec1d1de718ede21c1d1de3
e919e31e131a1b1d1dec1ee91de3e41d1519e3e01be219e31e
0ee41e1de5e5e9f71ce41a1d18e61ee712e317e218e3e1e91d
1aeb1c0fe6e2161be81deb12e41717151ae70a1aea18191f21
e30e1c1f181c151d1c121e24181f201a1c1ee3e90ee3e6e9e7
ec0fe5e4e31b1ce4eb15e1e2ea221c171a18f11ee8e21ae414
19e1e6f00b19f3e8e316eaec201d1a1dea10e3e61a1ee11be8
1d0ce61fe4e4e0191de4e2f41d14e216e2e9e3e31be1edef1e
1919f3e4ea1d2019efe7e91921e51f1be31de419e4e91d1cea
131ee614e2e720e7e2e11d1ee4e61be31bebebf61ce1e4e2e6
e718ece4e10fe9e71be10e1c1820151ce2e5e71a0e12eae110
f2e7e4e1eaeedc161c201410211e1ae5ec1a19e2e7e3e21e1d
1b221b1ded1b1eefe3e70f141f2421e40d1c1de2e31aeb1ee7
1e1af0e31916e91f1917ea1b15101de8161d1ae8121916e50d
e714e5e91fe8e41cee1f20f5e7181c1f12121e1ae2e8121be9
e2e5121be21a0f1ee6e918e21de717e41d1714e6e30fe4111e
1bf2e30fe1ea1d22e7eb121defe91dea1fe7f013eee6e3e21d
1ae7e5e3e11de3e41f201c1c14e2ec1e1de5e1ef1f151df41a
e40e1de31e1d1de71c14e41ee21e181c19e218e3e7eae40f1e
1be41e1d1c12e1e21b1ee30d0d201b1e0feae3e00f0af2df21
e6e71f151bf01de4e81befe115211de3e52214eaea1819e01f
1d1319e0160fe319ef1fe617f21c1e1d13e114111914e2e4e4
e3e5ec191ae2e716e3eeede21fdfe317191512e2e31de1e819
1d1be8171ae4e3151dea191d1a1ce91ce31619eb1ee3e51de9
11181f13e8e8e7e41aeee4e7eb16e41ee21ef21919e3e212ea
e4e6e51ae3e4161aeae21a1ce61de61d19e215e5ea11e41a1d
e719e319e70ee6e4eae2e7e51de4eee7e215e319e7191d1d1e
ebe20ae30fe2eb1f10081ee6e31d1c07e41918e4e7121cf21e
1e0fe3e7ebf1e3e1e9e415e3e8180d131de30b0ce114e2e8e6
e21b1b12e41ce5e3e415e3e6e1e6e1e5e3e41de6e41f14e2e3
11e71be3e21c1419e8e41de81deff2e9e6191ae7e51e0c11e4
1d1d161e1c1de6e7ece61be5181beb1ee61a1de4f51de3e5e2
1c1bf412e31be51ae3e31c16e5e3e21ce6141be9e7e50fed0b
15e31e14e2e70f1f1fe7e41f1f1be2151815e411e71ce41e17
16e6f116e3131b191de6e2e7e51b18e2e3e2191710e91e1de2
e415e1161ae31ce2e509e715e41de5e8191a1d1015e3eb15e3
e515e21ee7e71af2151e1d1de41f1c19ece4e410e3e21ee8e3
e110e4f1e6e71b1d191114e2e719e31be4e1151e1ee4e21ce3
1c1d0e1ce31d1c1e111ce514151419191ee219e4161de4e7e4
1de8f51ceae2e3e6231a07e7e51ce2e011181612e8e0ec1fed
e717e4e5e2ec1d1b12eb1d1d1d1f181919e4ea1e1fe81b1fe3
ee2218161812201cdde8ec15e512e119181d1ae71f1717e212
19e1e0e3e41d12dfe5ed1920202021ea13f113191deae8170f
ebdfe41216eadee21b1ce2e4e7e0161be319ede4ebeafb231c
1e1f1f13e82213eeebe41e201cebe6ef1d151a1bf11c0e1d1d
201c1ce21c1e1ee8e7140f1e1c1a1de3e91f1ae3e11fe81ee2
13e0e71d1fe5e8e7111d1f0d1de3e8e80714191c1f1c0f1c20
1d1ce7f9e61beae2e7e3151d13e7e8e3191be41d18e21c09e7
1de7e516e820ebe90ae7221f201bec1a13e5fc10e614e01ae4
1df2dee3e01ce7ea0e1e1d1c1311e11af11d1ef0e61b19ede6
e21a19171be51e1a18eae21717161ae61e0fe2e5161ce6e611
e2e6e721e6f0eaef1fe4ede2e31d10e20ce0e31917e0180e1c
1d18190fe91415dfed15e2de1e1f1df6e2e2e310e716181a23
1a0d16e3e41018eae1de1d1b1c1fece50fe2152120efdf18e1
1ce4eb1e18e30de2e7e2e2e2e5f3e31ee6ef1c12e3f3eae7f8
e316e41ee6e4e6e314e4e8e9e8e6e7e3f319f71ce4e61b1822
111c1e18e81718eb1d11100f1e21e1e31d0b1b1f1f1cea1d0d
ece51de1eb1fe319e3f320221f1ce61f1deb181ae3e1dff0e7
10e2201de6e7e71b1f1e2016221eed1b1de5e1111de9e2181e
18e3eb21ece515e2221c1be5ec19e3e3e1ee1c181e1be71b20
1de7e20f20e4e0e01820e11c25221bec25161ee91ce0e0e9e8
e3dfe21d1fe1e715161fe31eede41d2321111ce1e41ee8f1e2
e3e31de8e7e71ef41de3e2e2f111e6131812ebe3151ce719e7
16e31d1ee314e1171eee1be7e518e4e71d191cf21e1d1b1be3
e2e6ea201de21e1b0de51220101bf4ed15e3e2e2e7f01ae114
1b170e1ce11d1d1d1ee8dfe7e6e4e11a15e5f0eeee1419e61f
e7e71ee4ea10e21d1de2ec111b19ee1eea07e3e5e8e2ed11e4
e21ee3e5e9e4ede4161a1b2220e61e1bec1c161514e2141c14
13e61c1ce4201921e81d1e1e121c18f019e2e12314e71c201f
e4ebeb081de6de191d1ce11de21e1de2e40be4e61de51c1519
13e30be2e8e30e12e7e71ae8e6e41e14e1e016ee14e41712ea
102222e6191ff3171cf0171d16e21a1f1fe2ec1a1de7190fef
e2e414eb1ce6e4eaef161ce4ed1bec1e201e191ae2e219e3f3
e6ef150e1316e8e91fe7e8e1e8191c191b16e3f90e17e4f51e
e1de19e3181be118101fe4e9ee201c1ef21de21ae3ee13e315
ee1d1017181f1219e6df13e2ece6e5e3e21c1d1d1df31c17e3
1a15e9e11e1de6f41be3dce2e2e0e0e2171a181eeee923261f
e3e6e41ee812e31016e4e2e1e6e5e2f1dfe6e91a230f1d1e1f
e4e91d15e41bebe5e7e31fe5e214f01b191b1e1ee2e412181d
18e2160d1ae61de41c1ee3e41ce3ebe51b1e1e1e1be20e1e1b
e1f118e5e2e2e1e415ede3e61ee71e1a1f1e14e51de1e11be5
0edfdfe30b0ceb1c1ee61c181e0de81f0e1ce31e1be2dfde14
e2191eed1ae318ee1b1ee3ece5181dec1d1cee1b1d0ee31be3
0fe92317e61de61f1d1ce4171b16e71e1ee8e31b1de4e5e9e8
e619e719e610ea1621e6e7201de60a1e1a1718f016e314e3e5
e6e3e8f0eee11c2022e61d1c0f1f201be41a17e1eae915dee3
1d1b1af2e61de6f1e6eae31b14ec18151e1ce2e91d16e410ec
ed1b1be212f2181a19e019f1e70619e7ea1d211f1ce518e5eb
181c121a1911e710e317e3e31c20e81d1ce2eb191be2e11b1e
e519ece3171fe5e71af11df0ec1d1517ea1d13e21915ea1e1b
1ae51be3e3f1e41e1d121e18e61ce5121b1af00c1be3ede319
151b111de915e513eae818dfe1e4e1dfe0ece71416e6e6e4e9
141ee11ce311e1e4e51de02025e6121f12eb1ae31ded16f116
e3e2f30d10e41d1d1ae5e7171bf4ec1d1e1d19e2f213e8e7e2
1d1e16e3ec141e18180ee3dddf0f0fec161ce30fea1de1e915
eae51de5e5f01ae41de21de3f3e4e21e19e2e2ee1c1a0f0fe3
15e3e3e5e8e0e41d18e41e22e7eb13101d1a1c1a18e81a171b
1c191915e319e61611e0de19e0e11aeb1de11aeb07161fe4e8
1c19e31c1de6e9e3e4e7eaf41c1e111b1b14e61914e3e9e516
e514e715121b1ef120e61c181920e011e0e11bf2e5e0e1201c
ebe01923e818e41e1de21311e0e4e31cdee7e5eae9e3e216e8
171de9e219e1f1e31a0b1be5e1f11ee8ece722e218201d1fef
1de41b14191f2020e013e417e8e812ebe3e020191c171ee616
1f19e81be4e4e30ee31ae7dfe3ec1af9e3ec1be51619e2e217
e2ea1d0f191fea161ae41beae3e319e318f1ebe217e319e8e3
1e1ee6e9e5e30fe31fe3e0eaefede31fe2211e1019e31b21e3
19e31416e9e9e810e2e5e42115ec1d1b1d1b20e608efe01e19
1c1c1ae61ceae31de7e71f1ae6e6ee1e1e1ee3ecec1c19e309
1e1b0eea1e09e40de3e31d1be5e8ecee0a212219e11ee2e8ea
ef1e1fe61ce6e31a11140ee2e7f1e7ea1a1817eae61fec1b22
e3f71f1b1b18e81d1dede7e6eae2e1e1151717e7e316eee41b
e713e6f208e41aece31ce61eeb1ee3e81eefe719e41be61c1d
1ce7e6e818e41e21e61e1d17192019e41de1e7e31b1c1de117
e2e2e1e1e51b16e6ede31220e81ee61412ec1d19e6e1e1191a
1ceae41ee2191b191d10e3ee10ec191ae6eaeae6e3e7f2e3e3
1e1ee5e41e18e2f1e618e3e5e3e81deb1bf1e61a0ee6e8dde4
171de7e2e5e5ede720e7e8e31d1de21a1c18e41618e3dde4e1
ece1e8ebeb0d1c1018202018221f1de7e3171ae318e6e9f01a
14e7e8181e151d1bebf0ec1a091d1c1c1ce619e5e41ee11c1a
ecf115e6e01b141e1e1a1a0e22e7ef0e201d0d1d1ce4210de2
1a1b10e1eb1a16df19f1eee0151c1b1715dede1b1be1df1be4
19f219e518e41ee9e11812e1ea1ff81420171be3e0e6e7141a
e11e201b1a20eae5e21d1ce7e416e7dde615de1d13e0e4e71c
e218e01ee6e1e11b16e1e21ff2e2df20e4191ee6e5ea1eeaea
e6e7f2dde918ec1d16081ae81be5df17252223e9ebd9e0e1f1
e4e3e311f21c1dedec1bede4e4161ee81feae7e4e3ede21019
1716e5e114e61e1c1b1d1910e4eee7df181de3f51f211de817
e3e616e61c1ae7e2e3111015e31ae215f3e6ebefebe7e3e317
19e61210e6151413f0e4e417e8e7eb1af0e0ece5e4e8e80ce3
e9df19e4e516ef091b191c18f1191de4e7e51ce618e2111e17
e81d17e71ee21be31de3e81d17e2e1e31ce3f4e41d1ce8e6e4
e7ee0f18dd18e3e8151b17191aefe313211d15e818e51c251c
1aebe6dfe5ede7e41e15e2e327eb0b1ee6ea1be4e3f4eb1ce3
e1161d1fea1de51f20120ae9e61ff015dee4deda1fe7e5e311
e4e81517e313e02221171ce619e71fe318eeeae91de41e20ee
f1151f11f2e3e118e3e81ce620e31ae51fe7e31c1ae3e61e19
e21615e2f7e516191ae4f8e1ecf4e70f1c1de7e41c0ce1e519
1c1c1c1e101a23221de3e1e91ef0f013e420e31c1d1b1e1f16
1b16190518e21d111c1ae8e0e51b1ae4e2e31c1b1ef41a19eb
e3f0e71a191c19f1ec19e31d1fe810e31eeae2e4e810e7e81b
ebe412e4e7e4e40ee8e0e3161a17f2e1e81ce41116e51c1a1d
1f171f17e4ea15ecdee3e01ee7e8e3e61918e1e3e314e8ed1d
e4e61c1d1c1ee8e91f1ce5e31d1ee2e41ce411140d131b18e9
e7e61a191b17e419ebe71c0b0f1ae318e61c1df3e4efe5191a
17e3eeee18f0f2e6eae41ae2e81de11ae41de31d1de2e21ae8
1ce810eae4ef1d18e3e1f01c19e0ede3ee1de411f21916e91d
e6e5ec1ae51dea1a1de21de91c18eae5131b1c1d1de21e14e3
e31e1922e0e216e823181e08ed1ae2e71eece8e5e3f0e920e4
e71e21e9de151a21e4dfe4e120e3e51d17e5f21c0eeb1fe2e4
0e1f18ebdde118091ded18e00a08e4eae3ee1ce2e5e5e6ea1e
161ce6e6e31be2e8ee1716e91a1816e71c191d18e5e8e9f214
f01e1f17efe420eadf15191d16e21a1d191be31ae6e70f1b1d
1510ec1410e11e1b15e71d19f01b15120b181be8e71e1f0f15
eb1fdff21b1b1ddfe2e219ede61c19e21d1f1c1ae2e0e5e2e5
1522e11c1bf10e1e1ce3e01dee201de9eb09221a17e5e9e219
e21c201aea1ae91ae2e214e21ae00e18e415e21618e8190a1b
eb1c1e141d150f221b1918e31d16e71ee51f1c1d16e519e70d
e7e31ee31d06eb1dea1f1f1feee416e91717e71ee3e5191fe6
13e319eae514e31f13ed19e41de7e119e40fe2e218e61e1e1c
eee9e7151d1c181de30d1eeceb10e81ee2e4eaefe51df31ee4
ece71bf8e2e0191d1e18e4e7e5191f1e15e41a1e1b1de5e4e5
11ee1ce8ecf312e2e018eee5e1e7e1ec1b161d1febe8e61c0d
1eeb0a1a18ea1be5e31debefeae7e41818e31ee5e217eae3e4
e3f0ea13e01e1e211a0d1de120e7e310141ce81eed12e4e41e
1ce819e6e41a1a13e5e11be2e1e4e3eee715ee1d1414e41e19
e81b1c15dfe41bee1a13e6e01c212220191620f11a111ee9e3
1aeb1cf2e7e6f3e81ae41de3e4201ce1e41ee6f515f1e913e7
1cf51e1d141b15151ce41e15e31c1be8e7e21de6e4e6e8eae2
e6eae215ec14e9e5191d1ae7e8e416e316efece9e3e31ce7e9
e30de4f9e2141ee31be41be31c1c1e161ae41e121c1ce31f13
16e419e8e7f01a19161c1ef01b19e7e215eae5e4e2e3e9101c
181ceaef1e1a1ce81de709e5e21d1c190de2e3f51ae9e3f21a
ea1ce7e416e2160f1de4e7e416e3e4ef200df3e2e2f1e81be7
0df3e4f8e51717e4e3e3171ce6e9e2e41b181f1ce4191f13ea
0eea1be4e5ebeb1ce4e2f1ebec1ce3e5eae91d1de7eef4e21e
1ee91ee6e21d1aebe41ce5e3e8e6e60e1ce21519ed1b1ce3ec
1b1b191e1ae7e4e2e71bef1b1ae61de3e219191ee2f31c1ce5
e5e8e417e3e21de4efe4e512ece9e218e2e8e5e81eea12e313
f5e3e219e4e7191a1ce6e51d1ee21c170eedebe3e4e5e3e61e
f1f01a1defe4e8e51c19e8e615eae41ce2ece21de21a1ce613
efe7efebe3e2e31e14e61ae5e4e2131a1a1ee8f61a191ced1a
18e31a1ce91b151ff3eae2e3151debebe61ce91c19e5e3151a
e51d1aea18e21e191ce6ef1ce7e5e3ea16e9e31e17e5e9e219
e2e7e3e3ea191e1b13ee18f2e3e316e6e31cf0e3ea1ee31f15
e2e7151cee1d1b1c0fece3e2e4e4131deceae81d1ce21bebe4
181b1e0f1a0f1ce4e21915191be7e3e90ae40f1ceb141a1ef1
eb0fe71d14e3e4e614f01c1ef3ee1deb1ae3f41be2e3e7e31e
0d17e1e3e9eae2151ae3e414eee51df11ce3ece3f21c17e217
e3e41a1a1a110ee5e2e7e51f19171a1c141be31e1e1a141716
18ef0fe3eb14e2e6f31d1e1e15e3e418191be1e5e41de2e61c
ece3e3131d1c18e515e3e4e61be6e31bee131bf1181de91d14
0ee31d151b121b1d1011e2eae41d16e3e9e81d1b191de419e5
efea191f1ee71ee9ebe6e3eaeee217ed15e210e8e311e2e2e9
1deaef161f1eed12e3e81de2e31ae2e7e3e2e816e6e5e8e61e
14e2e21e15e81eec11e2e2e2181ce51a1e160dea141d1ce219
e51de3e21ce8f0eb0ceb14e61c19e6eb0feb1eeb1ae4f0e5ed
18e81deb1beee318ea1ce7e41ee2151fe4e11d0e1d16f21ae1
19e6e519151ee6e20f14e6e91d1ce4e9e9e5ec14e5ebe21ceb
e41e191c1d18e6e2e7eaed1ce21a1b13e81be4ef19151018e3
1ae1171ae4e8ec1e2219e61ee120191c1dee191ae61ff41ee3
1be7df1a1b1913e5e01a1f17e4e4e91ce6e7e7e21b16e21d0c
e4151b0ee41f1e1ee7eae11ce8e6e4e2dfe9e4e41c15e30de4
1c121aec17201cde13e11de51be9171a20e91de615e0e1191d
e8dee1181d0ddeebec1f19e5e5e0e41af4ea07181f15161ae4
f9171d1be4eb1f1ef3202224e315e0181c181d1feb13ee1714
e61fe41ce1e6152209e7201d1f1ee8ebe21ee41eeb1df21d1e
e1e1e1e217e3e71de2e41ee4e3e1f4e5111ff2181fe61e1815
e21de31de2111dece2e51d081d111cea1d0f1d131d1ee21917
101e1fe51a1f1be21a171fe50f1ee51be6eb1718e5e0eef2e3
e7e1ec18f0ef15e30fec1deaeee2e71ceae611eb1a16e81be3
e3eae71016e3e6e7e3180defe71ee3e5e319e40de6e3e3e614
e5eceaeee5e4e91eec1c1ae51ce122eb1be3e2e70feb1a21e8
161eefe2eae2e3e81c15e2e8e6e5eee5191524e71de6e51d1a
1e1de41b1a18e415e3e015eb0f1b212116171f1e181ae1ecec
1ce7e51a07e8dfe7201dea121ce60e1f1de317e2f11a16f0e0
10e3f4e21ee2ecf41f1fec1aea1c1ce6f6ea1619e2e0e2e31b
19e1121de81aeaf1e2e611e3e615e31b141c19e8e3e3ece816
e4e318f41b1516e31915e5181beaf4e81fec18e4e21e211ee5
1ee2e7141ee21e0e10131f1a12e3e71de9121be21b1c1d1ae4
1d190edfeae2e01ae31df61d201ee81be717e3e5e8e3151ae2
1ceef01d130d1a1ceaf11ce1e21b14f4e9e8e3e00f111aece3
1ae41c1df21ee4141d1f1e19e41aece211e81ce21b1ee9eae2
f1f3e41ce6e80ee3e9e60c19e41c191ef5e3e7ecea12e9e418
1eee18e4e4e2e61b1e1e12e6f2191be9ebe31810e41114e41e
e51d15e5ed160f1de2e315e61ae319eb1d20e81e12201c1dea
15e5e713e81ee31fe7181ce1e31de21b1ce4e1e1e7eb1de2e3
13e81d1e16191e151c1ee21c1afe191de9e30d1d1ae9ec17ee
161a19e2e4ea1de6e00de7efe1ee1ee41de2211913e0e40915
1f2018e2221be3e3e2eceee9e214141414101ee318e51919e3
1ce3efe91ee8191cee1d1e1e1ee6ed171d191c20e8e4e31d20
f1e91c181ce6e115e410ef1e1c1b0bf1e21ae2ebf1e2f5e41a
e32020f11b18e41e1b151c1d180e1dece1e015e41be21ceae7
17ea1d1c1de51deae5e8e21ce4e5f3e2e31ee5e2e321eb18e4
e2e71eeb1cea1d0c1511e5f01f1e1e1f151ee61d1fe4e9df17
eee31aeb1cdfea181fe4e4e1e31ee7e41c17e6e21d1de4e416
19e31e1dede3ebe22014f3e0ee0bf2e4dd0d19e6ece3211d1e
ede9df1a14e116e1df19e4e6e5e21c15df1ce3e9201a1ee4e9
1dee200f1beddfe4e61fe3180d1e1eebebf21ee41d110e0e19
e913181e1feb1e1de2e3ede5e5ec18e3e0e61c2218f6f02221
1a16e20ee31e1cf41ce3e2e51b1bebf01914191ee6e21a201d
e6e5e4e2e5e9e816f0e418ee0618f21e221beb0f1d1de218e2
14e3111aea1ce5e92021e51ce7f1e20fece2de19ea1a1a1f17
e21c1d1be6e71bebe2f3f1f30de1e2e6e3e7e216e5e3e71e1f
0f1feb1d1e181bf1101b1e1b1614e6eae50b14210c10e2e320
f0e4e7191ef4e41e0f0de218221d19191b20dde8e21e1def10
e70dede417ea180f1c18e41519e00b13131ae3e2ef1f1ce1e1
10e30f131d1ce6e4f10cea1d0d0a171f10e51debe3e915e0ef
e1e311f1e8e1e31c201de1e7151f161b1de6e7e3151f15e30c
1d1e1be1e4e21f151eec12edf0181e1ee2f3e6131fe219e7e1
1c151023e5e31c25221fdfe319e7f0e6e719e3e61df61f221d
1ef0ece71e141be1e1e007e8e91de8efe81a26e6efec2122f5
18e01de2eee7e2e3eb1f1c211b1e2220241dea1be51fe71cdf
1e2006e4df25f1e4d7e21b1ce716201cdfe925ed1ce7181f19
14f2100dec21261c17e5f5211bdadee41f23e425e2dee11d1f
1ce3e0e3e30ee71f1c1ceb1e1d1af51ce31ce6f1e5e3e4dde3
1d1817e4e41be618e11ce2e2e71de4ef1d1ce4e711e2e41c1e
1ce81c120d1f1ae419e31be114eb18e3dfe91d1ddf18de1df1
0eed12e811e2e31d161de6e114202115f01de31deaf1eae3f1
1ee216e2111c18e5e71719e41de9101b1de3e419f21ae9f01a
1d181e2619e3e316251617d6db22e4f1e71e25e5ea221fe0e6
1f1c1bec1a1de9f11e20e2d81d28e2e214171fe0e82523e1ee
221006221819dfdeeddfe4eae721df1c18e6131b1ee01c2020
19eae41920e1eb0d19f1e0e1e3e8ed181c1ee1e2f0e61fed1d
0d1be31ee51918e41de1f817e415e51a2015ebe11d17ea1edf
f4f91ae3e5e0ecdd17181e20e3efebe314e6e0e9ebf1ecedf2
1d1fe318181f161d1817e7dfdfe51be1e21a1419e019f0e218
1a1f22ef181eeedf16e2eb0a1f14f0e8e4ebe31ddef5e3e6ec
e2e416e11f15211de4e7e616f6deea1d1fe2e2e11beee3e2e6
f11e1ce7e11f21231b19eaefd8dee1e8e3e5241e16e4e71ce0
1b1fe4e4e821202510e9e4e3e5ec1d0ede180f1e19e812191c
e7e7e30ae4101c2115121e1d1be0e11b1fe910e91c1ee3f3e7
ea0d1c1de61de6181b0fec1c1ee719e8e3151ae3e2e3f5e2e5
e51f210f1b19e1181d0f18df1621e3e3e4df101c1ce4e1eaeb
1a20151f21e2dee2dde7e6f0e31ee91d191d1eeae4e6111b18
e2e819e41d1beae3151e1d1f111ee5e8f2e4ebe31d19e9ece3
e2e716e5e61ae3e7e6eae5e418ee1de80df11c1fe8ed2220e2
1d2019e3e6e1e5e9e81be715e31fede1e31a1de0e31b201ce3
171e1d1f19e310e2e0e41e1de424ea1de5e6ebe31ee3e7e218
1d0ee61ae61ae41822ea0e1fe3101c1016e6e3e1efe2e7eae7
1de3dfeae0ee1de214e91f1d10f1ed1eea1f1ce41df31bf213
ebeaeef2e51c19e315e4f3191fe4f2e31ce0110b1b191a1fe8
1c19f3e618e8e4e41ee314df1815e8e4f3151ee218e60beee1
1b2119140c22221a1e20e2e9e214e2e51c1de3e3e71b1ae4e5
1be3e6e81b1e1bf617e71b1fe7e113e320e5e7181b1be91d1a
1f111910e7e41c2121ea2217e5e2e90fe4e11e1cf5dfe30fdf
1a151c1d1818ed2317e5f1e0e71e211aec1418e5e41ae3e41a
e8e6181ce6e5e316ea1de5ef20e4ef1d1feee1e7e2ebe41de3
e819e71d161e141ce2e81ae919e41614e7f11ee4141c1ee218
2121ec1c131619131de7e4e7e2201de316e4e8e1f313e91ced
1c1de3e41de9e017e7211b1815e3e3ee191ee61ee7101915e9
1ee51de7e9eae3e2e20dee1ee5e5ef18e3e410e6e21ee31ce9
1e13e1e8e4e719e8e3e21de91e15e8e317111817e321131e16
1df3e2190e1ae1e4e4f3eae11d1e13e7e6e7181fe91f1f1b18
211c1c151920211ee322e2e2f11c1e19151514e2e2ebea13e8
1ce1e8e4e2f218e8ed1d16ede51de318190ae8e4121b13e5e2
1017e8171eeae41d18e614eae2161ce219e8ea1ee419e3e319
18e219e41f1e1aebe21be6e8e4f11a1f17181d1ee9e3e418e3
f316f51ce31c11e11a1be3e6e5191eebe7e7e7ea191ee40ff5
1de7ee1ff0e4e0e0e6e2e8131ce61a1dec1de90ffb18ed1d1a
efe2e2ecef181a1a1e191eece5e7e6e51814eae40fede61d13
e6f2ef0f141dea1ee8e7f1eee1e017181be3e1f01a15e8e919
e71cece2e31a1de71df1ef19e6ecece2e5e21be31e1de2e218
191fe5e3f1e4ebea1d181ae4e81ce51de1e7ef1e0e1a131a19
1cfce41de716e7e6e3111be3e3f4f3e3f51e1df01ee9e3121b
eae6ea1d1de4f2dfe61aea11e31e0f18e31f20e3e3e3e5e515
1c141e1e1de3191b1c1de6e2f21b101ee4e3ea1f15e9f6eb14
e81c1ee2e317e31e1ae31d18e21ee51810e215e4e51b14e1e9
e41be1f2e61ce6e31ae41ee5e3e4e21ee2141ee11ce91c1ee3
1af2e4151e1e1a11e41fece8f01d20e2fae9e7f115e91ae618
18e71c1d1de90be6e6df1ee7e2e4e31d1f1b1ce7e81e201d1d
e207efe319e31cfa1d13e3e9e2e10e16eb1de4e4131310e2e2
e4161d1f0ee7ed1fe21eec1e181b16e5e310ece7e5e7181e17
e6e5e31b1bebeb1de5f11ce31dec1ae41ee920e3e9191c131d
e6e21d1bf11d1df01c16e3f21be2101fe31e1fe41d121d21ea
f214e1f5e4e3e7dfe317ebe5ec15e123221e0ff8f5e918e419
1c17e51deae21ee5e2ed15ef10e21714ecdae0e41ae1e11916
131ae0e91e191b1d18e2e6f1e71de11820e4e31b16261fe922
eef11d1410f2e0111ae61ef01ee7e2f51ce2eb1a1e1d0d1c1c
1de3e2e5e5e4ea1ce11e10131b1d1ce2e50adfdf1ce910141d
ebe212e413e7e2121ae519e6e8f5e914e21ce1131de6e21e1d
e51819e1ea1af1e4e6171de4e0eae5111d171e1c1a1ae0e71e
ec0bed140f1f1eeb1de6101ce31ce4e3211bea1f1ceced1be1
e2e2f0f41ee217141e1de2e40f1e1a1debe41c1b1ae71d1ce4
eb1e191d19e219151e1b161ee4ef0de31de1e50c1ee1dde31d
16e6e61feae9eff4e5f11d12e3e5e41a15141d130de0e11c19
1d1ae311e40a1ee9e1e3e41b10e41719231b211fe615ece6e4
171bef131ee3e3ea1ded1c15e4e41deff217191f1de91c201b
e6e51520e5e2e1e9eae9e61319eee2dfe4e10cec1d1bea1e19
191c1ee4e41b1f18e6e1131aeee61aeef11e20e81c1f15eb1b
e51ce30b19e3e7ebdff81a141de8e71be21f231a1fe3e414ee
121fe31cf0e0e31aece3ea13e81b1d1de6f21b08141fe3e8ea
1a15e71b1ce21cecf20ee819e5e0de1c18e01af520e9e7efe6
15ee1f1d211016e71f1d1d19171f12221ee311e1e60d16e20c
e51d2119ec1ee31b171e1a1d1220171d1b201de1181d1fe1e4
1b1be5e11de8181d11191ee313e6191b131be7e31ae61fe817
e618e3191de3e71c1b1d13f2e6e8e21d10ebe4ef160418e6ed
e31c1be2161d2120ebe1231de517200eea181b191ee80ff21b
e3f021e7e4191917e41c1b161de5e81d1de314e4191f211ee7
e516e50fe3e4e814e3e5e3e4e31ee31ceb18e4e2e2ec1e1218
1615e4e420e9f2f2e5e5e5dbf016eee9dfe7e4e2140ee218e8
e219e01b1be1e715e4e1dfe2e0e108e616e91914e7e61c191b
e7ebe7ec1f171de2de151b17ede41a1c17102026ec191a19e6
ec16e6e1e2e5f1e3e0e818f31ee0e41e161af01de919e4e1e3
1cede320e81d1d19ef191d161cea11f2e3e6181ee308ebe418
e0e11de4e1e7e51ce4e2f1181917e2131c1ee2190e1ce31210
19e51d16e7e3e5e0dff2151e1df11e1d1a15e7eb1509e3e4e3
e5e0e11a1fe212e81d1f11ecf3e70f11e91aeee3ea1d0ef6ed
19e9e41016e9df1bf2e1e2e8e3e3e6e3e3e81b18191d241d17
1c1a1df11c18191716210f1d1df6e2e6ede718e4e4eb1a14e5
15e219f51de7e0e4e71e1ae1e0e31e1d1c1e15181e1b21e214
1a18e71f160f16e3e6e80ee2e5de1913141bf31d1ce5161bee
1d1df0e21a0de3eae6191bede21ce81cf215e4e313e7140be3
e5e31318ec1913201d1b1a1de31d1e1d1f0ff1eef3191ee21c
e018e41b1d1d1ae8141019e41deee5e4e3e61b1eee0de21fe8
0e1e1de5f0e61e1ee61d1a1e111ce3e8e4e21e1de41ee51e1e
1b141a18111d1fe1e6efe8181de3e3f2e21cde1ef014e1e219
1be2e51bec1d14e417eae21b201b13ed1317e016e7e319201c
eae9f1181de21c19121b1e1d1ee321f81ef1e420ececebe411
1a1919f1e1ece21ae1e920e811e91c1c10e408ede6e3e3f1f9
ece31be7ef15f4191c18e5191d22151b1d171e1ee4e7191d14
1c151620eee5e9f61e1e1b13eae81e1512e0e11a161df0efe2
e21aeb1f1eeee61821e91c1ee51a1d1318f1e816e011e41c14
1f231d211e0c1ae0e01e210de2df16e7e91c15e4e613e2e0f0
1b1ce2e4f1e216e60c1d1d191d1c1df215e11c1ae519e2e3ec
18e3e3efe5f41ae41d1ce3e1e2eae1e424f5e81de8f3e1e3e0
191de2eae716e41e15e31beae6e311211ddae2e7e0e1e6e9e0
e9e4e3181ae8ebea0911e5e4e219e819eb17e8161ef12019e0
1a1eece4e7e3e8e4e21de819e3e41deb1de3e3e2eb1de5e2e9
1b1e181c1deadee1e5e0e4eb1713191b19ede413e414ec1a10
ece31de82015f01de8e61aeae3ece21c15df1c19e8e3e2171d
eae4e41cf21e1ee418181c1a1b1a17e6f21e1deeece31de3f2
e61be41e1c16e718ed1be626241d23e61e20171ce11d1d2015
1e0eebeb1fe71ce91d1020151ee9201de8e2e4e6e31018f4e4
1c2423211fe4131ae01ce3e4e0e6e7e2e5f2e2171b1307f5e8
ec1d1716eae3e21fe7ed1e22f1131fe015e31cee1be410e61e
e7ecec141c1fe519e3e6e3e11ae318e822ebede4e315e112f2
e71d1b14e7e5dde5201e1822ebe41bf3e91de7181718f00c1f
191d19e5f01a1e1820eb11211e1ee513e119e5f0f4f3ec1c14
1ee1e5151111e61e1fe4e4f6e4e6e0dce4e91e1c171b211d19
e422231ff50ce61d18e6e6e1e3e4e8e6211d15e7f2dde3ebe1
e9e21a201fe6de0ee319e108ede01ceadce01d1be4e41d230f
e318e018e6efec0b141c1beb1c11ed19dfe319e21cea061fe5
221c1c1ce3e3e0e6e71ce1e4e3151e1b1f181ae4e1de09e218
e61a1a1a0c19e31ce7ec15e7e4e8ea1d1ae31ce4e81e1d1e1c
e2e0e61b21181d181c17ece3e3e8e8dce01f1d19dee7e8e91d
151d191b1ae4de101a12ece41c18f1131310e5f11920eae7ea
1a1ae41d151ee31e1ce7e2131be519141d1e18eae81ce3e6e6
e2201e1e1f1d23ef18e61f20eee71ae1ec1f1de7e4221bde1a
1df0211c1b17221fe5191ce3e7f0e4e7e51d0be51f261c19e7
1b1d1a1418201ee11fee11e11f20e41ae6e519e9e01917e5e5
121d0af11de61ef4e2e2efe020e2e916ee25ede51f19eadfe9
e7e30c0c141ae51b1ee319e41b1ee6e2dfe2e317e6f1e413e4
16e820e8e8e5211d1fe41be61d1fe7ea1517171b191617e11b
f1e11cebe3e5e218121ddfdbef1a1a15f0ece2e1eae810f2ec
e81824ece6eb0b1919e21a1312e61ee1e32014181de2e21b1b
f1ece9e61c14e3e61a0d19e51e1c1fe4e41c1af316e7e5e4e5
f121efece21a2421e51e181e151c1fe91d1ee717e0dee4ebe5
10f520e60a181a1c1fdfe2e519e91dec1f1f1b19e0161ee2e7
e0f510e3e2e31b1e1cea181de2111de0e3151a1e1515e9161d
1ee51de2ecea14ebe3e7f3e5eae9e41ee219e4e4141ce5e619
2222e61f0c1818e0121b1a191517ef0911e619e01af3dfe21c
e41e18ea1be7e01beb1d180d20e6ece5e519eb1d1cf3111d1c
e8eaede81c1d12e5e41d0de3e4f1e51ce4e81917e41c15e21d
15e3e10f1ce7e2e1e025e2ddddf21d1a12f0e4e6f219e5131e
1aece115e3e6e5da1ee4e4dbf62518e8e40c1d1de5e00e1213
151ae61ae91b0ae01e1015e8ec1d161cec1de6e20f14eae3e4
ebe6e0e3f0deeee4f0eee5161419120a19e21c111e0d151aeb
e1e8e4e4e6191de7e1e6e11a0cebe418151a1d191fe6e0e11a
16e0e7201ee0e8e7e81d1beae21c071ce317ef1bece71f1616
0df1dee10d1b21e4e4e31e141a1aebdf181e20181917e30ee4
e71ef31ee311e621ed1cebf20d1c1ee6e4e3e51e170c1c1c19
e10de5e71a1c141debddf01d1bdde1201c16e9e518e3ef1c1a
e2131c1b18e8e62128191c1de7e4e61de510e6e41e1a1ce5e3
e1ece51c19ef20e6e3241b1ee61815e7e4191ae2e4e1e11be7
11201f1c1ce5e0dd13e3eae820e7f2201ce5eeece2191a151d
13eef31eeced11e1171de3e316ea19e5e3161611e21debe7e1
e1e1f0f1e71c1b1fe5191e1c0e1de71f161cea0ee41b19201e
1817211fe512eee4e3e31d1fe4df0e1ce816eee01820eee718
ed0f11e51d1be2e4e31beee718f81ce2e7e21a11eb1b1ce3e3
191ee4e0e31b2018e8dde7e51c0a12e3e7e40e181e1e191c15
e21c1e1ee51f251adeea1ce31ae2e3ee18eb1c0ae31ef21ded
e81a1e0b20e1221de5e5ede3ebe1f2180d191dede5f11f19e4
1f1e1ce7e8211d151de7e3e6201be31ae0e4e5e91d19e1ea1d
ece6e5e2111c1f1d191bf113e31f17e71f1615e3efe61b18e4
ed1be4e3111e15ee1dea1fe2e3161be2e818e61c15e1e7141a
e4e81b171ce3e617f1e4e918eb1c141ef31c1b1febe4e920e6
1e1de518e010e31be7e30e16e9111b1de3e9e31de6e4e01bee
e9e7e41de3e6e81e181bece71ce31e1d15e9191def1d1d1be0
e7efe51dea191de81c1ee519121dec221f1de5ea16e3dc15e6
1cebe5e71ce5e91ee2e20ce11d1be5e6e7ea1d1a1fe4131eef
e3e5e4eeeaf0131e1e141d1ce31dece21a1d17181e24140e15
e7e21ce3ebe61c1d1bec10e3ed1e1d111c0d13e219e2e6e9e3
ee151de3e2e31ce718e3e6f4e61de41be0e3e3f30ee311e11c
1b14e7e2f1e2e50c1a12e9e6e4e71d0c1ce81fee13df15e31e
ebe419e51ce7e3ebe81de6e6151a15e6e81eee1aebeb1be61a
f01d19e4e5e21612e31cee1c1c1c2015e71618151d1d1914e4
181a1cee111c15101de618eae9e3e4e314e120e40d10e01619
e8e2171b11e6ed1fe5e11d1de2151c1c1ce616e9e419dfe51e
19f1f1e3eaec1de4ece9e418e01c1c1de019f0ece30e1c1e20
e5e51a1d1ce2e91d1d11f20fe11d201ee7e31218f1e21cf4e5
e51bebebe11b1d19e7e2e4e5e61be21f1ceee5e1ece3e212ea
1be31e21e5fce3e41c1ddfe314e0ea111ae4e0e8e81d1d19e8
141c160d1b1ee9e5dd18e1e1e6dee01ce2f220e31a2014111d
1a1f1be50f1e1d1e21f3e3e8e115140d14f021131fe5e8e7e7
181c1f1f111118e114e6e51ef01617e018e7e2e8ec1a1af018
1c161e15e71be5f824e0ebe3dfe2e2e811e6e8e11cec1ce2e4
1ee5e4e21a1e130f1ae51de7e4ecf0181bf71de6e3151eea1b
e3181de31de5ed1cece51ceceee819e81ae5e51d1e1ce91de2
e31804e518191de1e5e8e2dfe7e4e01e200f11e3e3e5e41b1e
1c1824170c1de0edeae2f01c141d1df0f318e51d1721eb151f
e4ed1de6e41c1ce4e9e3e6e2e71de8e4eae2e8f2e5f6121be6
f611daf124e3deeb11ef1119e01e19e916e21622fc1c1aeee2
e1e60e1d1be3e2dee419e5e8181e181a1ce81f1cea1d1c1a17
ece9e31b2012e4df11e4e21be7e1ede61c0c201be3f2201de7
e5e115e918e91de11c1e17e8ebe41fece5e71d181f1be3e318
131b161e151a1d1aeb1f1ff8141d1ce5191c1ee019ee1b1ce2
e4e5dee4eae91de3eb1d1ee2e4e4e6e71d09e518e1e4130b1a
1d18121ce91b1ee2e51c1f1bf0e4151ee31c19e6e3e4101e1c
10dfdf1a141c1bdee1ef1c171ee61dedee13e1f1e318191de3
e21b191e18e7ef121ee8ea15e3e31b1816e3e2e5e314e417e1
e7e1e3e8e7e2f610e01de318e5e9e3221d180fe20c1de71a17
1a10e41616181816f11913e4df17e7e42121e4151d1bed1a1f
f3e21916eb18dfe41b17e6e7e4dee21d141c1b191c1c1bf61d
e41ee3e3e4e51cf21e1e1a1de51d191b1e0f1b15191be214e6
18140a1911f6121ee6e0e4ec1c161ae5e41b1d1ae1e7e81a1d
10e5f5e5ec07e4e6e31ef31916201debe3fae6e61ce10be71a
e2e419f1efe2e20c101ee5f31b12e818f1e21ae41e1d0e1c1e
191a1fe2e419e91f1e12ee1d1ee41ee8f5e31e121b1ee41de0
10e11ce1ed0fe9e420e8f31eec1de7201be01d13eee4eb15e9
1cdfe4e4e81be41ee1de2022201de31ee5e3e71ce7e8e0f3e4
e316ed24ed1be2e4161ce5e41d1fe3e7e41ce7e5e8e2101ae4
f01b1a1be81e1be9e7181e1912f4f01c0eeae4e21fea18e9e2
e4140ee81ae416e4ef1de517e61412f1e31ce71dea1b1d1c19
1de81b1c12e5eef3e8e41ae1121118e21ae214e51defe71ee9
eb201a141ae3e015ee18dff3e7e9e419efea1f17f41e1f201f
ef0c14e1eb212119e8e1e71aebe11ae6e7ef1121e9e7161f16
20e818e2191ae8e419e21ce3e9e71ae8dcdde4e6e4f31b1c1f
1ae61fe40df02116ed17eddde3191ce4e2e3dde4e514e11e1c
0ee8ecf0e21feb1f18e1201e1b1deb1417101de61913e4ece5
e7e5e2ec1be6e4e4e21a1218e4e416f21deaf0e3181be71a19
191a15e7e4e4e1e2e21c12dfea1b1ee21e1f1ee5e218ee1fe3
eb1f16e3e71c19e2de1a14101aebf6161fe8f11e171f1d161f
061e1aedf71513e41e1d1b1d18f8e3e7e41518e4161af6e3e3
e319181ded1d0de1e3e31ddfe6e51d1de3e71e1c1817151ae8
e8171be6dfe51defe9f8e612e2e1ea15121d201e1e1de81be6
1e0d161ce7e4e4e2171ee3ebe0de1ee61620e419191a1a1b16
e7161be51de0e5e31f1f130ee316e4f10f1d15191d20e7e7e4
e7f412ebe7e81de9e0e4e8e220e11ce916f417e61a10eb10e8
1f191b201ae1e820f5e3e41a16e217e91a141e1fe4151f1d16
f31bddebe21de6e6e1191e25171c111e19201d1f1d1b16151c
14e9e3191818191f1b191e1b1e17e1181b09e31de41c14dee6
e3ef1a1e1d100de01d1ee0e81df4e1e31a11e2ea0fe1e6151d
e417ef150ce4e1e91423f21c1e21ec1d1216f9dee8e1ec1bdc
11e5e3e7f5e5dee4e01f2423ebef1c192211111ae7e0e9dee0
e511ebe81ae7e60f1f1cdfe3e21ee3ec18e3e5181ce2e41a1e
e3e60b19ea1c19e4e3151aebe5e3e2ed1ae41bee19eb1c20e4
e6e119e818e1e91fe6e3f021e21fe61eed19111d201be3e61d
1f1d151def16e71e1f1df31c18e6e8ece815dde4181b1f1ae2
e31df217e5e3e3edeae5f2171c181de41e16e417e71a13ef16
e21f18f31a1d22f0e30e1f1ae925e7e8e1e3e81c18e020ed0f
1ae3e21eef192119191d1e1a1c21e9e7e10ddee2dbe51d171c
111a1deaeae5dfe3161cede4e720e117e3e018191d1de5191d
ea1c19dee3191fe4e0e21e1d1fe6e01cef091fe61a1d14e31b
1de0e0e013eef3e9e41c14e1e2ee1be4e4e31ee4e51e1bf0e5
e61f1e1de20ef51c1e14e31515e6191ce4e5e9e51614e4e61e
f2e21c1d19e4191c191ded1bf3e7e113df1618ece20eee1bf1
e41ef01d15e8e3ede1e2e91be1e6e11d15e0e3e90de1e2141e
e20de4e9e70f181a1de71cdee8f51c0fe11d1d151de81c1cf3
e4eb1c151ae1e4e6e7f41a2118e619191a1e1b141e13e7e811
e3e6e31919ef0ce5e7e91df30fdfe30f16e6ede11bf20ee41c
ee1c1b1b1915e6e01914e7e3161ff6e40f17e41ce41ee9f0e5
1d15ec1de2f0ea1b12e2ebe3e8e7e2110be417eb15e4ebf118
19e315e8e41c1c1b10e70f1de417111c1d1de2e519ea0ce8e5
1ae614e5e11d1df81de0e2e8e4e8e8e3e1e51cebe7e91f1b19
ec1d1ee8ef1ce71ee3e20ff0f41017e4ebe7e3eb161ef01de8
17e7e0e51ae2e315e71c161feee71ee6e8e61c1ce2e3e71e15
e1ebe6e31d18e91ee9131d1e191a11ea12e31914e3ed1e1413
17101d19161d12e91bf2e80fe0ea1deaece3e4e2e30a16e41e
1df01815ef1e1de51c1a1fe5e11c1f17e01bec1916141a191b
14e7e51f19e4ea191c1e1d1914e31ce7e1e5e5e7e31c181e18
101d1f1aebf30d201e1715e709e6e3e4e31718e4e51b1e1dec
1ef5e50fe81b1de315151d1d11e3e3eb1f131ee31819e4e7e3
18dfe1191ee117ede7e71e1f271ee7e416ef1ff1e81b1be1e2
e61df71ee4f6ee180b21e3e51a1a1f1719e1e1e41b1a1f13e5
1d1e10e5e31de41a160b1fe620f2ea1ae2f2e8f2f21d101be6
0c1e1fe51c1e1b161e131e22e31f19e5f223211912e417eee0
e41d0bf0e5191c1d1c1b1dece4e4201fe814e0e5e5e3e11ce7
e5e41e1ae3e70d1cf3e3ed16f6e71c0fe217e11ce31218171e
eae4e5e61be422211de7ea201e1e191e18e3150b19e615e3eb
ec1ee2e1e016e6e51fe4e31df218e91fe2eeebe8eb1c1de2e9
e4ea1d1ee4e8e91ee6e61d1ee318f1e5e3f0e819f01c1deb19
1ce316ea1d1e18e4e21e1de3e8e5e61d19dee2efe212161d20
13e5e0141defe7e91e1de31d1e191beaece3e4181ae91a1a15
e316e4ebe214e4e7151ae8eb151514e2e9ede8e9f4e5eb171e
16e31feb1cebe8e213e219e31be6eb131de7e3ed16e2e7f21c
eb1e1e1ee318e2e6e9e216e4ece0e0e61de1ee191c1d1b1ae5
e2e5e91d1ce4e6e2e4e0f1e40e1febe6201c1616f31ceb1d0e
e6e71de6e9dfe21cec10ebe4e5ee191e13e71ce3e9ea1eebe2
0a1c1c19e717ebe6e9f81be012f015e61f1ee1e3e2e31de71c
1be91e172214192007191be61edde01ee5df1a191b19e31de5
f0e01c201ce7171c1920e7e11de3df1c181ae7191a14e41d1b
e4e6e11d0fe118e3f3f0e2e0e41a1d14e3e4e4e71d20e3e316
1a1cf11c1c191f20ece419171ef0e7e8191d19181c191dfc1c
ef1de615e8ee1911e115e60e18f019e2151d141ee719e2ebe4
16f8ebe7e51be7e11d171209e8e413e814e2efe3e6e11d1de5
e2eeecec17e2e71fe417eaeae815e0191b1be3e4e7e4e4191b
1de6e51eefe91be319e7f4e7e3eb12e614e3e3191d1be41de6
1a14ebe7e1e1e71c1c1ee31e1719e3e42320e1e6e91e19e319
1ae0f2201a180f1ee6e4e8e523e71a1a1ef61c1deee7e9e9e3
12eee11ee4e31917eee713e31ce319dfe618e7e2e7e5201ae6
e519f81d1c1b16e7e2eae21bef1de416181ee318e4eb1be51b
1a1b241be61e19f21b1417e8e01b1de4e822e8e5ec211ddfe2
e6dee4150ee4ede9e619f22313ed1c1b182223eaec1d0ff2e1
1d201f15e2e7e0ef19e2efe2dbe3e21ce11be9e31a1e1df018
16e3e31f19ec1de318191e1ce4171c16ecee1b17e01d1f1e15
f61d251b19f3e6ef0a240d1bf413ea1e23f1dfe2e1e3e6dfe0
e3e41e15171d1f1d21151c16dbe30de4dee2241818e121241d
1d0d191d181aeb1e1e1cdfdedaeee9ddece7e221e51de62420
19ede9141ae1e71a1d21f51e15ede41818e8ef1ddfe2e7e718
1e17e4e4e31ae4e9191c1de31e151a1a1e1deee61ce30e1512
1ae31e1bf51e19181d1715ec1e1de5dedeeae61be617e6e3e2
e3e1e5e01f1fe51f1d2219191f1d1a1cec241f1beb141edee9
e51e17e71a1ee5e51910e8e7e8e2e4f5e4e81de909e5e3e21e
1e232221e3e51c2019e81ce3df1ae7e1e3e5241ce72220191c
ef1c10141c181cdc1b1ddfdade201ee4e62116f41dee22e6e5
1ae2ebe71dea19e11918e21c1d212012e4e81e1ee0dfe2e719
e61de91d1eece30d1915e3181a1cf0e70b210fe418e91eeee1
191af4f5191c171a1eef1eea1d1be1e5ed1b1a161c15ee1de7
e8e11c1eeee0ebe4e3e81d17e0e5e51cebe815f4e3eef50d18
15e41f1d1ef51b180a1be3e11a1c1e10e6e51ef2e7e1e81c18
e318e61fe6e511e3e4ea1fdfe41e1d1b16e420f51a18e4e914
1aefe31d1a18dfe2f1e7eb1d1de4ebea21e6dee1ece2eae7e2
e4e2e21ef1e5e61af5e8e7ea15e8e40eec1df2ea1e1d201e1c
ec11e41ce5111ce6e719e9ecf1ea19e8f11c1ae1e41615e8ef
e4e3e81ce61d1ef3e81ae215181c1b17e1e7e4121de3e2161d
141b1e1e18e3ede5e61d14e41be9e50fe5e6e6e4e91dea1f16
e9e8e5161f18dff014e2e613dee31e1aec1c18e8191d1de4e7
1c1b181b1ee3f117f0e9f1e2e4e2e7e60ce4ece21ae31aeae2
1de4191e1d1ee41de9e5e41e19161de7e6e7e71617071ae21c
e71ee420f118f4e3211c1216e321f31be318e6e61420e11d1f
eae1e4241f0de21823f1e4df1915eae4e30ce1e4180fe2181d
e8e50714e615dfe019f21b1ede1eee201de9e314e8ec18e7e3
eae71d1415e51deeefe31c16211ce2ecee1df91c1eea171e1d
e9f7ee1b1ef510eeeee6e7e4ece51ae6ece2e3e81af0f01c19
19181ae919e3e6e2e6e214e5ec1d12e8e5e5eae1e31ef30ce2
1de717eff6f0e9ea1ce2e11213f2f2ece3e2161ae5e41c19e5
18e2170e12171d1ce41ce71cf3eb1e1914f6e41ae31ce91cea
e7ede3e4e31e0ee9e3e717e4e3e31ae5151c17e2e712e2e51b
1de20f1cef1d171de91ef31de8e6e2f01de21e14e11deb1d0f
e2e4e2e3181de51eea1ced1d141de60f1911e318eae6eae114
e9e4eee8e3e2e21be6e81b191de61ce3e41deb1d07eae3e21d
e31c1a0f1ce6f21ce8e3e714e4e4e2ece618e7e21d1de2f41c
0ee6e51eece7161d1e17101de21de719e7ece1ebe4e7e3191e
e41b151de6e718e3e418e51617e1e70ee6e1e51ee61ae9ee1c
e3eae3e61ce31bf30e15101ee2ec1d1b1ee4e4e81ee3eaf4eb
e61ee9e719f50be80fe6e21d1b1ee3e618f9f3191cf4f2e6e2
15f616e3181ae1f4e31618f3e2181cf1e9e2e1e01c111ce4ec
1de3ec1b191dee0ee50fe3ef16e7eaf3f7eb1de2e4e515e4e5
1d1a1118e8e61d1ce21deb1dec12191deb1de2e1151ef11e0c
06e31deb20e8efe81e16e5e0e412e6e21d1120151e18091718
19ee1de4f21f1ced1b1d1ef51ce2e313e7ee0d19ed1a11e41e
e91419e31de319ebf11d1de51dede7eae4e2f8f8fce3151f1e
e3de16dfe2e7ed18df12e92420e61e18e6e3191ee9e7e2201e
18141615171ceee4140ee710de1c20e61e17f21b1ae31fe2e3
e5e5e6e3e4e0deeae80de5ee1f1e1a18201fe915e416e0e8e5
e1e2181c0ae0f1e2dd1a1c1ce8dfe21d201b1ae5e00b16e418
1f2115e715fa0ce31518e11ae121e7f1201ce3ee201fe8e0e6
e813e8ee1a1617ece3e21ce41d1f1816e5e3eaeb1ee2e91019
e7e2e4e5e2191ee70de9e5201b1be51810e3e61cede1e11ced
1b0d1ceee3e3e51d10e61de8e3eb16e70ee8e3e6e2de1be7e1
1d1d1d101b1de219e3f11a1de407e6efefe3e5ed1ee3e318e1
e4f219ee14e8ef1d1f25e2101be722ed101b1feae3f31520ef
ebdfece60e170f1f24091d23181e1616e1dd1d15e6161ee3e9
e2e71ae4e817e5e1ec16131e1ce5e212e5e3e2e2e4e3e5e220
f0e81f1de5e61c150f12e71be312e4e2e31a1c20e21a1d1d1d
ed18f6e9191eeb1b11eb1ee91c17faeae21d17e6e3e3e21a10
e3e3e2e6e51be612f61ee3e31d15e3e2e7e71c18e5e6ea19e3
1ee7e7e3e61ce218e4f5e31f15e4e3e2111ee2e91aed1f1be3
e31b1a1c0f19ef1ef4e51eef16e31611eae7e91ee3e91d19f0
0ee3e9161d1de3e9fceaefe3e6181d1de4161deb18ed141ce3
1b1befe2ece3e11de3e5e5e2ede4e216e70de3e41d1d1de3e5
19e21ae2e5f4e41ce2e4131ae3e21ae61312eaeef70f19e50c
e5ebe21e1a0eed16ea1c16ece4e7e2151c19e2f4e41d1be2e2
f010e2e3e9081ceb121d0be4e6ea1be31ce314e3e2e8171be6
efe312e919e419e8e31b1510e21ce3e6141ce2e41be3e3ee18
e5141ee40de21de7071ce8ebf0141de21a171be719e3e61ae2
e21ee9f01d1b1d1cefe70ee7161de3e31b1c1ce6171ee50f14
1ee9e717e11d1b1df01ce51ce313e4111de31815e4f91ae41a
e30ee5e31beae4e3e8e319e416ec18e3e51de1e4e3181d1d18
1ee419e5e3e4191e1de9e31de61ee3f1e5e31ce21b1ce3e3e8
0ee5e61ee8151b19e4e219e2e71ce4e3f11de51ee8161e1ce7
e3e3191a191b1b181d1a1819e6e91c1a1b0e20111ae9191ae6
f0e1e20e1a1ae8e9eb1e191ae3181e14e41ee71b161dede318
e81c1c1c14f0e3e41d1815dfe3191d18181ce11de2f11c1df0
171e1ee3e319e7e9ebe313e81316e81e1ceae21de3e4df1b18
e2e5e8161ee4ee111f1ce8e2e3e01a17ebec1f1e1ee11d1de5
1c1a15e4f1ede5e6eaefe1dfe2e9e3201d2219f915e2dde014
1b1de7e2e516171ff8e2dd15e3dce91a1f1ff4f0ef1df01fec
1913eee81915ede5eae917e4e2f7e1e0e41d111c10141a20e4
e4e4e3f3e6111d1ce5e318e91ee3e31be2e31d1b1e1e1b1be6
fd1d121d121c1ce51d1a16ede4ec18e4e7e2dfe21de4df15ed
1b1ae11feb1612181a1de31a1e23e9ea1f1d19e81ce1e4e0e0
e81ee31e1c14e4e7191de41ee31ae31de71eed11ef10e7e415
19e51df21f1ee1e61820191be21e1e142013e41c1c1ae322ee
eae3e3e91be203ea2017171b191e1be611111e20eae2081ce2
e4e4e5e3e4e7e6e2e3f4e3ec1f1df3ece3e9e0e41ce719e4e1
1df2e3e314e1e0e41d1c1ae5e81e1be21d17e3e614ef161be3
1b10f2e31c0fe71a1ceaea11efe71be6e3e319e5e31b1e0ce3
f1191e1ee81ee7e3e3f4140ee4181d1d1b181a1be3ed1de211
18f5161de41d141e1eebe6e3e8e2171d0ee5e211f1e4e5161d
e4e3f00b1ee6e21ae21016f01a1c1c18f3f6ece8e21010e91b
1ae3e3ed1be4e31cec1d1de619e9e618e5e2e3191b12e8181e
e215e3e4e51c14180de410e916e71ae4e309e2e718eee6e21e
e2e21be3eee3e2e61ee71ce3e91a1c1bf3e417e7e6e3191919
1e19e4eb0ce31e1d16e61de2f6e9e8e7151d18e21617eae2e5
1c16e4e3e4e31a1ee4e30d18e3e3f1111de21ce31c1ce5e218
f1e6111ee51de3e61e1de915e5e31ae5151719e213e2e31eec
e4f1e2e2ec14e210f5e2e21b19e4e3e5e5e81d1d1e190fe3f2
e31ce2eeee1ce5e3eaf11817f91a18ea1ee419181de4ebe4e2
eb1a19ebe7eaebee1c1d131d1ae7e2eee4e813f0f01ce8e21a
1511181de21ee4191b1ae3e7e31ce7e3090bf1e21ce4e3e618
16e21419e81b19f010eee718e2e6f2e61dedea1d1ce51ae71e
e2e3eaf01710e2ea1a1ae41ce2e3ea0f13151ae2e3e7e21a14
20201c151f1d1b1ee8faea15e219e2e520e6e5141ce4e418e4
1ce21ce6f11d13e20d1d191e1fece5e31f131fe5efece6e619
e6e3e91e1d1b1419e7e5e21ae0de11ec18ecdfe21c1feae416
e2ece4e515ea101016ece3e422eb1edee213e6eaebf2e91c12
1e1ee6171c19e217ec211d1a1ce91a191b1b1de2f5e3e5dfe3
1c1adf15e915dfeb1c1f1e1be6e21917dde71f15e1f01e1e1a
1be419e1e2e7e21be61d1be21c1ce3e911ea0e20f716131ee9
e21d1cebe51eeae818f21d1c2118f6e21ee5e41f11e31817e3
1de3e4efe2eb1b1de21b1ce81ee819111917e214e2e5e41ee3
e31510e4e71ee71b181cf2e61c16f0ecf11b1e1bdee716f0e9
e4eae01ceb19202016e62210e81c151de219e30be7e3e414e8
e819e71e1b19e2e2e51ee3e6e71917ece311e2ece411e21ef1
191a220de4e31a0fe7e9f20be5e7ee1c201f101fe82119e317
13e3edf0e8e41f1f1c1be4f221f220181c1f22191d19e619e7
191be313e91c1dece719e3121dedf4e4e11d1d1ee7e3191215
19ea101f1ce5e21e201716e2e9e2e0f41f15e2eaebf0e2f3e3
e6fae419e216171d1d1cea19e4e51ae519172213e319e4e3e3
16df1c1ae6e31ae411e419e0e3ebece7f11ae21b1d14e31de6
1c121bec1b1cea1f1aec19ebe4ee1debe7e31d1c1eeef3e8e8
dfe3e0e9181deae51e1c1e17e6e5e21b0ce6e80f1819e3f3e8
e81a1ce41be3181f221be80e1c1fe6eceb1c1be31d1ae6e3e7
0de7dce917f3e3de1e1f1be7e9e6e722e9fb1ee41d0e1be4e6
efeaec1be5e4dee5e0ebe6e3e2151e1ce41de6e51f1bea1fe5
eaf21eec15e4e7e41a1beae217191ce3eb1d2019e41e161d1b
17e6e6e31be8e71ce41e181df616e1eb150de4121cf1e71c10
e3e0e41de41219e4171e151a1ae3f21914e0e1e6e3e81ce2ef
18e2eb1e1aeae8ea1be71ce61c1de7ea1e1ee41aeae6e9e319
e2e8e21ae91ded1c1ce31d1ae515e1e3f11ce71fe9e81f18e3
1cf6e81fede3e6de141b1bf11d211ee71d20e2e81ce6e4e1e5
e7e4ddeb171de2e11f2019e4211f0aea11e7e71a15e318edef
1bf5df1b1cef1f1a221a201f0716eae4e2e7e0e2e3e4e41a17
e3e419f11d16e0e61fe715e3e51f1cefe116e316e4f018e1e5
171c1c1ce51ce21e1fe21ee0e618e215e4e01e0f19e3e7e51e
e4e3f31d1bea1ef21de3e5e0e91fe3e8f2e51f1fe21ee2e3e9
191e1f1ce5111815de161de4e61ce31de9e51ee421e5ec1d1e
1e1419f1161018e61ae51ce51beb191f1e0fe3171e1ee4e7ed
f00de11e241df4e817e5e3e1e3e4e1e4e2e211e4ec16e71e1e
e912e8f313f321e61c1d16191c1af31f1d1f1f1ae8211c20ea
171ce7f1e2e6e5e0e5e91ce4eee3e9e5e71a1ae21fedf4ec17
e0f6191b1e1c1f1f20e4e3e5e1e1e81de3e7dfebe31d1be216
e8e81118e3e9ec1519e30d1a1de8e4e3e6e218e8e3e81d14e4
e313e2df1518e2ece5e8191a1be2e6241e1de21bf21a17e21b
1ee519e40f1be21de5e4ec16e41ae61ae61ceafc17e5e8e5f2
e5e2e3e71bec141ae2e31de3e4181cece8191e1b161c1ee31e
e7e6e21d111e1d16211ef0170c1610e3e5dff51ee8dfe2e423
151fe21e1feb141a1c20e5dee9e71decdade1df2dee5e91a21
1ce3e1ebdfdce9e615e713f6e8150cf01fe6ed111a101c1c1d
1f181a0fe2f1e615dfe4e21e21e2191aeae21c1615e9e1e7e4
1c1a191cebef1f1c0c1ff31d1a18e41912e21c1de70d0ee114
18e512ed191d1c1ee2e41e181e1d1ee50f201ae7ed111de51b
e9e11ce8e218e0eb1ce9e0dde0191fe81611f01a1d201313e6
e7e1e1e3fce3dfe4e5e719e21de307e4e41e1de8df1d151e1f
e7181b171f1ce822151822e3ede1ed1a18fa1923e2e41debe2
16e41718211be8e2e117e117e2e11be3151e1f221ae81e1e22
e31e141ce5e5161c0d12e4e4e81c08e3e8e3161c1fe81e221d
ea181cf0e11f1f20f2e5eb1c100e17e0e3e5e7151d0ee9e9e9
f3f3e51de4e21eeae7e5e6e31619e6e31de31e1ae2e2e208e2
1c1d191fe3e3e9e6e312de1b1fe912de1cf11f1f14e2e3e4f0
1ce2e5e91d161bece4e51b111a19ef1c1fe9211bede31515e1
1d1deb18e3e71de419ecee1ce31e1b0ef0e71de31e1d1de4e3
1f1e1b1b1c1a1b131af41c1614e3140d1aeb19101c1c18e0e7
e31de2ebe2e41a0e1be31f1e11e6141f15200cf11ce4e61b1d
e218ee15ec1c20e41a10e1e41411f2e819e8efe1ede621e110
e61c1c1de4e4171aee1ae5e1e81de8e4f1e81be2e2e5191515
e7e8ee1ee2e31d191be3eb1f1ae21d19e6e61b1dedeeed1b1b
eb1de4e3e61816e3f00bf012101a1de719e4edf3161918ed1d
e320e4e2f01c1ee3ed1de4e11c1807eae2ec20f01a181b21e3
1b1defdfe4f2e4e8e7e219e3e215e70dede818e613f2e5e21e
e319150fe3e81d1de2e7e91d15e1e5201ae21d1ff0e3e51c1c
ece9f416e217e618e2e221e4ec13ec1ee4e019ec10e019ebe5
0ce81bec10e81de4e5e11e1c1a12f01df419e7e7e218e2e6ec
1a09f2f3e3e61e1f0ee81bea211c1b1a1aefe31de3eaee171d
e2e8eae215e80e181a19f11d1ef0e2e3e61e11e7e41b17e414
1f14ebe1190ae71ce20f131be21e2017e7e320e51d181c1fe6
e91ae213e70f181de7e9e11917171de5e21a22211d1a0a1ef1
e21ee418e2e5e519e3e21ee61c1eeae9161e1b0ee3081d14e2
e6ebf421de1e1c1a22e0131e28e2e5ea12eb1ae41a1ee21718
e61219ec091be1e513e4e4f01a151de2e8e61b18e3eae8f924
16e4e7e5dd1713e4e5e219ebe21f11eee2ec20e3e2e21c1ee6
1ae21be6e41ce41f1fe3f1e4e4e911e51c18e6efe41d171df2
e31d1f16f61912e3201a1518e5ed1f18e61ef1ef1d151de81e
1bef11e60e101be01cef20e51e181c1c1ce0e3e7e6e3e51417
e51d19e4142020e6e91dea201a0ce01ce4e4e21b17de1d24e7
e2e6efe5e316f4e9e2e7ed191ee41fe6ede6e0201de3e32120
f11bf02024e91eebe223e6eae00e181ce4e01a2014f51fe1e3
eae0dee3eee0e4ebe8e4111f1f1f1f1b14eeeb20e719e1ebeb
e5e2dfecf81ce5e1e6e4e41c15e5e8f31d1c1dece7e0e31be7
ebe6e5121a1a151c1feb12e6181d1d1d24ece2df1f1de2e2e9
ea1cef18e4e91e1de8e314e918e619e6e40fe0e71b1e1f1ce4
0f09e9e21d1c1a1d17e61a15e3e9f11ae4e0111aebe1e7efe3
ec11e2e320e4f00be0e41c1b1c22ea1fe91f19101ce31de3e6
e3e41be5e7ea191d1d1b1ee6e5f81c1c1e141de2ec1de2eadf
e41e1d1d1c10211415eee31d21e21216161a181c1def271de9
1b0d1be2e31e1d2818191d2210e8181814db2019e3191f151d
1de60ee7f210e3151ce7e5f1121d1e17eb1cece0e319e0e420
1d1e14ed201720eb18e51c12191fe61ee3e3e61de4f12021e8
1d1ee4e3e4e81d1ce0e61ae5e1eee7e7ebe41ce2e7f2e41d10
18e6e20fe5e11017e71d1c1bdf1d18e2ebe31d151d1bebe91e
1f1d1de21df2eae6e619201f081c18e51ee31de2e4ee1d18e9
151bf31f18e116211c1a1ee31c1de6e5e3e70de315e61a1b18
e5f41cf91de318e6e5ece31cdfe219e3e218eae31e1ee4eb17
151a1e21e514131ce31f1de3e61ae3e3ec1a1aeb1911e8e3f0
16ec1c1b16101ce71d1d1cf31c1c1d211c11e91de91ce5e3e3
1c1b1e1d0fea1a1fe5e41b1c1ae3ea19e9e2e71ce41cece31a
1eebe517e6e21e12e5161ae4f3e2e7e4eaeb1e1ae51de91919
11e4e71418e1e4e3e7e4e71be11de71de20e0e1d1df0e41ae6
e20f18e11ce21ee11af115e4e3e30e14e6101e1dedf0ed1ce2
e2eeeb0e1ee21c1ee3181915ef13e51eeae21aeae8e516151b
121f1cefe6e4e51ee11e1e1c20e5e51c0ff21a2012e9ec1aef
e51a151e120f211de5eb1bece1e3ef0d1adfed1be31ce1e5ec
e1e1e41ae6e216e8fd1f180ceb1815e21be3e31219e9181b19
0ef91be2e2e81f1d1dece51f1be5e3e1e3ebea0f1d1ce3e4e4
19e619e2e31de9e2e61a130f1d18e21ce91c0e1d1d18e7191c
ebe5e1eb1e0f0be61114191d1d1d15e3e11b18e519e21e1e14
191ce615121ae31d111ae411eb18e2e3191deae5181eeee4e7
e3ebe9191e19e3e2eb1e101ae3e417e8e519ebe4e21c1ceae3
e91de9e615e3e4e71ae31ef0e8e51cf0e719e3e4e716e31cea
1c1c12e4181a16e4e6eb0e1be610e814eae6e8e31de313141d
1eebe6e4e2e4171ae6161c1d18e21ce6ed10f0e20de3e30c06
e2eee31e1c14ebe3e7e51b1ce1e4e1ebe5e71919e51de71ce3
e2e516e3e3e3e3e2e4e813e21a13eb1de415150e1de61a1d1e
e11d0ce2e3161e171ee319f2140d1ae51ce5e1e218e6f2ed1d
1916e31a1ce31e1deae71debe2171ce4e4e2eae6eae614f01d
e9111c18e60d1ee71c1cee1c1d1e1ee5e31a1cef1ce91ee51e
1be21c1d1ee6e4e40c111510e4e416e2e6e31c1c1cef151e1e
e21519f8e2e2e4e51cebe6e4e4e30d1918e2e6191ce5f2e61f
e40b1c171c12e6e81d1e1a1610f61cf2e31ceb14ebeae11de5
e2e3e6e71ae3eceb1c1ced17f41ce51ee81dec1de3e7171b1e
1ee715e4e3e4eb0df11aed1f1ee3181c21f7e9eb1ae61de71a
e3e5eae2ef1d1d1913f216e9e7e3071a1c17e50d1de314eb1a
1de4e7e41ce3e1e20f1ae8e2e20b07e3e415e2e01d201e1ae1
e818e1e61916e11f20e5e6e01ce3e2dff5e0ede6e11b1f1be0
1ef01e1af11b1322e3e61f061eebf21d23201d10eee3e50d0c
1de2e0201ee3e1dee10edee3e5ede4e6ede523e5121d14ef14
1be8e21ce4e0e0e0e20ce7dbe2e519f3e318e410ea1113091f
1d1c1d211c1d211ce6e515e4e7eae6e60ae1151f1de31ce41b
e4e51316ed18e6e8e81e1ee4e70d0df3121ee21fe6e41de6e3
e0191d1d1fe0e31fe71fe0e0e11de1e8e11ce7f1f4161ee8e7
e2e4e71be4e31de41f1d17181dece6e3141fe4e0f1191aec18
e41719121ce5e71ee1e7e71b0ef1e9e51b1beb1f10e6f5ec1e
1c1f1a1eebebe71dedec15e920e71c181ee81e1de21ae4e8e1
1d1d1c1e1ae4141a211de81f1a1de6e51b1d1e1ae71f1a1ce4
e6e1e5181d1a1c19231de8e31d1ef2e2e81ee21019101d14e2
1ce4e4e31e080f0febe8ef0de31fe21c17210716eb19f0e616
1d1617e71d181e101ae6e81b14e41d1e1ee11d17e2e81c18ed
1bede1e2e3ebe5f0e3090ee3161d1fe5e71f1b1e1017e21c0f
181eeb1d1c19e4ec191ae5e8df0df0181919e51715e7e51011
e8e1e81beae3efe3dd1d1e1816e1e61b1a1c1ee6f30ce30c1a
f112e9e71de5e3e81ae820f3e2dfe11ee4e6111f181b0a1f1c
e31a1b1be9ecee17e3e2181c13e2deea13191ae6121715201f
e3e316e51deb121fe30edfdde0e11be8e1e117f01b1e1b1a1b
10e3e21e1a1f1aeaed1f1f1ee81a0de21d1ce5e5ec151ee3e8
f10de41e191d1cec1ee61be31c1b1d1ee4f51eeae3e71d0e16
e7190de11c16f4e4e0e51be2ea1de2e1e8e71ef0ed0fe51b1e
e2e219ef1ee2e91a19df17f6e6eae3e31a181e20181bede91b
e4ece2e7e7e70fec16eb1ef51d1818e9e6f313150ee8171be3
e317e4e41b19e11ee721f2e20be61cf7211e211c1a181b1a17
e415e519f1ebe2191a20e5f0221beaeaeae71d0ee6e7e812e2
13e5f41ce6e2e21214e319121deee2e3e3ee0a191df0e41a10
1a19f120e7e1e41d1c1f1d1ee40de6e50ce2e71ae3e61fe31d
ec07e7e4e31b201a1af1e51b190fe3e2e1e51ceee1e6e41af3
e21d16e2e3e4e8e3e0e60de213191c1e1de51de1e3e3eeebf0
ec1ee8e3171d19161a1917e8211ee7131e1e1e1b1ced201ce2
1f1d1be3ebebe3e61d101cecdee119201eedea171c211c0e17
e3e51d1ae4ea1ee2efe319dde4e3dfe3e2dedcea19e3e51b1c
f2e21a1ae7e11b1d1aeee7e517e2e11b181b19df1e1f21efe2
1819e9eae51cee1d1f1f1d18e5e4ef19e8e315e21dea1be019
18e4eb1e1a1de80de2dfe0e8dfe2111bdeeae31910f81df514
1d19e41be81be7e618e7191ce2e2e2e6e916e7f1e6e6ec1deb
161de5171de9dfe01be6e418e7e3121d1bed1ce81e1ce3e4e5
e71d18e0ebe312e107e1e5e3e2e3e519efec051ae2e6151319
1b15191ae21414e41fe41eeae3f0101ee41de2121e0f1ae40f
18f21be3eaebf820f0f2f113211fe4e7ebdde91ee2e4df220e
e31d1f20ec1d1e20e21ce3f2e9ebf1e215e91ee319da1918e1
1c1deee0eb10e01c1f16ee1cf5e91ae71e191b1e1de61f1b16
191d10e81c1ee7e51c141d14211c1cece617e61ee219e50eea
1b1d1b16e51a0fefe8e4e41fe414ece00ce61d13e2e522f2e6
171ee7e0e61de620e71718e9e51d1f1af21ce11a12e1f2e3e5
1416e4e6ebe3e40f1fdfdfe7ebe815dfe61814e3e2dde513e8
191d19e0e91ce71ae2eae4e21b1c111b1ee51ce6f9eff11de8
e41d1617e517f2ee10171b1e1b1e15e5eee3f0171c1e231cef
e6e415e0191d1f19e1e5e9121d1d1a1f21e91c2019e0e508e2
15ece2f6f1e6e3e1e3e6e3e11cede20f1e22eef3e418161c1f
f318f01914ea1d201a171a04eae61de8e41a19e41ceb211b11
e7e5e5e8e31e1c17e9e7ebe3141be6e2e21b13e6ede3e4e6ea
1be6e51d19f018e3e71ee3e3e211e8f11a12ee1a1d1a1d1ce4
f413ea15e71ee416f11ee7171421e3e3e418201a1ae21f1919
18e31be413e518e8e4e51d171f1de4e316e71d1b17f01c1b18
efe91820e3e61b1020211c1b1b17ea1be2e5f81d1ce0ed1512
e3ebe7e4eeebe60b15e7e319231d14e8e5dfe9eef8ed0f1e18
1ae6191bebdee10a1cede3e1e41d1ae7e7e4e2e220e8e2e3e4
1aeae31d1df016e3e7e4e5e41debe415e6dee4e6e31ce1f00e
e51f1ff2e71ee3141d20e3e719e71f1b1cebe51deb1818e511
e3ece7e31ce2e4e7e5e2e21ae9e218e51713181d1e19e31df2
1e1ce31d1de412e9e9e9e3e2e5ec1ee0ec1cebe61de719191b
0f1ae6e71ee4e4e1e5111ae1e119e511e61deaebe60e1de7ec
1e1be9ee1117e422e8e3e4e9e5151ce3e1e1e410e11d18f01f
e21e1f1d1e1aea100ce31620e9dde6e5e2e0e1e71d1c1deae9
1b15e7181413e5e51cea1310eae0e313e3f3e4e4e1e5e2e11c
1e1d14181ee7e61e1bf1f3f11d1d1a1d141e1d1b1418e41ced
1910e3f0ea17e2081de914e4e3e4f3e2161d1a0ae3140fe6e8
0f1cea150feae6e4dfe3f0dfe61d1a1e1819e70fe61ce8f01d
e21920e31817111e18e6e914e41a1d1ce6111f18e61ae51fe6
1ee71b17181ae4e4161ee31be7191b1be3e5e3ebeef01ef019
e31e19161e1d1b151de9ec1c1de7e81b1310101c1ae4f01c1f
e614e6141e14161ae4e7e4e11bec1c1709e9181d121c21e91a
1ee918181b1c15e7e7e4e516f4e2e91dea1913e3eded1d1ee3
e3eb1de819e3f5e81d1bf41e1d1a2016eb1af0e512e70fe51c
1dece41ce31be3e61d1b11e10ee4ee1a181ce9e31be5ef1c1f
0cee1ae5e6e41e221de5e01c1f1de6e5e21d1cf51fe7e21110
e21b1d21ebe3e4fb171ee4ebe4e9e1e21e181cf019e318e7e3
ec201b18e606141de3ea0fe91cef12e9e31a1ce71f1de3171b
e3dedfe6e41be3e42021e8e4f21d1ce1e3e4201b19ec22221e
1feb1bdf1a1915e7eb181f141c15131cee1d201af0ea1be2e4
211eebe819f21c1de7e0101810e81ee51b1d211be517e6eee5
1beee3f2e719eeee1f18f1e6eb1a1e15e9e3201ee7f1e41fe5
e51ce715e1e7e219e91d1d18ee190fe3e61814e712e319f11e
1f15ef10e41dea161cf51e1d1b07e3f51e0f16ee14e619e81c
e7e3e1e4e013e41d16e81de5eae51e1be5e8e81d18190fe81e
1a1de5e7e91c10e3e7ea15f11d1b1a1e1c1de2ec13e51dee1f
14e8f11e1716e9de1619e6e4ed1ee5e91c18e1ea1ee0e21ff0
181de2e2f0e2ece01a20f6e2211b1c16e4e6e3e5f2e5e61618
1e1d1d1fe8e4e4e41de51115e31d1de3e9e015141d1be019eb
1817e2e2e7ebe2e3e41804e4e3deed181de3e11be31a1ee6e8
e2e71ae51b1d0e19e01d201510e5241b1de2eb191be3ede616
e1e3e31b18e4eae0e51de2e3e3ee1de7e6e7e41d1a18e41a1b
e6e91ce717e314ec1221e9dd1713e6e4ebe4e718170fe015e4
1f1c1b1fe7e8e6e7151ce2e2e6e61d19211bf01d0de1eaea1e
1d16e6e2e31d1c20e2251c201e1c1915e4191c1f1f231e16e4
e9ee1be9e4191b1f1d2015e813e318e3e6dbe41de6e7e91ff0
081e1e1ee51c0e1c1ee31b1b191a201118e1e1101cdde21e1c
dfe3ed1ef2fde515e41b1f1f1a1b11e31d0e1eea1ae415e7e4
0f1ae9140f1af01d1412e3e7eae219e7e41ceb1b19f5e4ec0a
e60e1720ebe7f10ee0e3e4e1e7eb18f819e6e9efebe1161be1
e8dfdfe2211ff0151c1e1aecdc1f1b1317121b141019101ae9
14e410e7181ee3e2e3e8e41410eee71e18171c1fe61e1ced15
e51f20f0dfe51d0de2151f1110e00ff521e4de211b201be21c
e8e3e9e41b1fe6e3e419ee1de619221f21e61b1e1f1ee31ee6
f4e9e41b15e81d221e1a1af6ecf0e314161ae81420ebf2e2dd
e5eb1d1b0ce6eeebe9181a141516211deaeaf61e141beb1d17
e8e8e0e1e21ee7e118e81be8e71ee7e4eae5e21e1d1b11e3e9
e621f21c1ae8151d201df121e7eae3e2f0e1eb15e21a1fe4e3
e4e3df1ae61ee41ce90a18251f1dfae4e31b211ee20d131ae6
eb1d1de61ee3e31de3e4ea1d0be2e7e0151c1e141be4eae21c
151fe9e5dee81d1a140f0a151d1f1d1f15f01de71e1bec1be6
1ee81ff1190b1a18e11c0d1823efe5e916e4df161de2ee10e2
e3e6e713191ce3e4091c1aeae71519090ee816e6e21a0fe0f4
ea1de41ce11de81919e2e2e3e118161d161606e41be41be6ed
e71cebece71d1ce41ee20de21d1d151c1c1e1a18ede2e3f510
e2e5ece21e140f19f2e81ce9191dec1f181d1a1a1d1d1e12e5
1e1d1b1ee31e1c18e9e0f4131bdf0ce81f141aefe81b1c1fe7
e91a15e81bede2e61be41e0e1b161f141aec18e71deee3e3e2
16df13e11ae51f11e71617e7ee1bee181de3e0df1d1d1be71b
ebe7201a1be1231fe115101de51d1ce51e14140fea24e2e41c
e9221de9f21be5e7e50f1d19e4e7ebe7e21b14e417e72021e6
1d1ce3e41d1f20201813ef1aeb1cf3121f1be5e3190d091e19
19e3ebe8e71de7e4ef1417ea1d16121ce321f2e81de2e9e115
e31ce3e3e3e81ee2e4e3e9e3eb1d20e91eec11e31d191bece6
e6e4e4e1dfe5edf0e8e0e61ee220ec1518e7e31ce7f7e7e21d
e41e10e3e0161d221d1b1d1c1fee1d1b1a19e4e5e21e1b11e2
191ee01ae4e3f013dfddf2e821e5dee71e0d2018eb2020221f
e5e71d1e1f1a1c221c23ef200c19e90f1ee3e21fe31407ec18
e61a20121de41e20e220120fe41422e91517ef1f201c1ce81d
f7e5e4e41cf40d1ce1181e1ee2e7e4e4ea1e1f2114e32215e6
1ce7e2171e1debe5e7e319e41ce31e1919e8eb1deae6e615e7
e1e3e5f1efe3ebea1d1e0f1dece8ea1a18e4e8e2ed1d10e7f0
e1f21a1e0de9ee1fe7e6ebed18dfe7161ee40de31debeb1e1c
e41af0f4e3e21ee21c1cee1e19e51aebe81de40c1e14e7e5f5
191e14e0e1ec171d0fe6fae0f0e3dfe2191ee5e41bf1e8e51a
e31a1ee4e31de6e616de1aed11e2e1e3e42119e4e3e31d1df5
e7191ee2e10e18212220161fee131de21b21e41ee21c191f18
e313e21d18e3e31cef181819191c1d1ce7ece1eae4e5e6e9e5
10f00de6e4e61be2e0f5e91f13ef1fe5e61bf71e19de151f1d
15201b20e9e1e31b1ce3e3e31e20e3ec18e11d1f1a1ae6191d
e2e1e3ec1de3dee31f0de61bf5161e1f1619ea1a181ee317e5
1f221d1a1c191c262015e3e4e4e8e51de7ebe4e2202117dfe6
e220e2dcdf1af418e8dce1e0241de6e8e21e1de6ece1e3e9f0
191e1a171c1a1a1d1e211af21cf018df1a11e1e01ee2f2ecde
11fae51f1416e3151d1a12e7181d221d1ae319e4e61f17e3e3
eb1e12e0e2f409e318e1e21d150c19e91be4e5181be71c1efa
e6e21b18eae6e3f0ebe909e5151a0c1a1fe20fe9e41c19eee3
141f1e1f16e3e5e71df31ce9e11eea1f1ef21af5121d1e1df2
1d1e1af2e11ce4121ff2de12e3e7081d1ae4e3e3e5ec1e1a1a
eee51c0f1ae3171dee1be8e1e4e71e1e1814ede3071be41f19
e4dfdfdc0de5e6ece9e41f1cede518e81916e90e1be4ed10e7
e4e6e31018f41eede2151f1e1ce7e4f21e16111f18e61a1b21
1d21221b1de019e9121de8e3f10b1be5e4e1e2e4f31d221de2
e41ce1e2e4e41114e8e1e61816e50c151de21ee51b0d13e4e7
e6f41c1a191d1b1e1ae606e3e4e31ce81ee8e3e61e1de3e21d
15f2e2efe8101af3141cea1ce6e6181a1ee3e41df515e81a1d
e31d1ee6111de2e5ea1be3e31ce21ee716eb17e5eef218e3e3
e21ce7e81b1c0f0fe70d1ef2f1f0e61ee4e9e6eae41d1bf6ec
17e5e91c1ee61ae5171b1ce91ce2efe51ae5e30e1be2ee1c0e
1be5e2e31812e7e1ea1d18e411e21de71c1a1710e4e41d1ce9
1be21bf410e8e51b1c1e1b1d1e1de61d151de7eb1a1717e3e4
1c18f214e7ea181a191de51c18e80ae4e5eaea1de3e3e811e8
14e21cf11ce21c11e7ee1d141de5e6e7e3e3e4e71ef2e31719
1de7e2ee19e4f0e7e2e2e6e8191ce2e91de41c1e1c1de7f116
ee1617e2151ae9e6e20ef319ee1af0f91d1bfc1de21de310e6
1de3e9e71ae7e217f6e6e21be2e314191de31b1a18e4e9f21a
e4e4e21ee31beee118eaf119e917e616e419e8e3e71d1b1cf1
1ce4e6e7e91ae5e3e41ce31de2e8e7e3e3e7e41ee4e5e317e4
ebe115edf6e31bf019e5e5e3e5f1e41d1a1b161ae7e31a1e10
1c1d1015e3e2e60f191de31bf51c0f17e5e3e2e2f4e4e311f3
e4e8e61917e4181e161de2f1e9eee619e3e4eef0e21f1ce410
1e10e216e2e5161ae51ee1191d1deb1ee9e51de217ece3e711
e3e11ce819e7e51ee2e51ee2eb1de2e6e719e4e2ec1b121be3
e71e19e518ebe71ae6e21c1eedee1c1516e7e3e11ae61d10e8
e418e7e31ce2e71fe20de5e3151e1a15e21a1df2e8e4e319e5
1a111c1b0ee31d171d1dec1ce313181e1de3e219e9e5e2e6e7
12eaece71e19e3e71a19e5e3e519e91c1b1b19e71b1ce7e41c
e8eb1ae31ae90e1d18e31befe2e60e191e0d1ee21a191de2f1
1c161ee51917e4e71c1d1ae915eb1c1b19e2ec18e71e1c18ea
1a1b13e4e3ea1be6e3e7e41d1e13e5e51d10e21debecec1e11
13f71df6e3e71de2141b1ae9e7ebe311e2e8e413e21b1d1de4
f116ece8e2e71b1be3e4e4e8e4e8f4f0170fef1519e91ee2f6
e21de7fc1f1ae7e41ce80d1af7e4191aec13e3e9e5e9e5e608
1a1d1e1d15e20ceae4110ae4e315191ee6191b191eedf1e5e7
1c1d18e3131df6e0e3f112e3e819f0f0151ce3191de3e716e2
e6e8e4e5e61c1d0e1ae41de3190f191a1ce2ef1ee21bf3efe4
ea1ce4e919e5e21e1f19e816e620171de5f1ea15e71fe41ae2
1e1b1ceb1716eb1f1de219f11b1ce6e9e2e81a1ce3e219e419
e91d1be8e5e8131deb1bea1c1ee1e31e0df5e3e7f1e8e71c1c
1d1be3e01be21f160e09e6e2e7e31be41ee21ce91c1d1f1cf1
1de70b18e21d18e8eaf0e5e319e5e6fbe51fe2eae31ae4131c
0d1ce2e3e9e7eb1c09141a19e6eb1a1ce3f617e319e91ae2e2
e817ec191ce81ce116e11914e91bec1ae010ece80e1df01a1d
1eebe6f116f2ea0f1ae11a19e3e4141de91a20e2f5e220e8e2
e3e71eed1ce418e615e5f21d1ce8e4e5e2e617e4ebe4e41a0e
1b1dee1a1c1aebe41defe61ee3e2e3e5161c17e7e71be2e50f
e1e8e8e519ec12eae4eae81ce8e3e2e9e8e2e21e15e61ae5e5
e71b1e1c13ece615e2e2e9e2e2041519e61e1ce7e51d15e51c
1be7f01ce11ae317f0e3e2e5e21b1419e41a1fe8121b18e811
1de3e4e3e01de112e4ed1e0a1d1ae3e6e21d1b09e91dede2e7
1debeb19181a1def1c181ee7e61413e9e31ee8f3f5e2e420e5
e2e3e2110ee71e1a1e1ceb19e81befe8e4f0f0e2e4e819e41c
15e5e2e2e31513e21b0f171d1d1aed1e1e1d1e11ece6e3e21e
1de20e1919e4e3e41617e71be5e8ed1e1ae81c16e71418e6e5
e7f008e31619e5e3e41b1ce4e31e1be3e30fe31de9eef812e6
1d1e1ce61b0f1de31d1a1de41c1d11e316131ee51c1ae91ee4
191de61e1cedede210e316e3e3e21e1bede61d11191519e3e2
e71de41d1a131ae6e6e71aec1ce9ebf8e3e7e4e31de81d161d
1ee41e1c1d161eece2f1e7e1e8ece3e11def1de3e6e31618ed
1d1d19e9e2e415e219e5e6e3e6e61be31b1b1c19e3e4e8e21e
0f1d14f01de3e81df411e2e2eb18e5081ee3e9191ce91ae71d
12191de71b16171b1be4e5e807e217e5e51de3181de815e416
ee15e70de61d14ea16e4f216e3e6e31418f00fe8e3e713f218
e313e61de61d161e16e3e6e90d0de207e3e4e71d171ce21416
e4161e1be21d0fe8121415f4e717e70719e2eb191be21d15f1
19e6e4e2e7e3ede3f2e2e7e81ee4e2e3e2e5e2e6131de2ec1d
e2e918ed14e91b11e3ebeb1c1ee4171a17e3e5e2e31ce4e317
f4eb12e3eaeae3e9e71c0d0e151ce8ed19e6e219eae3e2e41d
1ae2df1d1514e7e5e1e4e2e5e310f3e1e81e1e19e4f210eae4
e61e181de41ce81f1de8e4161c11e3ed14e3151e1a1ee71e1e
1b141916f0e8e3e0e3131e1e19eee920dde820ed1ee6161f17
e7e7f01ef1e31e1ef2e4e21d1d20e1211dddec1f1ee41c1de6
1b231deade201b1aeee6e1dce6e6e21aef0f1be2e31823edf0
e61d232619e918e81d1de51922e4e3e4181ae1e11ceb20191c
e1e31be8e8151d1018181921e61de41919e4ebe11a0fe71d17
2021e711e3191de810e2efdd17ebe4e60af01d1de41f18ebe5
ece519f02019e7e81a191be3e315130f180f1e16e31ae711e4
e6e918e0e5f21a1e21e30f1c11ed201c1e0b1b15e919e4e61e
e4151cecdeece5e30fe01ee11612121ee41b11e614f21e130a
ee170f1b1b1e0d1b12e31e1ae4e31ae21d1ae5e114e20ee4e6
e112ddede8181be3e8e11fe7ec1eeae3dddb1c1bf112de14e3
e0e9e2e40ee2ebeedee4f017e1e7e6e8e6e21aeae6ec1e191d
0d1914e2e71de6f01d1e1fe61c19ea1e220ee8161d1af01716
e3e216dfe1e8ed1f11e11ee6e81ae30f1e101c1c1de4f213e7
e7e6e6e31df9dfe308130ae2e41e1d07161be11c1e15e3e3e5
170d1e1e13eb23f41e1f13e81ce7eae6ea17181a1be81be61a
e216231ee6e219252022120de4f2e31ae8121719e81fe51a0d
1d1a1ee41c1e191fdfe0e2e417171bdde9221d1d1fe9eae61c
19e9e3d7d814f0e5221ce6eb191b1af6e5192413e3dfe7ebe3
161a1fdcde1d20eee4e217ece319e7f7e31a1d1de2121ee41a
1d20201ce51e1f1f1bdde11c1ee1e11c1ce3e41ce31dece91e
1de4f4dee21c1de5e6191a191c1c1ee4ea1ce61be5e21be81e
e8151e1ae0e31e13e4e2e7ebeb1ee5e11ce41e1b0c1d1c1c13
e90fe41be0e8e4e11ceaf3f019e3e3efe61b1ae3ec1eec18ed
131de4dedd20e21ce9ec181df8101f1ae4e2e71a1d21e4e315
f4eb181a1ce41de21a1de3f4e91f1b1e1d1c18e3e41cf11de8
1bdee7211d1cd9e0121bede7e5141eebe618e7e50f1be4e116
e4e9180de4e3e8dee4ed1ce21c251f1def181e1f1fe8e0e91d
f61e141f18141c1df71e1eee1ae6f1e41d1fe51d1e1e1f191c
e3ec17191a15e71419ece4eae0e9e219171bebe7f1ed1de414
e8ec1ae3e3e9ed0ce81dea1aeee41be5f016071f1d1e181be6
e514e11deae8e1ea1e1d13e7151716191fe1e5e41c1a191d19
10e2e6ece9e2e91ce61fe425161f1c17e6e519191e1dde1d18
e71e1b0f1fef191ce51c1a1e1ce1e8170ae6df1ee4f311e319
1d19e2e8171a12ece01ce8e3f4e5191e1cf21d16e3e31de7e2
e2e6f1eee717ddeae2e40ff11de0180c14e8e91f1d19f118e4
19e510e7ef0b221aece40f201810e30ce3fbe7e516e4df13e2
ea1e1fe3e410dfe01e1ce3ebefebe31f1f18e5f51ae8e31e18
111a1e181e1b1d18e3e11df51a0ce7e4e51ee20e0de6e51ee6
14151f171ae01ce4e61ae319e51de10f1ef8e90e120e18f10d
1ef01ae61ae5e0e715101b1117e6e5e5e6e9e5e31be71a06e2
1ae410e91d141e1ef41c1de31ceee6e9e61e1ee4e509e4e2e2
161febe3e3e51b1feb1e1c2018e2e41c1f1f1d1b1d1d2023e6
e5191be51d16111d1b15e4e70e1620e3e5e4120eeb2320f31c
eb151fe5e8e71d18e51ef2e61f12e011e21de3e4e50fe3e41d
e3e5e71c19e6201e17181a14f31e1e1e18100d1c18e50c1df2
1ce5e8e3e21ae41c1ae31ee21ce5e20d1ce2e61e0fe6e7e30c
e2e5f6e2e210e4f40fe51de3151de614150ce70fe5e217e9e6
17e7e2e30a0fe21e1810e3e31918e7e4e8e21ee4e318eae40c
0ce7e7e31e13121ce31ce3e3e31ce4e819171de718e3eb1915
f11de21a19f21ce818e7e2e4e4ebe21de7f31a1de41c1b16e2
1de21a1be8e61919e91ded101ee7e3e6e4181be21de6e8f1eb
f8e31de3e91a18171ce31ef51de3e91c1e1be6e314e5ea1ae9
16e4ef1b16e216e716e31c1cf1f21019e8e7160ce8e71de31b
e319e30fe3ef1c1ced1de316171deb1b1ee4e313e5e21a18e4
1d1c1d1af916e3e510151e1817f21e17e9e4e61a1ee3e2ee17
e2ef1de4e519e2e80f1be61e1b1be5181d141ce2ef1de2f20f
e218ebe219f0e31eee13e5e2e7f6e816e7e51e1de71b1ee414
1ae418e318e3e9e311e9ea0ee2e1e30f19e31de3111e1a1c14
111be91a1d1de3e115f21c1be5191d141de4e5eb151a1817e3
18e4e4e7151eefe2e41cf1e71d17e61908e214e31a1ae2e81a
f0e50f1c1a1e1c1af01b1909e71de211e2e41b10141618171d
1cf0e7e3191ee5e2151c1e1c191de21de21ae6ebe311eaf010
e6e5ecf01ee2e4e719e31d1ce31a1d1518eb1c1ce5e5e7ea1e
1d1de81d13e3ede3e4151a16e9e4ece71de3e2e4ea1de6e71e
e41519ecee1c191cfaeae5ec1b0eeb191ce4e410e9e5e31d12
1b1d14f0e31be2eae21ce31def1a1ce3e91c13e8ed1c1deb14
e8e8e41bec1c1919e7e61e1ae2e715eef0e316e6e3e314eb1e
1a0f1c1ee4e419f1e4e2e3e51e14e516e4e4e21e0f1d191e0e
f0e9eb191a1ce419e41be3e71b101ce4e41a1b1a181cece41e
e3e3e71616e6e5e8efe51c1ae6ef141c0de21be51ee4e5e71a
19eb1de517e61d1ce4ed1af8e2e70d1a1becece6e31ae71d1b
e7f1e8e91e14ebf0e3ecf0e219e31b1ee8e2e315121e19f016
e6e716e71d1d19191d15eff11de61c1de5e21d1413e9e916e5
e2141c1aea1e1de6efe6f31c17e2e51c1e16f8e1e81cefe4e5
e3f3e51de9e2e4e6eb1a12e4e2e3e4e7e3e416e51ee817ec13
e3e4eeee1de3e319f0e515e3e2e8e210151c1af31de30a19e6
0fe8e71cebeb18e713f015e7191b1c131be51e1d19e411ea1a
ea1c1d11e51b1c16e9e6eee6e6e4e21df1ed171e1b1ee216e2
1ee2e2e8e2f5e4e4e71be3e817f2e31b1ce1ed1a1ee51c1212
e2161be2e310e9e3f0f11e1de71ee4e3ee161d13e41a1aec19
e31bf4e319e2f1e1141ae3e41c1a1ce9e313e21ee6e4e31d1a
e51d1de6e5e51e0a1e1ae3e8ee1b1e1a1b131d161de21be7ed
1de6e5e219e2e8171c101e1aebe21b0cebe3e71dea170c1818
1d16ede2e5e21a1bf11619e3e3f31ae415ebe5e3e2e4131cee
1d1a1c1d1deee41ae617e3e51ee21d1ee6e4e21d1e1de5e6ea
1d1c1915e3131de3eb14ea1ee51e14f61de31e1d1b1917e3e4
161e1ce9e6e51a1aea1a0def1ce7e11be6eeea19f0e313e4e7
eee218e3e219e315e3ef0d1614191b181419131ce5e41a1ae3
e5e4e30f1c1d181d1ae8ea1a1b1e1b1c18ece41be2e71df11e
1ee5e8e20ee3e3e7ebe5e2e2eb1c0e17ef1e1bf1e915e4e3e4
e31dee181c14e7f2e3e41de2e1e2e3e31914e8141918e416e8
f5e5ee1cee1c1a161bec1d19f9e5e6e71de11be1e50fe2e410
e21b17191de7e51b1a1ee5ed1a1de7e40d0e18e21911e4eae8
e91c15e31c12e5191c1ae3151ee5e5e31915f31d16201fe311
1be0ee1b0f16e619e21de3e6e1ea1518131c17e01c1a1919e3
e6e7151ae8e30f19e8f0e6e3e7e31e191ee519e5180ee41e1c
eb18e41514e3e2e6191a1de8ee14e80e151de7e219ece2e9e9
161b1b1ae915e81d1d1eea2020e819e8f3f3e2e3e3e71d1ce1
e7e7dfedeee2e4e01b20e3e5efe5e41f16e3e2e31ff21c13e2
e4e51be7f0190ddf11f2e418e8e31d1c1d1ae7e5181c1d1deb
fa1f1d1c16e51ae2e3e0e40e171f1ee1191eed1ce3141ae5e2
1ae2e7e6e70d1b1c12e50df01de3e3e7e6e415ec1e19191ee3
ece0191d1de5e3e7e6e4140be0e1e31d161c131ae2e4e90d19
e2dee2e418e9e5211c1fe51616e515e2ea0be21e1ae71ce60c
e41d161be8e30ee31de71d16e71d18e4191ee41c1ee4e6ed1c
e71de420e31917151be40fe51ef314e5e1e820e7e71d151be4
1ce117e6e718df191e1ee70f151c1919e4e820e0e9e31fe817
efe5e9e7ebe91c0f1ce1e3e4e21a13eb1b1520f30d1de51ae6
f3e4201de8e31b181e1a1ae9e617e7e419ed1a191a17ea13e3
1c14e60ae3181d1910ea17e5e91c191de5161cece2e2e4181c
15181fe61ee41de6e4161915161c1d1e1e1be2ed1ee4e41de8
e11e1c1f1ee41c11e91de3f0191d1b0f1df010e71ef5e5e016
e310f1e41de8eee2f4eee408140cef1d1d19e3e4e3e71de61b
ee12e1e51a1ee3e2e51fece5eb1d181e1c1b14eb1af30b1718
e2e51ae8e71d141def1be21ce4e41e1be3e520ec1ce7eb11e3
e51df01c12130b1ce4e7eb11e3e4ebe2e913e7181ee5e51814
e3e719f2eae91ae31a191a1e1fe419e518e31d14e31b171f18
e40e181ee31512eb0e151de8e41c17e7e3e21bebe7e21defe2
e9e61c20101de4e5e3e71be3e8e218e41feae51e14131de51c
e9e0eae7efe61e191921e6161a181b11ed1e1616e7e4e7e61c
1ae7e3e6e419eb1c1be8e6e4191b1ee6f61e1e18ec14e9e81f
1ce3191ce8e31e1b19e216ec18e4e0ee1cebe4ee1a1ee61ae3
e9f6141d1e1a10191ce51ee71fe11d201ce4e4ec1ce31cede5
1de6e4e6e5e81ce51feae4ece2ee17151ae31cf51d1f1bebe7
e4111318e51719e5121c1be41ee3e61ce31be619ebe1e31c1c
ede31e1de6ea1ce21df01b1d2014f2e6e7e7171e181be52115
e4e4e6e3e3f21e1eee1ce8e5e3151de91ce41cea1f1deb1d16
1f0f1e1b0ae51e07e2e11ce4f51619ec2017201ff0e7e2e2e0
1f2017e2e1e11a1b211de3e213f1eae3e919eb181ff2e3f31a
1cdee718e7ece6e4e81f1b1a180f1ae7e5eee2161d1d1b1d23
e7e41ce2e12317f6190e1be8e3f315f8e1ebe9e51911e5e2e1
1d1d20e8151821eb1cdf201c211a15eff4e4e61cdf0de2e6e1
e10de0e71ce221e813ebe4231c1be71d1c14e71e1c1ff1171c
e2e4e6e71b18ede3ea1de6e31b1ee419e4eae3e41c1d1ae4f2
e5191ae6e7e51a1ae9e70c1ae6e71de91d1e16e31d1beae818
16190fe1e7efe416f519f115e2e1e2f0e4e3e3161ee81c1a16
1b180d191e1e12e4181a16e2f012ef1b1d1ee410e31b1ee3f6
1e1d1c1517ece7191f1a1ee71ae61feb1c0df0e2ef0c1c1d1b
1d1eebeeeaebe5dee31f18df23ed1ee4e7200de3e6101b1823
2220ec1c1d16e21b2018e71812e2f2f1e7e9ed1c1e201d13ee
e7eee40fe5e7e3e51de3e41a1ce8e9e2e91de4ec0feee41b1d
1ced1be4190cf117e00720221ee2e81a200f20e3e6e8e7e7ed
1b13e8e8e50aeae2151eec1a141cec1f12e0e41ae7e7dfe9e4
e61ceb1f1ce1e61a1f200edc191f071e08e3e6e91b1de5e0ea
08e81cf8e5e2e01a1eeb1be4181217de20e9dde015eb1ce11a
1ee623eb1b1a1e191e1519231ee819ea20ec1c1ce4e4e1e31c
e2e91c1a1de3e2e3e1e2dade0c0df3e5df1ae718e1e1161ce4
e1e50d1f1be2e3e215e7dddcece71be4f712dde91f1fe81e1e
191521ea17e41f1ceb1ae2e51ee9e2e11be81d13e7e7181217
1815e218e3e5e61ee3eee21dec1ee6efe612ea161be51a1811
1d1e15211e1816141418e5e4f31de3dc1a0ee11de01910101c
e9f4e3e9e8e5e916111a1d1a1d171d16dfe2ec20e2e4e9dfe0
e418e9e21d10efe5e21de8e21b1ce7ea1712e31be71c1e1d1c
1e20161ae3e211e7ee1de7261e181010271dea09ec1e1af8dc
e51c20e3e4e71d201f1ef6221d1c19241fe6121f201a181ae3
e4e21d20201a17f41f1ee0e41be6e3e5e1e6f3db16f31ae2e2
e7f3e21ce7e3e9ea201af11d1ee7f3e8211e18e51eece3e2e3
e41f1f1817181a1716e2e21fe7eb0fec0febe0eb1fe41de21a
15e2ebe21f1e20e1dfef1f1cf109e1e6201af01de4e41a1be4
1d0e15e50d171de1e2e02121e6e6e3e5e720eb1ef3ebe8e9e9
16e311e6e81f19e1e51ae923251e1ee2181ee51be3191e0a1c
e31b1b2021ea1ce71a221c1de81a181d1b1de2dc0fe4e8e9e4
e1e01d1eebe9ea161b1d1022051c1d15e40fe3df1ce71d1ff2
1618e71beb1ce6e6e11b1c17e320241924ede61ce2e7e914e1
e81d1e201fe3e11a191ee42010e0161e2117e0e7e3f21a1b16
16e2191f1deeed18e71deae9f1e118e41ae6e4e7e6e41c1fe4
e7e8ebf2e61a21eae4ed0ee61deb2018f317eb18f01b171f1c
e51adee22117f8e5f40f1b1c161ce312ef1b1cdfe220201ce4
1ce3191b1fe8e2ebe5e61ce9f4e31a1e1ae6f1e91c1e18ec1d
1d190fe2eeed1e1b1adfeb1921e4e0f4191614e018f110100f
ee1a16e4211a1f1d1ae71a110f16e0191a1719e0e4191d10e9
e21ae510ea1c1debe3ee101523e4e3e3e4e415091a08e2e5e6
1f122222e7e9ee10f2e4f01d1e1c1b19141d15ebe018161919
e318f1e316eb0e17e7e7ece3e2e1e2e4e7e50fe61d20ec181c
13e8efe3e6f2e3151ee01c1fea1be1e3111f1ae3e5e6e4e8e2
ebe81719e6e316e2e81de2e8e6191de41413e3e4e41a111ae3
e2e1e5e9eae3e71607e2e2ea1d1d140e101eee0ce1e21ae21d
e51f0fe5e3e9151de7e6e5ebe5e31d1b1feee9e4e1e3f1e5e5
14f320231f1ce2e8e419f01b151f121111191de5101f16e71e
1311191d1ce8e2e51220e7e410e21a1b1b1cf0f31e13e4ed13
0ce71d1cee181b1c18f11ae81ce31e18e3e211f51ceb19e4e6
11e21d0e1a1de8e3e609e6f6e1191ce41d18e415f1e9f0e6e7
f4e218e3ebe3e81e1b19e9e21c1d19e2181d1ef91ce8e6e81d
e1e71d19e6eaf61c14e4e41021f11d1d1d1cf2e5e6e8e0e3ea
e40d1de4f0f518f01c14e91de41de5e318e3e319ee0deae513
1ee317171ee712e91c1e1eeae8e214f1e8e7e2191ae41de4f2
14e5eceae8e21813e41ae3e8e2e41b141b1be11de8081aeaeb
e5e314e4e3e417e6e51be3181b1d1f12111d1e1e1c151e1ce2
1de3e51d1d1ee81ae118e31d1b1cf0f50be8e31d1e161c1d12
e21ae21b181f1ce61c191def121ee221211aee1e1ce6dfe4e3
17e1e8ec13ece2dfe91f1a18eae7e1201bf716e8e9140c1be9
190ff415f0ee1d1fe3eb161f1d1716e5ece5e3f2ee221be41d
e8f1141e1e1a1c1edfe71c2220db1ce1e2f0e21de417ed1fe9
1019e8e6e5e50ae71adce3e5eb091a2126141a19e3dedde419
17e41f1b18dfda161be3e6e21ae41ee1e2e0eb201af116e51a
19e1f2e1e717e4e31c201a101ee6201e14dde5181e1c1d0ee7
1e23eb1aee0ce2dae80f1be40a11e4201c1b1a1218dee3181c
191e1d1d19e50ce31aed1de5e7e41a151c19e2e2e21b1a1e16
e61421191be21d1ee2f11e1d1fe9e4e3e7f2e51a11fa23e618
ec21241febe2e31a13f01eec11161ce31fe21e18e7e3e1e21a
131cecf0e5e81e0f1d10e3e3eaec1c1418eae11be2e4e314e6
1de2df101ae2241fe3e0e119e514e61b1a1ce71fe2f1231910
e8f91c1be71c201fe3e6ee1deb19e7ec262419e71d24e21dec
e4eb1f0e1d1a2019f21be51d1fe40eede51ee319dee41ee61f
e7e91b1ce22022201c1ae715eee6e31a0ce7e4e4e71c1de6e8
ea16e61ce31e1d1a15e3e2e2f41ce7f2e60c11e619f10d1911
e7e8e314f21ce4151de41bebe6e9e8e61fe518e617e3e21ee7
151c19141513e3e71d1be8e51ff7e5eae6e9e2e4f519191de4
19e71714e21aece31618f3e81a16e31be31ee01c1ae4191ce8
1e1c0d0f061f13e1e0ee1ae1e611eae610f71ee7e9e3f11ae8
1a1ee4e3e1e415eae8e7e41f1d10151a1ae4e31de41de8f014
e41a0e191d1ce60a12e51f1e14e4e1e3e019e6e41de21be8f0
1c1ae61d101c1ce5ece1e316eae3f7e5e416e819e8e715e613
1e1818e21ae31d19e30c1ee4111ded1c1ceb1eec1eed19e317
13e2ed1fe317190eeb18e8e2ef1ae1e3e4e9ea1d191318e2e2
1f1e1ce1e31de4e9121dece2e2e7f2fae5ee19f11ee41e1a18
e2e8e2e618e21e1ee3ed1c1ee4f41eea17eee318e70d191ee4
e8e11ae719e6f10fef19ecee1d1b1af21e1ee61e1ef114e4f1
1c181d1de2181ae5e90c1ae4eaed1ae21b101e1c19e3e5e614
14e81eeae8e4f3e618141ce119e41c1c121b1d1bed1919f6e8
1a0f1b181115ea13211d1d19e820e6e310efe20f1ce4e619e4
f31d1e14e71ee5e51ae81ee4e6e5eb14e51017e41ce6e7181c
1de1e3eae31e1aeee4201d1f0d1d1c150a191ae9e317141be1
e414e217e4e31a12171fe9eb1fe8e7e309e7e9e91d19e8e118
e0e4e3df1f1f1e101ae4201c1e111fefe115f31de3e6120cea
15e81c1b1d1906e32012e314e2151ee91c241a1adfe1e6e3e4
e4e6111a2119dfdef0dff2e3e618e9e1e720201ae611211d10
201ee619e7e417dcdf1de31915ede9e21de81f1eea141b1e14
111c1cf2e4ea19e6eaf11ceb1ce01e151fe41c1fe1e3e11e1b
e5e4eae2151e16e91ce4180e1ce4e60d07e6e3171defe41ce6
1a160ee21cea1f121ae8e21c1f201fdfe6e6e8ea151be8e516
18eedfe4181c1516e518201d241b1cec1c181aeee419e1e7e4
f01e19e212ede314ebf218e2e9e8f41ee3e31c141215e2e51b
191d23ed1d191feb1d19e70fe41de2e11622ecdfe62019deea
f0191ff61fe31e2111f41c1e20e71d1d22281d0e1e1fe6e0e2
1d14e4e01d1c1d0d22ed1ee51e221ee1e720e31415e6e3def1
e2ea1eeae71bee1b171c1d17ece0e21b16e6e11ceaf7e11518
1e05e1f4f1e312121814f21917161c111a09e1e7e8e2e2151a
0e1e1f16e31ee6111aea1ee41cee1b19f4e31b1ce3eae1e5e8
1deae51e1d16e31815e91916e5efe5170fec21e320e2e9e3e3
e1131be3eae9191d18e5e2e4ed1f1ce7ece319e7e9eef91816
eb0713e3e0e5e2e7e1e51eeae510e61822e5e71ae715e0151e
1ce414e11e181ee5e7e912e21d17f51d1b1e1f1ae6151b1fe5
0b111cefe51de41a1de712141fe4e6e9191e2120211c141e20
1be4e31b11f013e21c151fe3e11611ed1ae7ef16e31bef1f1e
1ae31e1b1ae8e8f7e41de9f21c1b1c1d1e1d1ae41be2e7e41b
1fe9ece4e41de3151f1f1fe2e61514e21c151e19f4f11c1de2
191f1be2e9e31d191cec1c1914e514211de6e1e11fe409ece5
1c111a141a17eae8e61ced151ff2e51de5e7e8e412f2ea1d1e
e5ea1def1d1be21d1de4e8eef31cf3ee1a1ce6e9e813e8dde4
f2e515e71a1b1aef1d1de319e6e7ecebee17e31d1d1adcdde2
1ae0e3fae51a1417e61a1fe6131eed1ce31ef01e1c14e419e1
e21bece9ece4ebe6e819e3e3f2e0e51521f2e1e31c1c0f0be3
1cef19e6eae7e6e81318ecf11be8181c1be1e21d19ebf9e81c
18e7ebe31c1418141de312eae70b1be4131ce71ae41e091419
1614e4e9e20a19e2eb13f00ceee31cf1e31c1f1b1b191ee41e
e711e40a19ef11e6e5ef1719ee1e1a0e19ece518f1e713e5e3
1e1ce3171de3ebee14e4e515ed19eae61e1a1514e519e41fe6
1ae8e6e2e3e90f1be3e1190e1f1e1018ee1d1ce91de4e619e7
1ce719eb111e1ee5e3e31c15e81ee2e5e4161c1e1b1be9e41b
18e6e61de3e317ebe41ce3f1e81c191be618e3171d161bf9e3
1b1de4e41b1ce2e511e7f3e4e4ee1be4e3e7ece70b18e61e1a
e218e3ebe3e3e5e8e31e1911e5e9e9141a1a161cebeaec1b1a
1f1015e31e10e31e1a1a1c10e1e21de6e4f1e2e71b1d08191c
f4e419191e1e1b1d1ee9e9191de2e3e31cebef18e312e9e708
e515f8f31c1b1b11e518e2e41f16e315191aebe3e7e317ebec
e419ea13e31de2ebe3e1e21b13e2f6e4e6e5191c1de9eee41c
e31ee61e191d1de7f0e3e217e3e6e4e21dea1c1d1ce21f13e2
14e61ee4e4171a151be417ebf1e9e6e319111c1a151de4e3e5
e61e191e1a1eebe7e1e31a151d0ae9f2e815e4181e1de2eae9
e3f11c19201c141d1df11af21ee811e2e4f7181af1e320e81d
211f131ee2ec22e4e2e00e20e312e1ee211be71de71dea1bf4
e0e0e9e6eae7f21e211d1a201e20ed15e11d2017e0e7e7e6e4
1ff1e42117ebe708e3201a201f1ee91f2321e2e4e6e2e3e120
e4e3e8e719e91aeb12190bdf0d1920eadd0ef2de1cf42120e6
1f1f161dea1c0ee1e81fe416e2e70feae21bf31c1f17e422e5
e617e71deee2e3e4eb1cea1c1ce921effb14161ade15e019ed
171b1eee1c1aef1a1de512131be1e31ce4eae3e2ebe3e51b10
1ce11be31718ef201e0ae5e1241e1c0ee41723191c1cf2e419
12f2e0e3e2e31b20e60e1ef41ae60f1e1f12dceae51ffb191e
1919141be3e61df1ef0fe3131ce4e9e3e81ee1e3e4e6ecf01d
182225201e0f1a1ee9e116f0e818e31e1b1b20e8e21c12e1e4
1df31b20eee41ef01716e9e51deb17e31e1f1be018e81de31c
e3e6e0e41eee0de41d151ff122e2f118e21f2222e019ef1a1b
1ce422201c18e71ae4f11df21712e31de521e3f2e21de0e6e3
1a1de81e1c1ce110e61d15e81de517e1dedf0de7e2ea111feb
ec1e1a191d17211de1e21ae31d0fe3181d1916e5eb1b18e51d
171e111eebed1be1e1e8e6e319e7e11ee71d151f1d18e5e615
161b1ee316e41cebe5e41de61c2017ede91be0191febe7e119
f3e216e4ea1ae017221c1a1d20e4e1ded8dee4de0ee426ea20
1f141e1ae2ebe6ef1b22171b1a181bf0e410e00e1e201ae015
1de6e51de30f0f13e61d15e4e9231ff3f41ce6e3f1eee5e217
e7ede61e1a16191df30fecece315e7e5e3e0e8111de21a1f21
e41e170f1ce51ee514e516edee0f0f1e1ee817e7e3eb1a1f1c
e3f0e6e21d1312e8e2151fe7e816e71c15e8e3e9141b17e2e3
1417e1e6eceb1c201b1de3e4f3ebdf1e1e1dedee1cf2eb211d
e8f4e81d10e713eee4e5e71d1de216191a1eeae315e4e3eaeb
e4e3e3ebe3e3e2e21b11191ae81de5e6e615e7e91b0fddf621
1ce5e6e21811dfe21d1615e72314e7e91518e6e71cdf1121ec
1bea19ebe5e0e71ce10c1eebebdfeb21181d1ee8ef1f1de3e2
e3e1ebef181be6e211171ce7f4e9f0e618e4e5ec1de51be31d
1df01aef1deee419e319e31de31debe419161ce41de41c141e
e5e7e9e21ee7e21beb1ee2e41ae51a1eebe6e5e71919e4e81c
e3e3e216e318e31de5e51b1b14ee12e91d1de31e1ee6e2f1e7
111de7191b1ae319e4e3e219f31a1d1ce61bf1ece4e3e41ce4
eae8e2e519e41de3e613e916161cf018e715191b1813e21e1e
1eede31ee9e40ee4ec0c14e5e719e7e3191ee70ae315e6181b
e2e51ef1e3e6e31af01e1ee9e81c1ae3e3e2e3edf6e8e3ee1c
e2e31de7e3e71ce71b1119e50fe31919ede7e3e518191b1ae4
f1e4e71de3eb1b0f1ee6e3e61315e2f8e41d1d1b1aeae5ec18
e6161ce2e4181eefe5e7eb09ebe5e91ee5e81be3ea1ce8e317
e4e31de8e4f2e3e6e4e41d1ce5e31716eae71d1c17e81d1e15
1ce4e81de41e19e21419e5e7e6e8e716e818e41ae5e8ea12e3
19e3e619e3e918e4e215e3081d1de3e719e314e3151d1ee5e2
1d13e4e80fe31a1ce4e21bea19e41be5111414e2e2e6e215e2
e8e60ce4e71b1e1ee7e81a151b16e71de315e21e1ee9191de8
1615151d1ee3e4ea1718e81ce31eea1ce61ce6e6e3e61e1e1d
e3e2e61b09e51d13e5e6e9e61e1de4ede5ed1b191e0ee20cf2
12eaf2e41de71ff30be11b0d1aebfa1c1b14ef17191fe71eed
16e6191d1de31d1fe3ee1b16191fe41ce510f11eeb19e31df0
f215191deeec1f1ee2e21d1de718e71d1d1f180f201ae31ae4
1b1fe8eb11e40c1ee1eb1ae5e1e316efe2e0e41c15161711f8
19e41f15e71ced0bf2e7f2ea11e5e1172220e816e923191be6
e2151de7ea1c1c181ce5e9ebe21ff0e4161fe61c121d181b20
18e3e411e7e21ce3e71617eee2e4e81e1ce61cefef1712eae2
e81c1cf1e6e6eee6e41ce916eae9e7efe4191a1deaec121a1e
ede2e2e11c1b1aece1e3201ce6141e1d221de614e719e6e41e
1d1918ed130dea1af0e81ce2de1219e717e0f01e1feb0f1c1b
e80e131d17e2ebe8e7e919e3e9e2ea1de31be2ec1d0cf21a1c
e4f2e3e2181d1a1c191c1ddf20e1f0e2ece8e3e713e8dd181b
e11c0eec1d1be11ae21a191cecdfe31be31de5e21a13191be4
e7f0141deb1b1c1ee3f0141612dfe3201a1e181f10201f1ce4
15e7161be4e5ea1feee1eb13e61be918e60fecec161ce1f4e2
1bf4dce0e0e11d141918f01d20f6ebe2f2f11c1de7f5e4e3f4
1c1d22191ae0e2ef0f1de21a1ff31d18121c16201b1c201518
e4e3e2e011e51a0f1a1eea1ef821111a1ae5121ee319e41d1c
1c1c2020e51ce821e41c18eb17dee720e2e5e5e61af3191f1e
e3e814dfdfe61ee8e5d7e2ebebeb121c1021201a0e1e141e1d
e3ef2515e5edea1f201e1f1e23eee0e924e5e315e4efe5dde7
e7e9201e1f191f241f1ce71f18211f1a19eee3e41d220fe5e4
16141316101d1de01916e3e1e31e1f190ee71ae7101a191719
ea15e3e41c0b11e2e6e5e318e2eae5e9e3e31b0de21cf619e5
1b0d1c0f1915e3ef211b1e2220e4e41f211eea1d1a1c1f1ef0
10232422e0e5ed16e3e71b1ee1e1e21e10e5e7e3efea18211b
ee1819f01fe816eee3f11d19181dea191de71c1c1e12e416e4
eae2e0e2ecf0e0dfdfef19e2e8e1e41ce0e41bf0e312eaeae2
ec1be3e4e9e221e2dcd91ae519e6e2dfe219e8181c1d21201c
17ee1d1c1c16e2e6dde61d11e8e2e20fee211c1d1a19211c23
1af0e6e5e7e71f21e2e313e61ce41e1d1de3091d1ee8eafae7
e5e51e1e1ced1218e2e51ee9e2e8121d1ce2e41fe7edf4121d
e6e4161e1c1ce3e91d1e16e31b1b1b1ee8ec20e4e2e71e1e1d
1d1a17e81413e4e6e4e2e4e61b1b1e1d191fe8e3eae8e41a16
1ae3e6e7e51d1de5ea1dea19e21c0919ea1e1de41aeb1c1b18
1de411e7e81de219e1121ee8e91ce6eae7e6f9f1ebe6e41c1f
ebe8e314181d1c1c14e3171f13151b1c1ae0df101b1de6e4e6
e31fe31be51ce5e41c1ae51fe6e81e171cf11c181df1e1ece7
111ee4e5e3e0e1e2ebe7e3f2e21d1c1f1c1ce7e7f11614e4ee
e4e7e20d1c181d0f1ae21ce40b191ee8e3e410e31aed1ee2e8
171df418f1e71c1fe81ee21af016e6e21be415e4e31b1ce714
1eec1ce3e417e71bebe218e6eee21e1de3e21e08e6e41918ea
e2e81d1ceae4f01ee4e71d1810e3e210eaf3eef3e51de2f11c
1fe7e41a19e721ea101ce514f218ea190be5e71df0e8e5e216
f6eae71be6e9ebe7e3ebe7e6e5e11a16e1e4f820e8e7e91df0
e9e3e1e1e512f11be31e161de6e81dee0d141ee4e3e1eb0c1e
e314e61a1516f01a1ef61e19f31fe310e41de60e18e9e21d12
e8e5e5e80e1d1820ef14e8eeef1be11aee10ed1c181cec1ae0
e310e30eeae910e911e8e2ebf51be21ce6e6e31a1a181819e6
161c1014eae3e9e51414e8e611e519e21a19e41b110720eb12
15e6e31f1e1de4e4181b1ee4201de7ecf2e8e91ee51a1ae61d
e318e6e715e01118e215e71ee8dfdfe4e1e3e3e31ce3e7ea16
1be7e4ea220fdc101c20e3e619e6e41bec1a0c15e61ced1e1b
e7e6e31918e2e31d1d1ceedde9e7ede7171df7e31b1f1de3e4
e2181f2020e4100ee4f1e9e3e5edef1ce3e11ceee51df1e817
1b18e2111bef1c1c1b1ae91ae3e9ea1de5e21c1c1be9f11a17
dfdee2191de9e81019e20fede31e18150f1ee71715ed1b1be3
e2e30f1d1ef520ef1de10fee0e14e9ed13e614e2e7e9e3e619
e2f6e2e7e7e6e21de51e11f11ef11ee4e9e3edf5e61de2e7ea
eaf81c1be9e4e21617e617e723e3f01c11e1ebec1be6f11ee4
e6e10ce7e319dc211d1d15e52219e21a14df20e30de7141d18
e1e7e7e4e819e61e1ce6e4161a1921ed1d12ea1cf0e6e2eaed
11131d1be4e20c1fe4e4e11aeae6f0f41911181ce5ede21c19
eb11e91ce3e51f120f1c201de7eae5e6191913e81f160c18e0
e3e9e1e9f11b14e41ae50917e0e2e40e1aed10f618e214e1e5
f10fe1de1a201e1cf1e21e19ee1ceb0ee118e115e7f0ee1ee5
1ce21c181b200d1f1917201f22e11de7e1eedee71b1ee3ea1d
1a1beb161f1717e70be4eaea0f0d17e8e5151ae7e721e41ae6
dfe2e7efe2ede3211feb1b2420230f1d211ae8e9e415e71ade
eae314141e1e1fe4e0e71b251f1ce1eef5201f1ff2dbdde411
0e1de3ea1df0e2e2e0e9e5e0e21e1420151a180c1d1a1d1ce0
1b1de41de2e6e61de419e5e2e9e3e61be2f11dece6e71ae91f
e7e3121e1ae81eeceb2015e6e211e7f219e2e3e3e0dee6e3e8
151de8e61ae7e6e9e6e8e612df1b13e5dee5211be3e1e41ae1
1ee21be413e31e1d16e5e4e8e81ee31defe3e6e7e5ed1be3e4
eb1d10e9e61d1f1d1c201d19e7e1e41812f4e41618e92420e3
e8e515e31b1b1e1e1de421eee0ebe7eae4d8e4e6e41be714e0
14ec20e21f131ae71ee8eb17e21bebe21de9e2e0f8e3e31a0b
e7201def1cf21f1e231fe7ebe02020e2e9e31a1e0ee3e71f18
e3e4e2e71f1b0fe51c1ce8e1e223f210f11e171c121f17ec19
1c1315e519161bea1d1af21b1fe51618e21be51de9f21c151c
dfe11d20e3f0e31e25e7e7dfe5e1e31de60e12101bf21c1c18
e7ed1a1fe3e2e7e7ed151d1de21a191d19e81f14e31a221f1a
171f1fe2dae5151e14f1eae4e11921ece6e9212212e4ebece1
121f141ce21decefdedae215201fe3eae8e0e1e2e4230de421
e414f1e41a1a1fe523e3e42019e4e2e7101de3e217170f1c1b
16201de7df1de3e71fee19e1171c1b1de7e81ae11d1418e0df
e41519ebe7e61de41e14e218e9e70ee41ce2e519e3e211e4e6
1de91ae4e51e1fecdf121a1e1ae20be4ebe7e320e4eb1ce8ea
e720eae4dce6e6e4e5e01d1d1ee71d1d18eae5e61bf214e11c
e31e1ae317161ce21919e6e2e4f81b1eef14e2e31df01de4e4
e5e2dd1c22e8e0e118e8e4e1e2141e14e61011ef1e1fe617e0
f011150feee6e6e3e1e0f71ce81ef1e3ee1d1de812ed1b1717
16ec1ce8f81d1ce5e2e41c1deae3e31f0df61d10e7e51f1a22
1be7dde418e51f1defe2e8e2e4e0041b151b1d161620e51ae3
1ee6191c0f11e8e2221811ea1f21e51d1c1c1de11ee219ea1e
e3e1e91720e7ede31d1a1e14eee7e2e4e9161e19e3e3e31ce1
18201df21f16191b16ea1d161e1ce81c1ae3eeece412100fe5
1d16eb1d1e1b1bdee31bf2e1eae11c19e7ec0ff11c1c0e17e1
1be6e41c1ee619e3e120e4210f101e1ff2e31015f61de71fe6
15e31a0f14e719eae8101e13e1df0f1c1ee21dea231ce3e21b
e21be11de4181ae90f1b1f1e1e1b1ee51ee2e719e3e3e1e0e7
1b1b1bec1c16dfdbe81bf6e1e20d1d1a1c16e6e2e81d131a1c
19e7f0e516e4e5101ce3e2e2e5ed1ced1e1a1ae3e713e41ce7
e31c151ce70fe7e3e1ea141de81ce7221df91a0de6121ae216
fde91e1f1feaf21fee19e11be319e51ee1e20ee51ee719eee3
ee1eee141cf91e1de31d1d1ae4e418eee2efe9e417e4e7171b
e31ce31ef11de71d1d19e21e211b16f220e61e1bf1220e10e7
1ce1ef1c1ef2f31d1f1ee41b1be80a191a19e7e01fea20f30a
12ece81e15ed17e317e21f1e10e51b15e4eb1ae51e1de01ee3
1d1f17e7e5ec1d0eeaf50e1d1b221de6e6e7f21f140d18ebe7
0ee4e72015e30deae31de81d17e4e6181e1d18151ced23ebe2
f313eae4e2e3e8e21a1d1de6e2f01c1ae6e2ede41ee1e4121c
1c1ee4f216e30ee3e4e6f0dee7e21b1e15f5e2e716192223e7
11ea11f1e4ea15f11a18e6e3df13e311e2e50fe5e4dbe821e4
18191b210fe2e21c1812f7e1151f211ee81ce2141018dfede5
19e1e6e311e61d23f51be7ee1a13e81fe4dfe61fe9e8eb181a
e3e31c1d19e3eb1a1ee21d181dece8e611ec18eb19ee1f141a
1be8ec0f1fe217201816e71d201fe9e415eae30fec1f14dd15
e8e5e41e1c19e5ec1e17e4e8e31dea1df11e1a1ae2e617e2e8
ec1de7eb181be51ce418eee2e11914e0dde50e0ee5e2e3101d
e61020e4e517e31fe3201a1e21e820181af021e40fdd141518
1ded191ce41c1e15e31de214e719151ce4e71a16e2ece6efe3
1a1917e4e1e21e1aeae51d19e51c1f0ee4e71eea11ef241ce8
e9e1eb0de3f218e81bf11ef415221d16e41b1b1817df211fe3
11e4e4eae11921f21f1d15e4df1e1b171ff21fe2eddee8ed1d
1e1a191be10f0e071ae3e118e20d1be8e7f018e41ae61e2119
e7f11d1d1ff11e1c1fe41de81f19e91ae820f6e3e71ee4e4e2
1c1119e8ed1b1beb1c1ee620e4e8e22018efe2e91a17ebe615
19e5e419e3e21feae6e519e6e2e2e7e3e8e1dd1ce7e7e7e51b
1d1ae1f21f1917ebe8ea19e3e3e01c120ee21ae3e8e41c2312
191d12e920e31f21e31ce6e417ea1ce51a11e3ea2121e9e1e7
e7e01a151c1d1f121ce31f1fe01be6e6e2e6201c1ae6211de3
1d18f0e6ebe5ebe214e71f1815ece219e3dce21fe2f419ea1a
1eeb1feaefe31ae4191fe8ea201d20e5181de8e1e21ae8e2e1
e513e61e15ea1eebe21dea1de31519e2f21b18e61e1ef3e51c
e2eb1ae71ce212dfe0151de5e1ecf019e51ded16e0e31eec1f
e2101d21201d151915e71ae2e7e51f1b12f21ce4eb1d1de1e5
1d1e17e2e4ec1de5e4e4e8141de51ee7e3e21fe2f41012f01b
ea1c1ae7e3e7e4201c181ae51c1e1b0fe6eb22e01e1f2214df
171d09e7e4191e201aed1817e6e9e3e51c1c22de151523e6e0
e6e6e8e318e8e716e8e6e6ece4e7e11f15f115191be31f1e20
1ee41b17190fe322ece2e115e71cebf01b1feee71e1d1f0919
1d1f1b1017e7f1e61a1a18e80ee60ee61fe7ec0b1d20171c0c
ece311f11aeb1de310e21712e71d0b0e111d15ec101cf110e8
e61d1ee61a1d211811e7e51ee313e5e01d1ee314e4e3e11218
1eefe2e1e820f7e3ea1ee7e6f01f211ce2eb171e15e1e21d18
1deee5e5eee2e6e4e10b1fede71aece71711ee19191f201a1c
e317e1e2e207e016e1eb1b1e2111ed1e1a20241de9e0dbdee4
18e6190fe81c1f18e1e4e4191bf5f4e41b2816231815e2f3e4
e1e3e61eeae3e6101ce91c1de4e4e11aed1eed181f2019e7e4
e2e4e316e41ee31ee3e418eae6141b1d1ee31715eae4191be3
e5e516e3e2e6f11e0d11e5f013e51d1ae2e51b19e418f41fe7
f11b17e6191b14ea1b0e1b1de721e3e314eae81de519e41de2
181a1ee2e516e8e2e3e31cf3e2e2e815e90de6e6e41deaea1a
ebf11e241a16e0231f1fe2e0e72012e6e319ec071b19121fdf
1a1de7161be7e0201def1ae62011181ce7e1f2e0f213ebe218
18f01ce3e31a1e1d1eede31316210f1c16dfeae11c0e18e21c
e51f2019e3ebe2151ee71919f1e6e3e1efee1de3e9eb1e1de8
e3141de1e21c1e1c1815141b1d151be2f0181ff01ae6e415e3
17e8ebe5e61ae3e8e519f01ae2f20beb1ce4e7ec1de8ec0ee3
e31ddfe60ee42016e3fb1d1f20e2f01fe21ee3e4e81be3e91c
f2dff1e3eae5191be2e719e60e17e520e6e6e7e01a1b1a19e3
e6ee111c1411e1e320e4e1dee81ee1151cea12ed1c1e1d17e2
e1dee51e1de3dce31c1e0ae01df20fe310e3e8e10ee2e11cdf
1adee4e91ee2e7db141716e81decea191de51ae01b0f1ce4e8
ea1ee8ec1c13e6e4e11919e1ea1dee1b1eeb1be4ef18e91de6
e318e30b1f1a1b1a16fbe5eef01dece81814e61b1de91eee0d
e7dce31ef1e81ae2f0f31de8e913101eeb1bebe6e51ef213e6
e3e6f0161ee01d191a12e51d19e5e7e719e6dfefe512191b1e
e519141aeb1b19e219ee1d1ceaf01612e71b1cea17ee10f5e4
19e21be2dfe421081a1af5191c211ce31ce415141ae81d1e12
19e31fe2e5e22022e8e5e3e518ece8e2e3e414e3e41d211b0e
e9e5e4e91e1a1b210a1a1ae7e3e1e916f01c17f11de216e6e7
f51aece41de5191c1d1be21d16eb17e7e619ebe21d1ee3ef1d
e3e8e2e21e15e81de71de2e61be31d1d15161c1917e7e919e4
e8e718e5e90e1d121ce31d1de4e5eae615121e1dece2e21de2
1f1bee1711191ee71d18e6e1e718e2e4efe3ea15e91fe3191d
1e1e0bee16e5ee161c1b1a13e2ed16ef161ae31ee31c13e4e3
141be41ae3e5f2e1e61b131b1fece20e151de51d19e4f1e8f0
1b1d1eec1be2e6e6e3e4e71aeaef1b1916e31ae6e31ce41dea
e90f1aed1b14e31ae1e4e61de3e8141c16150d0b181be3e4e3
1c1d1b1d16e41b13e3e41ee61ee3e31ce41d1ae20ee3e71b15
e3f0e91d1d1d081d1de31de3e21d19e3ec151ce30fe414ee1b
e4ec1f1a09e5f01ae20ae7e5e21ce6e2e3e31e1be6e616e4ed
e61de3e41de8e31de2e20b18ebe7e21d1c1de21ce21be315e4
f5e60d1b1a0f121de818e315ed1e131dea1cece61a0de3e4ee
1e0df1e7e2e3e41c1be7e513e8191d17181ee4eb1de314e31c
1d1ce415e8e3e718e21d19ebe2e3e11fe51de71d1c181d1719
ede41ae4e3e9e21c18e5e51be416151dececf219151d17e3e3
e21c08e21d1de71e1ae8ea1de5e21ae6e50e1ae41b1d1a1d1f
1718e21bf0ed1fe11d1a161a171de3e4e21be419e7ede3e614
1be3e20fe8e3111be51de81eed1c101b1ce8e8eb1e1b1e15e8
19e21de3e4161c19e80e19e1e4e3ea11ea18e4e8e316e6e1e5
eb1ee6f3e71c111f17ea0f0fe2e41e180a1d1eec1ce615ece3
181b1ae8e71d0ee2e3e91fe6e1e4e5e6e2e4e3161c10e2ecf2
e3e31e1a15e41f201de7181b1febee1d1eebe8e416e4151c1f
1d1ee41e1a17101e1d1e1319f217e31fe2ebef1e20141de606
16e91df10e1de9171b18171ee41cece419e40ceb1817e4e3e7
e6e5e4e619ef1cf0e4ea1ae5e316e31c1dedefe4e7e9ea1b1d
e61ee1121d1af0e514151ae410e81d1e14181e1de8e7e7e319
191f101e1d1ce419ec1be9e2e4eae419e4e6e5120f1c1e1e11
1d1a1ce4e4eb181be7e6f1e4ec1519e61ce5e418e2ebe313e4
e5e513e2181be8f0f4efeee9eae3e1171eebe8e219e3e4e119
15e6ef18e6ecf1e5e3e9e71fe9e4ea1dee18e3ea16e7e4e71d
0fe918e1f01de9e7e2141c0d1f1e181a151d1ee71ee61be5e4
1bebe4e9e3e5e81d151d0eeeed1eea1de21ee3e3101e1ae7e7
e5e2ec1e1ee3e7e4ee1ae3e01c1c14e7df1e1d1de51124e511
182121f0e3e516201b1fe91721e2e81de4e70f1ae5e8e8e3e5
e01b1e1519e1e41724f11b1be8e2e4e41df2eb1b1df414e5e7
1ee4e71f1ae3e519e0e31b2720e1f5f0e3e6161d1fe111e820
11e6e6dee01d1ce41b21e211e31c281a08e3e31fe81bebf61d
1fede6e0e3eb18e0dbe9ed1a1d2320e5141e1c1f1deae0e0e3
1e1ff1e41be4e71d1ee31c211fe0eb1b1e1b1c1a0f1deee2e6
1e19e4e3e3e9ef1d1a21e41ae0231f1c19181fdf18171518e3
191e1ae4f51ae211e3ef10e21e12e8eee4e3f40f091610e0ed
e61ee3e5e61c1af7e1e22117e61aee0ae3dfec0deeea0e1c1c
f1f521e0dfe31916e31de61f1e231bebe4eae4e314e00e1419
05e8e41c1ee9e6f2e9e1eae2e9e8071d1d1c1c131be5e515e3
f0ece21d21e6e8e11421e3e3df0ee51f1ae21de61de719221c
e2ea1ce2e7efe91cdf20e41de221190febe314f4e31dea0d21
e910ec1d171ce4dbe422e920101ae71f17e11de71ee4de1e16
e71a1217ece219ebe220ebe2e0f21de4e8e818e6e4e71921f2
191ae8ea1c1a1deb1ff2e9e61ae3e619e71ce7e6e11e1beb14
1be21aece31b081ff3e3e817e2e21b12e5e71de31c1d18e2e3
f0e61ceb191be1e3e3f21edee5e31d1de3f1e3e0e21b1d1611
1b071819e3e51de4191e18e4f1e1f21feee71ce71de51ee3e3
ee181de3ea1d17e31d1febf01d1eefeb1b14e3ea1d201deae2
101ae207e61e21111c1e1e211d171ae61519e5e5e7ea151a19
e609f81e1be40c1c19f1161b19181d19ebef1a1de119180deb
1ee6e3eb1ee41f21e7ebe41de6ed1feb1b0d191d20e411e419
191c151ee8e61de4eee6ed1e1ef21ceb1c0d1d1e1de3e41be6
0ee3f2e4e71e18e3171fe6e0e9e0e4e3eee41befe6f2e3181d
1d1aec1ae5e7e5f02115f0191fe915e1e71f1c18e417ece41d
19e4e2f4e2e31e18e40de21a1ce4ec1be3ede91d10f41ce21e
e21ce3df1ce7f5e5e2e511efe0171ce6e11ceee1e2151ee1e9
1b18e416171919df1e1ce2f2e0e7e3eae5181be7e31115e0e8
e4e2e3e41ee2e7f4e31e11e5efe3e9f21f16e816e6f1e3e2e4
1b1be3e80e0ee5e91a1ae41818e5e5e519e4e219e114e7e5f1
ebe81d18e3f21c1fde11e5e41c1be4e8ea1f1ee5e1dfec1e1c
eae81def1b1718201de3e6161ce0e310dee81e1feee4221ce7
10e91ceb1cde11e31ce11d1d1ce6e2f11d2223e2e7e51b1ce1
e11b15e31de7181f1ce51822ece3dc231d1a191d1716e1e310
e51cf0e2df181e1811e7dedf2022e2dfe6ebe7e8f4151ae71c
e81ce8101f1be22020e9e5e7e312e2e31d17dedd211ae4def0
e320f10b11e91a0e2015ea191f21151c1f131fe41f2121e3e3
111fe1e3ece51f181fe4f114e8201418e0e11de816f2e72117
1a17e3e81de6e5e4151ae31ae717e71de319e6e81d19e81de6
e2e5180de215ef221be8e71d0c16e51218201c0f1c251d181e
1d1f191ce4eb1de2121ddee2ec10e5e2e31ce112171f1ee81e
14e717e7e9eb1ce2e61f1d1ee8ebe2e30ff1e9e5e41c18111f
eb0fe3e4e1e5e4e310db1fe9e21ce0e6e6de1c1dedded9f01e
e210e81d1ddf1713e3e2e9e9161b0c1bde1512e3e2e01c17ea
e4e4dfe2dee2dee1dee818e8f9e2e01d1ce2211fe4ec191f22
eceae3dfe11b201ae0e6e5e623e3e71e1ce6e21d1be8151d12
1e1d1d111aee1ce31ced1de6ee0de5ec1ceee5ed1b1d1a1eea
dfe0e7eaec0b1ae6e2eb1fe51e1b0fe21010e117e41dece21d
ece6e5e411e3e1ede11ce4e91b1e111d18f111e2e61b0ee31a
dfe314e80e131610e81e1fe8201a1a171c1fe11014e3e71816
e314ea1d1a15e81c20e6e8e3eae2e7e6e2ea1016e3181ee618
e11bec1e1d1aee0ee71ee21c1ce21c1df51a1b15ebe61d1be3
16f61cf115eb18e2ece7e2dd11e50d111be31be0211ee41bea
1b1c1a1d1ae4161a18e20ce2e6e4e0e4e1e91e140ce4201c1a
1e16e31917e6ea1d1cf3e5e8f31deae31d1eeee91ee2f115e3
e015e41ee2e41fecf31de112e6ebede8e8f2ea18151cece41e
eae2e51e18e71ce3eb1e1c1d1d1e1be91bf1e7e1191b15e21b
1b1815151ce4e7e2f21be31de21de1e6f0ea1de4ee1c1d14e9
1e1614e6e715191ae6e2e6e520e40ef61611e41be9e3e31be5
e3e41a1419e3e91f1c141f191d11e4211ee61a18e1e9f1181a
09ebe1e4e7e1f9221a19e7ea0e1ae6ea1e19eb1b1de7ebe8e1
19e6e41eea1be419f2e21218ec1d14e71fe41d14ec1edfe21c
e3ef1deae51ae3e51ce31de3e4eae8f01ee71de4191ce2e91e
18e31eebeb1e14191418e20c1e1de7ece8e214f01de21c1be4
1cf31e1ce5e4e4e3e312f714e2e2121b10e4e31718e31ce210
18ede619e4e4e3e6e4e5efe8e31d1de4e3161eedebe8e3e41c
e316e81ee3e91d17e8181be6e4131ee3e9e80e0ef0e8eceae9
ea1ee3e2e2e314e3e70e1ce61bf419f01a1be61ee2eaea17e1
151d1ce40ee3e7e6191319e81a1710e514eee7e31e1deee3e8
1df4e71df2e5e41ee5e9ed1de5e4e4e6e71ee9e7e30818e516
1e18e21ce2e9e3ec1ae41ae91e13e2e4e31c0de21ee3e3e814
e81a1e1de3171cf8e812eae2e8e6e41ce7e41d1ef1e218f1f1
e813e61e1ce41e1de316161ce9e5f21e1e1e191ce81a131c12
e4e7e3e4e31ee7ede91de71e1c15181c1818e6e41ce6e41ee7
e70f18e2e617161a1de2e8e912e31619e41b19e51ee7e51d1d
181debe21be4e2e2e2e31ce5eee4e3f41c1a1de4e41e15f017
121c18121ee8e71b1b15e7e2e9191d1c15e3eae40de6e41c18
e4e80f0f1a1ee2e6ed11e4e2ed1de5ee1ae61c1ee91ce61eea
e81c1ce81ae5e41b0e1ce31c0c1a1aeae5e117e9e1151512e3
e9e60f1b1e1eec191d1de7e61de118151718151c18ef201ee4
1ef218eb1fe21de3ea1fec201debebed1d2017160e1cdfe115
1cea1f201ff1e3e319e4e510eae3171b19e2e1151c200be717
1de7e4e118f1e5e21e1ee81822201de0121ae2e7e6e4eb221d
e317e1130fe708e1e81de317e81910ec1ce519df151ae4e7f4
e9e51d1813e3e00d1ce21be41d1df0e81aea1d1b1ee7e6f018
1f1110eae712e4edeee7e3e81a1b20e3e60ae4e419e11ee7e9
e318eae713e8e2e71c18e5e6e2e4e3e3e41ee71ae216121aef
1419181cefe31c1818191ae6211116e81c141aec1a231ee6e6
e7e31ae4ec1ff4121e1c14f3e1e0e818f0e9e1df1be71b1ff0
191b111dece81112e21e1d1ce21de4151d0e1d18e5e71c1d1e
e2e2ef20171ceb18151fe316ee1d1116f21be91e1a1ce0e110
0f1e180415e9e513171e1a1e1de7161de51ee0f1e6ebe004e4
e4e71b19eae3ece1ee16e11e1feb1b1d17e31c1ee220ede5e7
e3e21c0e1a171ee6e2ebe50b21e1e91c1de51c19f4e1e617e3
1ef0e7ece8e5e4e71de51fe412e41318191c1c1de7e317e81c
e4e21b18e8e91ae3e21df51de5e21c15e91ae41be9e2e6171a
e4eee422eeeae71d1c1918e7e1e1141e191be21a1a1ee21b1d
ef1ae316e5e4e21ae4e3e419131b1c1815f7e8e21e19191ce2
1a10e4121deae4ee23201d121c1810e2e71e1719e0e2191514
e319e61de6edede41be9e517e316ea1be3f5e61ee5120f201d
ebe31ce7eb1b1aea1deeebe1e1e8ece4ef1be5e41d1ee3e520
150d17e61811151d171fe2e2181de919e1f5ea12e510e41c17
1d1d1ced19e71de6e80d13e5181ae41df010181e1d1e1ce4e3
ef0bee151ee51ce40d1ef518141b1d1a1be41ee3fae4e3e20f
e8ece21de8e71df2e71de9e7e81ee3e3eae319e5e2ebe3ede6
1de4e8e50b1ce2e817e3e4ef15ed181be2e71ce61ee3e6e3e4
1ce418161ce71ce6e91fe216de15e5e51f1ee9eeeb22eddee0
e7e3181ee5e11de6f21bf00c142413181eeee2f018131ce1e2
efeb0f1e1bed1ce6e81ce31d1816eb190d17f2e3e71e0e19e4
1d1de712e71defebe6f00e17f01ce7e31ee3e218e7e4e8e9e1
e510ea1d101b1af40ee3e712e71e14ed0de3eae1e3e018e61d
1f1e20f0eee0191f1fe9e0f1ecebf4e017e61bf2e521202005
1d101ae30ee8dc191c090de818181d1b0d1f0de4e219e9161d
1c1d22f0e2dede0feddfdde7e4e21ae6e2e31fe4162219131b
e523ece5e21b271919e5eb1323e9e0f21820e9191d161a2317
e61c2021e31e201e19e2e10e10e1e4e5e0e5dce3e0e4e2e1e4
e81e15ef14e3ea21f31ee414e2f1e214e5e5e8e6e3e4e3dfe4
110ee3e0e2e81f20ebe71d0df0ea1d1ce21eeee6eee51ce6e3
e7e718e2e2e31e181ee217e41d1d0ceae7180f1bf21d1ceb18
1f0f1cdee5e115181fe4e217e3e0201f191df11e1aed1f15e7
15271d1fe1e6e1e312e7e6e01de3e11b17e3e7f0101de9211c
13e2e4e91b0ee3e50b1a1d1c1717e817e20be7e3e71ae710e8
e5ebdc1c221ee0dde4e51fe4e7131fe314f21f201c0f0d2122
1d10e31c19dfea13e1e2e218e12516dfea1f1cf019191e2122
190d1f1fe2e0dadcdee416e1de16e91d121e19201b201f24eb
e211e1dbe4e71311ecdf0d10e714e61d2115eb17e71c14ec1b
101de31a1917e61df00f191d1115e3171c1b1a1cf30ff8f2e3
eb1ce519e91ce4e7e2e5190ee2e21ae51ce3e3161ee70f1c0f
ef1bebe6e5e614e4e315f01be11c171e1c1be81de5e3e6e3e7
11e114181de3e20de517101918e2e41ee51de21de513e4e91c
1ce918e6eee2f3e4e21e1c12e5e21d0ee2e4e51aeaed18101a
e51a12eb1eece719ef1e1ef1e71ee41ce3e4e21d1be519e314
19e3eb1d171a18190ee2e51d191919ed1a19e3ece7181919e4
1d1d1b1b12ef10e8e2eae71e1d18e4e419191719ecf11de21c
e718161df2141ef0e50f18e2ed1bf11ce5f2101beb1be51912
e71cec1ae410e21bec19e2ecea1be4e3e7e71ce31d1d1de91d
161ae3e3e2e317091b1af0191d1be3e2e21c16e2e4e3f11ce6
e9161c08f21518ed130ee6151b181d1ded141be5e7e2e4f2e2
1e07191ae2e4e9f1e3e3f915e214e5f3f3e6e8e41ce4e7e21c
e5e4e318e41de8e2e5e9e60ae50ee8e81af21ee3e81ee2e4e9
e21ce21717191d171af40ee5e11d10e3191d16111d1d1d0fe2
e81d18e80ce4e91e10e8ebe319e3e4101a1af01de2e4e81d1b
e3e4e2e119ef18f0ee17e91ee2e519f3e319f1e41d101fe414
e2e60fe4181ce81c1914e1e5e7eae21d19e30ee91e1be4e51b
f41de6e31e0f211ae0101f1f20e11ae1e2e6e518e2e1e01815
1014ec19e50d1c1cf3e41fe7221a1e171ae1e3e61ce4e7e319
e71ae41df2ec19e1151feb111d21e318191de7e2e51d19e214
1e101516e61de2e4e8f0ed1f24211d1e1ce81b1a1adfdae6e1
eae4e819eeece7e6e5e916201d0e1eec24191a11ebe316e3e5
11fb19ef1f16e10f1e16181ee3eb1aea1d201e19e6ec20e30c
191ce21514e3e4ef1b12eae614e31e1c1e1d18e51c1e19efe8
e4ece31ae3e7e5e2e71aebe510ea0a1de1e21d1c151c0c191c
f015e6171717061b1ee81a191816e2e2dfe3e11d13e017e213
1c1e19e30e1c1c19e91a0e1513f01d1de41d1fe31ce9eb0c18
1e141ae4dee416161cef1ef00fe7f1e5e41eeedcece2190cda
e8e8e5e11ce21f22201d19e9e40d19eddfec17171ce320e8e0
e7ef0fe319e2172022ebfbf0e212e11ae2e0dfdeece40a1418
e413151ce31d1ce11d1ce21de9ede3e3e01de5191de61ae30a
e111e3121910eae7e30ee4e61e1a140be409ebeb12e9e81d1b
e2e1e5e2e6181ce3eae1e21c13e21fe2e5e3e410191cef16ec
1e1c121c1c151d19eaf01a0be81ee5e4e9e5e71ae9f4e11b07
e4121a19161d1410e71b1b202120211cf31ae7e20febe71416
1eeae41ce6e1e3e3e3e40fe8e7dee41ee81c1ce610efed1adf
e21c16e8ee1df2e3e420e91e1ff4e519221e212014e3e1e6e1
1fefe9e318e418ef1f1de2181ce50e1f1a2411e8e6e5e31c1c
18f4e2e4e2f1ece919e11debe1e419e21e0c14e9201b2018e0
e21c1c1f1a1c1ceb1a17e41ee21a18e814e31d0d161c0f1cf0
1b1c150b1de6ee1be81de71ee82016e20f0ee1e6e71817e8f0
e3e3e0ec0fe61c1e1a1d1922e8e4131ce4e41de7dfe4e6e315
18e2e2e5e4191e1be719e3e8f9f11d1c0ee7eee3ed1ce31be4
1f1c1edfe31dec18ece41a0c0eeb1e1ee210e71deaf01ee717
161ddfefe1efe11e1ce3ea16f2e4e61be5e31ce40eece41de6
1cdfe112f41f2021091d1a1c16221fe616141be21ae7171c1a
141ae61e0ef0101a201e1c1e131b191817e3e3e2f01fe01f17
1ae2e2f218f2e2ece2e41c151f0fe7eb19201817e31c251af4
e21c201be8e6ebe7eb1ae3e4e8e8e51d0de4dfe51c1de51be2
0fe80be3171ee8e71ceae8e3182115e516f0e01817e0df15e2
e2e91f24ed1815e4f1f3ebe1dee4e215e3de0fe21eeee0e3df
1ce119eb1b18e4ee181819e31e251feaed1e201beb191c1de2
e216e6e3e71ce5e11d21de12f11b1d1419ecef1c1adee6e5e1
e21bebe9e3191be4e81f1d1ee2e7f216181613e6e4e6e3e0e2
e91b161be31d12e21df3e31a19f21f15ee1d1f111e171fe40f
e61ef018e21befefe80eeb1af31ff2eb1de914e5e4e4e31bec
e7e1e01c210c1c19ea10e4e3dde81020f419ebe51d17f1e6ea
1a19201c1ae4e718201be719f0e1e9e7df1be7eb14f4f0ef10
1b0e1be7ea19e9ea1d1d0fea1c15e3e6f0e3f80c1d161d0b1d
e7e0e0e1101ee4e00f1c1c0c1d241ee41de225e9e8e81f23db
1de6ed191fe21be4e41de7e8e617e8eb13ed15e4e1151ceadd
e2e4e7210f17e3190de5e318e51ddfe3ede1e5e31921dee3e1
e4e5efe1e3e420e717e4201bf1160feaf01ce41f1be31d13e3
1de21be61ef01a1d1a1be8e2e71cebe2f31beae4191de4f014
e6e4ea19161c1bed1e1b1ee21ce31d1ee4e719e4e5e3e4e40d
0d191310e3e7f0e6eae91e19e3e31d1be6ece21c18e617e31a
e6e5e4e3e3e5e7e3ed1d18f3e6ea1c0be6141ef4e41de41beb
1619ece30de31e1eec19190f10e41e1e18eae519161eee1ee9
ebe8f0e3f31e1deb101de71cf1ebe2ebe4e2e3e31914e31aeb
e7181de916191de7e2e2ec1d17e3e51319181d19e2e3e4e3e2
1c18e9e2e7e2e71d1a19e21ae9e2ebe51ce5e915eeee0b1cf2
1e1b19e81de71be5e3141b1be615e31de9e2e8e9e31a08e4e2
e81deee21de8e3e4e3f01eebe31b1911e7f11ee4e3eae51e10
161e1aebe31eeee6f2e9e618e3e51f1de81ee219101ce5e4eb
1d12e31a1a18e311e6090e1c191e1de2e5e2eae3e610e91714
f5e2e5e5eaee12e6ee191ce419e4e3e21feb0c12ed15e6f2e6
e61c1c1de5e9e91ae218e7e3ec1dec14e3e3e20e19181be81d
131cf7ebe319e819f1191b1e19e91deae3e818e219e214e81c
e4ede610ebe21de31e161c1c19e7e70eef1a1114131de6f6f0
1de21de41e121a0fe5e71d1ae40cf0e61f14e2e81de31912ed
e1e40fee19180ceb150eebe317f2151eea1c1ee1e219ebe4e4
ede7e81d091c1ee41a1d1be3e5ef1c18e6e31fe1f21c1debec
e0e1e5eeeb1f19eee319f1e11d1718e71eecec0c1eebe3e3e2
ef1d1119e319e016eee4191e1b1b1de11de8e618e1e0ed1d1d
f00c11e2e51a1ce3e31c18191be6181a1ae11ce4e21f16e31b
1f1d0ee31a1ce51d1e0de81e201ce3ebe1151b1a1ae5ee1c1b
1519e41ce518e2f2e714e60e1ae3e4ecf0191d1714e3e5e8e8
191d1d19e7ea1d1ce315f01ae6ebe8e2e31de31d1e181ce7e3
1deae51d1e18e51fe3e416e21819e3e4e21b1b0eebe5e3e5e3
e4e21b1aefe5e3e51ee3ebe1e7e21fe5e21d1a1ae71ce5e31a
1deb0c1bea1ee91de3e31816e5e2e7e50fe30ee9e4e31d15e5
1ae31ee8e01e19e41a1ee2e3e9e51e1bfaed1c1de31b10e214
0de4e3e0e117e61d19e41b0a1bf8e4f6e61fe6181f1b1a1dec
171be1151e20181ce61de51ce41ce817e3e9e21ce3e21de416
16181619e61d1bef14181efae3e2e7eb1ce50de6eae417e8e4
1f1d1ee2e31a2019e3f3e622e8e0ea1120eae2161be61de818
0fe0e019e81ef212e21d191ce21ff1e3ef1d1de2e3f018e418
e3e9e7e61e1a1ee7eee61b0c13e61de71d19e3e6141b1feae3
1b100b181c1a1618231fe6e01e1fe4e2e61ae2e10f1513e5e2
e5e8141ef31ae6201420e5191d1b1a1ee51cf2ede1f2e418e4
e4e7de1de7ea19e61f1ee3e3e708151de5ef1dec1be1e91ae0
e51aed191ae40ee314201e13131f1be2ebe0181419e3efe6ee
19e4ea1d1de6e2e4e318151e1edf1de3e4dfedeee71916ef15
edeee71d1a1eec0cebe9e3e51de6ece41ae51be615e50f17e2
1d201e18eee417eb1c1ae2e0f51ce5e414ec0feeefe11d1518
1be3dfe8f31e1c0f21201c0e1b1ce41a1c051ef51b061d1d17
1de51915e9e61918161a1e151d1c1c19e4f5e2e3e8e3e8e31c
181e20e1eaf21323e3e1e3131c0bee1d221be41be21c1aef1a
1f1ceb11f11e16202219f0ee1fe3e5f1e91ceeeae114eb1ee1
e6ea1ee41ae80c2416191bf2e71a1ce5ecf01ce21de719ee11
e4e51c1de2e71b1f191a151e1de6ebe21d1ce71ce5e4e3e6f0
1defdf1c1e1ae619e5e7e8e2e1e5e21b181be4e4e61ae20e1b
e41d2217e51d1be91e111c2422e0e91e1c1d1c15df19e5171f
e6e3f0ea1ce01217200fe61b1de1e220e8e4181d1de61bec21
14e6f8f30e11e41bf0e80b201ee118e3e11aec1edf181d20e5
1de716e2e0131d1f0fdce8e7e12423141f1120e1e3e2dde4e6
e7e4e819e4dce2ea10e4e0ef19eb18f51bf0e4151e1e1ce0ea
1710201bece0dfe81d20e9e70e111715e71c1e1f211b130f1d
1424e5e3e6e80b19111d1ef4e0e9191b1de122eb15f019e8e6
e213e7e315e31be313151ee4e1e4e6e5e31eebe11811161818
170efb170ae9181e0f1f1920220aefe71c1b161de81eeb161d
15201e1ee0e3e31ce1ea200b1d1fe61de9dfe2f0ee15ddeb1c
e41bf41d121a1be31debe4e31de2ec17e81d1416e9e7eee5f1
e7e3dae0151c1a13e7e0e3e3e519e31ae3e721141d1f19e3f1
dfe3e4f7eb1c1a1fe6e7e325191f1f1c231f14f1f01deae7e4
dde215e00f1d1f05e01beb22251fe7e2e1f41d1de3e51ce81f
e11d19e1ea18e71c19fbf2f2e6e11d1c22e8e4f0191de4e81f
1ce2e21a1ce613191de31aec1d1d1d1cf0e3e1e51ee3e7ebe3
1ee412141e1b141ce4e31e1c161a141ee71ef1e4e41d1de4e7
f118ebe618e313e41de3e11fe7e6e414e3e6e41e1420e21d12
14e21cebea1b1c0ee4e31d0f10e2e618e9e5e2e51ee717e21a
17e3141deee7ebe41de4ee121b1d1c1c0a1fe2e4e61ee41de9
13f0e3eee31b1e1ee3e4e1e115eb1d16e2171d201a17ebeb0e
1e1ce21e1e151ee7e615e11df2e30de71be71b1c0ee4e2eae6
1c1beaf0e41cece2e7f11f1814e61615191de3e51ee31e1e1c
e21d16e2e415e21d19e2eb06101c10eae615e7e8e7eb1ae7e6
1b1b11e4e51b19ea0d0be719e2ea191c161f19e7e4e5eff41e
1ee41f1de3ef1910e6eb1ae31de3e3f3ef1f161ee8e5ebe3e6
e71bed1cf0f315e41e1ce7ebe2e41de31ee6e71a141ce21de7
e3eaeaec1f1ee11a18f117efe21ee7e60f1a1fe319e81de310
1ee71de4ebee0e1ce5e30f12e1e4e3e3e2f1f7e51e1620e41d
1ce9e6101c1d15e315ece31b1ce3e814151ee21d1c1d15ed13
e7e5e6e4e51ce71beae7e2e8e21a11e418e21ae30dea19e11b
e2eae7ec1c1d1d1d1917ece9e40c11e6e1de1b191de5e41e18
e1e41de2e7e2ea1fe0e8e5ef1d0f1ef01b1ef0e3e606efe3e6
