18e6e0e5d721181a04eb1e262e2019ee161c2a23dddadfe2f3
13251bd6e61e3119d3d1123110f1de221b2913ef11061e1717
dbddedeb2213f0f32520f4252c2bf21b1f1ce8e2231211e8f0
0e191ce515e5e70f0c20e6e31c121f09e71818e7eb1513efed
1e192418e2e52f241bf21b3432f30a212f2af8eee81927fe20
e6def12024f01d31312422262714e8ed08f21c13eb080d1a1a
f0f00ef4f206f9faecfcf0f3eceff2f4f2f6111208f3ee0ff7
f1e9fcf910e6e90efef4e8ed1816e7f20b1bf1f9ea120f09fe
f3f5080df9f9ef150f0b0df3f808ed0ef1eef7eff3100d0ff3
ee1206f407ed1010edeef80ef8eefaeef4f00e11f5070a05f3
fa07100e0e05ef1d0de6f8f31fedeff00d1bedf0e7090bf6f6
09150defebec1708f4f1ef1911ecedf010f1eaf5f10ff1f2f4
f0130c13fff2f10d17f20411120dfbf9f2f10d07f510f2fb0f
f40ef0f6f9f0f6110ef3f4ee12f6f7f6f0e8ea10f9f2ef0f0d
16090b05f0f010060af20306f9f0f207f40e1b14f11d1f12f0
f010f8f10c0e0f04f2fb130cf1140c0f0a1917f21512f5f2ed
ecef06eff10a0df70cf7f710ebe8ec0deff90814edf41406e9
f406fb0bee0e020e0fed16f211f1fcf604e9f518fe1a1b1d07
efef13f304ed0d15130df2f30d110ef60f09151bf10c05ec0d
f009131aedef11162018f50aea1c1f0ceee60d13edeeeaedf4
f8ec07f4ef0beb0306ebeeeceaf0e8f007f1f1eb100d08faf3
0b0c09f6ef0d05f31009eef2fbf706ee0ef81507f30cf0f608
0ef4f8f6e7f3f1f91cffeeecf31a1cf2e8e402160c07f6ef0e
0afa14f7e7f30d1415ea09f80e0e0604ecf31509ff0dfbf3e9
f506f1110ff6f60b0e12131b20190ef2191d2320f611fc1617
eef6edf90b08fde9eff1f41719190fe70ef10d0605ebeaeaf3
f4140b0eed11f5ee0eec09ebedecfcf3f0110e10f1f312f0f9
10f1f60bee07f0f1ed05f2f1f1eae9100c1510eef3041107f7
fc0806f3070310ebede9f20e0ff9f7f00cfa1819f1f0f1ec0e
0df1f213100ff108efe7f00b0fe9ed0b151712170b0df0f606
100df7f9f4ee02ebf80becefeaf7eef4e8f9faedf6f5f4f3f5
f9ebf1f308e7e4fb12f6eaf51517f9f11316ebf10b1915f204
fa07e8030eec0e1a180d0f201df2f71a0df7eeedf7eae7f207
0df5ee10f20df51111f9060604f8edf9f6ee0ceef8ebf5f20a
ebe5e8f519ebe7191a19e90e1b11e40b1b06e5e9f008e9ecf3
eaf70c06ecf707131c130d1b1cf3e6101df0e8e60cf1e907eb
ecede705f213191c19181d1f1d1a140ff00df2e50f130709f2
e8f00ceff5100e1111f310110f1302eaede7eaf2edf704e6f1
11100aeffaebeef21b1bfc091c1515f1eff2f3ecf5f2101911
08ff0deffdf10cedf3fc1214f2f11005eff50df8edeef1fa09
f3eaefe5f1191c181616140d1911f2edede3e5e8f6efe6f0f4
f01009f6eef611f6100a180e2221190805f5f1e7e5f3ea0505
131010190e11fb1a1516f3ebeb0d1b15eff1e8ec0b18080910
0a14181905eaeef81a18fbe6e40706f2efe8eaf114f406ef06
0710140df00ceff4fd17ebe6f0f7100e0f0ef8f8f610f60d14
12ed0dedf6140f050fed0c110d1007edf0f8eff20cf1eff3f2
0f0a110ced060f04111ce7e3e3ea0ef4f2e8e8e619190eece8
0d12170d0c0e14151419f2e8ee0318f6e8ecf707161307f6ed
f60af2f212fcebf307050cedf3e8f5eeedf3f4eff1f1eff00f
0f110e15f0f1fa10f0eef010eee6e71110e7e711090aed1319
f7091609090d0ff50cf31b17ebf2100c0b060c11eeef150af8
050d080cfe130ffbf90f0d0df20718eaf4100909f7080e0a05
f4151715f5f01318f1ed0d12eee1f00aefeff019e9e9050c0d
0cf50fee10100eedf1ef16f1e8e7f6fdedec0e1bf0ef0b1c0d
ed110c08070ff31012f5121012f7f1f6f0fd12131104020f0f
f4f40efaf0f51014f4f6faf611ef0df0f1f303f9f3f0f0f0f1
11f3f00f0b12f1eef0f10b0e0eee09f10309070df80e08120a
f30f0312f812f20df00e070deeed0df20bf2f6040d0ef9f7ff
0bef01ee05081113eef20d05f3f0f2060af20ef0faeded04f6
0d0fedf9f5f4f3f40b0211050d03f3faecfaf4f6f1f4f00706
f4100e0cf40bf1111a131716f9f20c0efd14070e02131e1a1a
f5eef111110603060f1310f3efe6faeff71912e70cf8120f0e
08110ff4f3f90806ec03f8f10df0e7f0f5ed0d18f3f2131917
fd06f20715fbee111413fc0303f5fd110610f0fa08fa1813f0
0d0cf20912f2f1e708070d0cebe0e7f50c0ff0ebfd03141c17
ec080ef107f702e710030904ece8eef10308f2e90710071810
0aeaeaf5ee060ceff40bf1f2061606fef00c100a0a0ef70904
0bfe0bf912f7e8060bf7fbefeaf5f0eeeded0feef11507f208
12f00512f8f8060cedef09fa0d17180d1b0c14110dfdfaeaee
0ef2050ef2faed0eecfdebf011f30808160d0ff3f90f0706f0
f2f1e9190cf3e707f3e8e8f3fa1414fc111807fe100e0bf4f0
f0e60f12eaeaf311f6eb04ec0ffa14fe121c1619150e12eef8
f509f806f40b0ced10eff40a1009f207f10c0306f00d12f10b
f30313edf50e0ff3f005f206f0f611f0f2ef0e11f10d0def0b
11ff0ef9f911eeed070507f110f1f3efed08f40e120a11f10e
0ff4faf206eef1eff805eff30e0207f3f5ee12060d0e11f10a
f211f307ef121009ed0df6ec0d03f3ef06f3eff9ef0bf0f5ee
07f90df50f1405f2eef0f6ef0cf4fafdee10f4effaee06f1f8
eaf30812fdf3e5ea0d0ceef80106f8ee0d11f5f6f60df9f6f0
eb11f6edecf81e14fb010e23f1e814091ef2f1f9f6190ff916
ef0ef3fb15f713e7f7f808e8f2ef05f2ea0dffefecedeffc07
160df2120c10100ff2f009eef40feef4f0f10e111308f013f3
ed180af4ed0318f7e7081920e5e91312120cec11f814fa0af9
12fa02ee101bfaeeeef013eaecf4f317f3eef8f20c080df107
f1e7efeef8e7f1eb09f3edee0ff90eef0f190e0b0f0d0df5ee
efef120f09e9ec200308ee1815f016fb1d1410120808fb150a
09181af9effd120cf0170713e7ee0d04e8ed0ef4eef3f10deb
f0121508f20b0cf5fc0e0cf3f3f5ee0f0e120bf1f00ff610f2
e5e8180cf3eb1a1a07efef1bf312faf10efd10ef0b07f9f2f9
e7ee12f0fd120ff4ed08160feef4f214f1e9f303fcf9f7f3ee
f5effaf0f00df0f5f911110ff2f0f4f3151c1a08f915110f19
f9f0f4f00ffa0e07e9f10d1612f3f9f315140a19fc16f2121a
0ff9eff0f10cedee080feef4f10ef811f81103ea0df2fb09f0
ee0106f9130bf1fcfcf40fedf40fed0a140bf0f6f00c131508
f4ececf4f20d0ce7e8ec0b1003e6e80f1a11160e0d15140c0e
eceff10eed0eebf0f612efeaecf5f012f6f010f21511130ff0
ed0605ee15f5f110100bf0f5ee0f0ff3eb11f5f80bee0815f8
f5100f0df4eff30b01eb13e919180f0fea1a120cf8ec190b13
08f1f3eef3edf90d1408f0effd0cf0e6f7f1f2f2e9eaeceaf3
0ff211f00af5f20d11f70d06060d130c10f1f908ef0e05f0f5
f00c08f3f907ec1bf5e9ffe81e12eeeee81910ffebed0e11f8
f206fc07f0ee0503ef0feb0c070ff0e91314eb11eafa0cf80f
f4080cf2f80df40efb050ff40ff00a070f07f0090cf7f10208
090a0404fa09070c06060e0cf3090ff90af4040df40309fdf8
0df9f60c07f80df60d0e0a0f07f6f50c0f0903f8f4ff0df109
0bf9f9f8f305f70c07f4f20e100f09f8070d05fd080cf7080d
f6f207f90ff9f30e09080df40df308f612fc06f303eafc0d0f
0bf60609f307f1060ff9fc07090cf4f9ed05f307faf006fa0e
fa0bf2030dfcf7f30d0c010df7f5070ef0f204090907f2f80a
080d0f0cf7f4f9f801fc020df609f104f20cf1fa08ff080df8
f40cf20efa06fdf9f808fa060dfdf3f30c0705f6f30ef2f809
0ffef40a06fdf611090c080e060cf7eff306f40c06fd0d0cf5
0d0c0ff50d05fd05f702f4f807f30bf206f1fc0bf2f3f4f6f3
0ef30af3f8f3f2f5ff0b09090dfc0ef2f6f3f3f4f20e020bfa
0802f4080cfb0e0d0ff1f80c1111f3f5120df8030b100efc07
040ff60bf506100504050d0ef30ffe09080ef1f7f81006f50a
10f40f0e06f90c0d04fdf2f60c0e0809f608f3fa0807fff2f0
07f5fdf8f20dfcf3f1f3f8040dfdf1f3fb1102f2f8f308f8f9
0df606f60af4f90cf40406f5f40604060cf103f20d10f2f20f
0e0af40d080f0cf303f40cf40df3f4f60605fd0af3f5f7fafa
070cfd06fefbf708f80f0bf2f8f701f201f0f20f070dfa04fa
090dfdf80f06f2fa060c0f0ef2030ff40c06040e05f9fb0bf8
0bf3f6080c0c0e0e0710f6080ef20e100cf8f90cf80d07050d
f0f10af4f1f40dfa0a0bfa08f6eef40d0b090707fe0e03f90c
f2fbfcf2f2f2f40e07f2f3080df8f8f50ef7fbfc0b06fb070d
f305f60e09fc0bf90e070c05fcf3f90e0c02f60d06f3f9fbf8
f708f409f30d0d0ef1f6f9f209f6fb0af307f70c0efaf40bf4
0e0e0df70d0ff7f0f40b0df410f808f6f9fb06f3f40afcf50e
f1f8100c08f804f8f70c0ef805f4080e0bf20e0f020cf20bf1
0af3f8fcfafbf3f30c0605fa0707f904020ef3f4f609f4f4f5
fbf2080d0df2ff0e060d090511090efc0e0ff10af70cf9f6f6
f3f10bf70ff70e09f60d050c0eef0e0f08080ff80ffafc09f9
f2f507fa0a0ffefaeef20e0c05f2f30bf607f3f8fbfd05f508
050e09f5080ef3030af90ff7f2f7f8f20b0df2f80bfb0ff4f8
f4040f05f30ef70b0c0610f4f3ee0af9fdf3040ff80cf40704
f2f703f20cf7f90df7f6fc020f0c070b09f30c03ff070b0d0e
f4f40afb07f2f3f307f10a06f70a0d110909fd0cf90b0e07f5
08eff70df6f70b0b0c09f3f6130d0b010ff5f4f3f00cfbf4f8
05fdf4120bf50bfc04f7f207f30ef0f3f1f3f1f0f8faf50502
01090d10f9f2f8f60d0ef006080dfd0af40e1102f6041107fc
04f3f5f60cefeefcf9f906f0f60bf7f806f6fe0b0a0ef8f8f2
0efd1111f80d06120f090407f9f4f5f2fbf10c0ff1f0f5f508
07fb07faf2f5f2f5f50df8f9f3f806070d07fb0df5fb0509f8
0408f8f6f2f2f30afa0208f40f05fa0d0df708fbf20c0d0df3
f809f30e060a0b0d0dfa0ef80df3f40d0609f3f00bf209f30e
03f40e0df5f5f8ff0cf40a0d08f60ef705f308f208f3f1f90d
0af90c04f6f2070bf80df905f40808070af7020af908090f11
f3030c0f080c060d0c050e14080f100a0c0ef3f903f3f6f8f7
fa03f5f4f30b0cf4f907f1f2f9120c070a08fc0ef8f20af406
09f1f6fc0209fdf8f307f9fa100d0a0df904f3f60a0ef10bf8
0d02f60ff4f4f0090df4f2fe0d06f207f2f8f3f30bf1fbfc0e
0909fdf4f90d1009fbf7f80911f50f0bf30df409f4f90d0cf9
050ef606f2f710f7f2f10d0ef4f60bf30bfafaff0cf1f4f2f6
f708faf4f103f9f70bf1030c0810060cf2f5f70a0305f9f104
fdf7f4f1f9fbec070c100604110e0af5fa0a09f2f7f3f20e0d
0b120b0dfb0b0efbf3f703060f1411f4020c0df2f30af90ef7
0e0afcf30907f90f0907f90b07040df8070d0af8050907f503
f706f5f80ff8f40cfb0f10fef7080c0f05050e0af2f8050bf8
f2f5050bf20a030ef6f808f20df708f40d0706f6f303f4050e
0bfdf303f1f90d12f7f9050dfbf80df90ff7fc06fbf6f3f20d
0af7f5f3f10df3f40f100c0c06f2fa0e0df5f1fb0f060dfe0a
f4030df30e0d0df70c06f40ef20e080c09f208f3f7f9f4030e
0bf40e0d0c05f1f20b0ef30302100b0e03f9f3f00302fdef11
f6f70f060bfc0df4f80bfbf106110df3f51206f9f90809f00f
0d0509f00703f309fb0ff608fd0c0e0d05f106040906f2f4f4
f3f5fa090af2f707f3fbfbf20feff307090705f2f30df1f809
0d0bf8070af4f3060df9090d0a0cf80cf30709f90ef3f50df9
05080f06f8f8f7f40afbf4f7f907f40ef20efd0909f3f205f9
f4f6f50af3f4070af9f20a0cf60df60d09f207f5f905f40a0d
f709f309f703f6f4f9f2f7f50df4fbf7f206f309f7090d0d0e
f9f201f304f2fa0f04010ef6f30d0c01f40908f4f7050cfd0e
0e04f3f7f9fdf3f1f8f407f3f80802050df30202f106f2f8f6
f20b0b05f40cf5f3f407f3f6f1f6f1f5f3f40df6f40f06f2f3
04f70bf3f20c0609f8f40df80dfbfdf9f6090af7f50e0205f4
0d0d070e0c0df6f7faf60bf5080bfa0ef60a0df4fe0df3f5f2
0c0bfe05f30bf50af3f30c07f5f3f20cf6060bf8f7f504fb02
06f30e06f2f7040f0ff7f40f0f0bf2060806f404f70cf40e08
07f6fd07f3050b090df6f2f7f50b08f2f3f2090704f80e0df2
f407f1070af30cf2f501f706f40df5f8090a0d0406f3fa06f3
f506f20ef7f70afd060e0d0df40f0c09faf4f404f3f20ef8f3
f104f4fdf6f70b0d090506f2f709f30bf4f1070e0ef4f20cf3
0c0d030cf30d0c0e050cf506070609090ef209f4070df4f7f4
0df8fe0cf9f2f3f6130a01f7f50cf2f005080705f8f0fa0ffb
f707f4f5f2fa0d0b05fa0d0d0d0f080909f4f90e0ff80b0ff3
fb1208070805100cedf8fa06f505f109080d0af70f0708f205
09f1f0f3f40d05eff5fa0910101011f905fc06090df9f80704
f9eff40507f9eef20b0cf2f4f7f0070bf309faf4f9f9ff130c
0e0f0f05f81205fbfaf40e100cf9f6fc0d070a0bfc0c030d0d
100c0cf20c0e0ef8f706040e0c0a0df3f90f0af3f10ff80ef2
06f0f70d0ff5f8f7050d0f020df3f8f80106090c0f0c040c10
0d0cf7fff60bf9f2f7f3060d06f7f8f3090bf40d08f20c01f7
0df7f507f810f9f902f7120f100bfa0a06f5ff04f606f00af4
0dfdeef3f00cf7f9030e0d0c0505f10afc0d0efcf60b09faf6
f20a09080bf50e0a08f9f20707070af60e04f2f5070cf6f604
f2f6f711f6fcf9fc0ff4faf2f30d04f202f0f30907f008030c
0d080904f90607effb06f2ee0e0f0dfef2f2f304f707080a13
0a0207f3f40408f9f1ee0d0b0c0ffaf504f2061110fcef08f1
0cf4fa0e08f302f2f7f2f2f2f5fdf30ef6fc0c05f3fdf9f7ff
f307f40ef6f4f6f306f4f8f9f8f6f7f3fd09ff0cf4f60b0812
050c0e08f80708f90d0404040e11f1f30d020b0f0f0cf90d03
faf50df1f90ff309f3fd10120f0cf60f0dfa080af3f1effcf7
04f2100df6f7f70b0f0e1007120efa0b0df5f1050df8f2080e
08f3f911faf506f2120c0bf5fa09f3f3f1fb0c080e0bf70b10
0df7f20310f4f0f00810f10c15120bfa15070ef90cf0f0f9f8
f3eff20d0ff1f707070ff30efbf40d1311050cf1f40ef8fcf2
f3f30df8f7f70efe0df3f2f2fc05f6050805faf3060cf709f7
07f30d0ef306f1080efb0bf7f508f4f70d090cfd0e0d0b0bf3
f2f6f9100df20e0b02f50510040bfefa06f3f2f2f7fc0af106
0b08030cf10d0d0d0ef8eff7f6f4f10a07f5fcfbfb0609f60f
f7f70ef4f904f20d0df2fa040b09fb0ef901f3f5f8f2fa04f4
f20ef3f5f8f4faf4070a0b1210f60e0bfa0c070606f2060c06
05f60c0cf4100911f80d0e0e050c08fc09f2f11306f70c100f
f4faf9010df6ee090d0cf10df20e0df2f402f4f60df50c0609
05f302f2f8f30305f7f70af8f6f40e06f1f007fb06f40805f9
041212f6090ffe070cfc080d07f20a0f0ff2fa0a0df70904fc
f2f406f90cf6f4f9fb070cf4fa0bfa0e100e090af2f209f3fe
f6fb06030507f8f90ff7f8f1f8090c090b07f3ff0307f4fe0e
f1ee09f3080bf108040ff4f8fb100c0efd0df20af3fb05f307
fb0d0407080f0509f6ef05f2faf6f5f3f20c0d0d0dfe0c08f3
0a06f9f10e0df6fe0bf3ecf2f2f0f0f2070a080efbf813160f
f3f6f40ef805f30407f4f2f1f6f5f2fdeff6f80a13030d0e0f
f4f80d07f40bf9f5f7f30ff5f206fc0b090b0e0ef2f405080d
08f207030af60df40c0ef3f40cf3faf50b0e0e0e0bf2030e0b
f1fd08f5f2f2f1f407fbf3f60ef70e0a0f0e06f50df1f10bf5
03efeff30202fa0c0ef60c080e03f80f030cf30e0bf2efee06
f2090efb0af308fb0b0ef3faf5080dfa0d0cfb0b0d03f30bf3
04f81308f60df60f0d0cf4080b07f70e0ef8f30b0df4f5f8f8
f609f709f604f90711f6f7100df6010e0a0808fc07f306f3f5
f6f3f8fcfbf10c1012f60d0c040f100bf40a08f1f9f906eef3
0d0b0afdf60df6fdf6f9f30b06fa08070e0cf2f80d07f404fa
fb0b0bf205fd080a09f009fdf70109f7f90d110f0cf508f5f9
080c050a0905f704f307f3f30c10f80d0cf2f9090bf2f10b0e
f509faf3080ff5f70afd0dfcfa0d0708f90d05f20907f90e0b
0af50bf3f3fdf40e0d050e08f60cf5050b0afc020bf3fbf309
070b040df907f505f9f808eff1f4f1eff0faf70607f6f6f4f9
060ef10cf304f1f4f50df01015f6050f05f90af30dfa07fc07
f3f2fe0304f40d0d0af5f7070bfefa0d0e0d09f2fd06f8f7f2
0d0e07f3fa060e080803f3edef0303fa070cf303f90df1f807
f9f50df5f5fc0af40df20df3fdf4f20e09f2f2fb0c0a0304f3
07f3f3f5f8f0f40d08f40e12f7fa06040d0a0c0a08f80a080b
0c090906f309f60704f0ee09f0f10af90df10af901070ff4f8
0c09f30c0df6f8f3f4f7f9fe0c0e050b0b06f60906f3f8f507
f506f706050b0efc10f60c080910f005f0f10bfdf5f0f1100c
faf00913f808f40e0df20605f0f4f30ceef7f5f9f9f3f207f8
070df9f209f1fcf30a020bf5f1fd0ef8faf712f208100d0ffb
0df40b06090f1010f006f408f8f805faf3f010090c080ef607
0f09f80bf4f4f303f30af7eff3fa0afff3fa0bf50709f2f208
f2f90d04090ff9070af40bf9f3f309f308fdf9f208f309f8f3
0e0ef6f9f5f304f30ff3f0f9fbfbf30ff2110e0409f30b11f3
09f30607f8f8f804f2f5f41106fa0d0b0d0b10f601fcf00e09
0c0c0af60cf9f30df7f70f0af6f6fb0e0e0ef3fafa0c09f301
0e0b03f90e01f403f3f30d0bf5f8fafb02111209f10ef2f8f9
fb0e0ff60cf6f30a040603f2f7fdf7f90a0807f9f60ffa0b12
f3ff0f0b0b08f80d0dfbf7f6f9f2f1f1060707f7f307fbf40b
f706f6fd01f40afaf30cf60ef90ef3f80efcf709f40bf60c0d
0cf7f6f808f40e11f60e0d07091009f40df1f7f30b0c0df108
f2f2f1f1f50b07f6faf30510f80ef60605fa0d09f6f1f1090a
0cf9f40ef2090b090d04f3fb04fa090af6f9f9f6f3f7fdf3f3
0e0ef5f40e08f2fcf608f3f5f3f80df90bfcf60a03f6f8edf4
080df7f2f5f5fbf710f7f8f30d0df20a0c08f40708f3edf4f1
faf1f8fafa030c0408101008120f0df7f3080af308f6f8fc0a
06f7f8080e070d0bf9fcfa0a010d0c0c0cf609f5f40ef10c0a
fafd07f6f00b060e0e0a0a0312f7fb03100d020d0cf41103f2
0a0b04f1fa0a07ef09fcfbf0070c0b0706eeee0b0bf1ef0bf4
09fd09f508f40ef8f10805f1f90fff0610080bf3f0f6f7060a
f10e100b0a10f9f5f20d0cf7f407f7edf607ee0d05f0f4f70c
f208f00ef6f1f10b07f1f20ffdf2ef10f4090ef6f5f90ef9f9
f6f7fdedf908fa0d07010af80bf5ef08151213f8fae9f0f1fd
f4f3f304fd0c0dfbfa0bfbf4f4070ef80ff9f7f4f3faf20409
0807f5f106f60e0c0b0d0904f4fbf7ef080df3fe0f110df808
f3f607f60c0af7f2f3040407f30af206fdf6f9fcf9f7f3f307
09f60504f6060606fcf4f407f8f7fa0afcf0faf5f4f8f802f3
f8ef09f4f507fc010b090c08fc090df4f7f50cf608f2040e07
f80d07f70ef20bf30df3f80d07f2f1f30cf3fef40d0cf8f6f4
f7fb0408ed08f3f8070b08090afcf305110d06f808f50c150c
0afaf6eff5fbf7f40e07f2f317f9020ef6f90bf4f3fefa0cf3
f1070d0ff90df50f100502f8f60ffc06eef4eeea0ff7f5f304
f4f80607f305f01211080cf609f70ff308fbf9f80df40e10fb
fc060f05fdf3f108f3f80cf610f30af50ff7f30c0af3f60e09
f20706f2fff507090af4fff1fafef7030c0df7f40c02f1f509
0c0c0c0e040a13120df3f1f90efcfc05f410f30c0d0b0e0f07
0b07090108f20d040c0af8f0f50b0af4f2f30c0b0efe0a09f9
f3fcf70a090c09fcfa09f30d0ff804f30ef9f2f4f804f7f80b
faf405f4f7f4f403f8f0f3070a08fdf1f80cf40407f50c0a0d
0f070f07f4f907faeef3f00ef7f8f3f60908f1f3f306f8fa0d
f4f60c0d0c0ef8f90f0cf5f30d0ef2f40cf4050603050b08f8
f7f60a090b08f409f9f70c02040af308f60c0dfef4fbf5090a
08f3fbfb08fcfdf6f9f40af2f80df10af40df30d0df2f20af8
0cf804f9f4fc0d08f3f1fc0c09f0fbf3fb0df405fd0907f90d
f6f5fa0af50df90a0df20df90c08f9f5060b0c0d0df20e06f3
f30e0912f0f207f813080e01fb0af2f70efaf8f5f3fcf810f4
f70e11f9ee060a11f4eff4f110f3f50d08f5fd0c03fa0ff2f4
030f08faedf108010dfb08f00101f4f9f3fb0cf2f5f5f6f90e
070cf6f6f30bf2f8fb0707f90a0807f70c090d08f5f8f8fd06
fc0e0f07fcf410f9ef06090d07f20a0d090bf30af6f7040b0d
0704fa0604f10e0b07f70d09fc0b070502080bf8f70e0f0307
fa0feffd0b0b0deff2f209fbf60c09f20d0f0c0af2f0f5f2f5
0612f10c0bfd030e0cf3f00dfb100df8fa01120a08f5f8f209
f20c100af90af80af2f206f20af00308f406f20708f809020b
f90c0e060d0604120b0908f30d07f70ef50f0c0d07f509f702
f7f30ef30d01f90df90f0f0ffbf407f90807f70ef3f5090ff6
05f309f9f506f30f06fb09f40df7f109f404f2f208f60e0e0c
fbf8f7060d0c080df3020efafa04f80ef2f4f9fcf50dfe0ef4
faf70bfff2f0090d0e08f4f7f5090f0e06f40a0e0b0df5f4f5
04fb0cf8fafd05f2f008fbf5f1f7f1fa0b070d0ffaf8f60c03
0efa020a08f90bf5f30dfafcf9f7f40808f30ef5f208f9f3f4
f3fcf905f00e0e110a030df110f7f304060cf80efa05f4f40e
0cf809f6f40a0a05f5f10bf2f1f4f3fbf707fb0d0606f40e09
f80b0c07eff40bfb0a05f6f00c111210090710fc0a040ef9f3
0afa0cfdf7f6fdf80af40df3f4100cf1f40ef6fe06fcf905f7
0cfe0e0d060b07060cf40e06f30c0bf8f7f20df6f4f6f8f9f2
f6f9f206fa06f8f5090d0af7f8f407f307fbfaf8f3f30cf7f9
f302f4fff2060ef30bf40bf30c0c0e070af40e050c0cf30f05
07f409f8f7fc0a09070c0efc0b09f7f206f9f5f4f2f3f8040c
080cf9fc0e0a0cf80df701f5f20d0c0903f2f3fe0af8f3fd0a
f90cf7f407f207040df4f7f407f3f4fb1002fef2f2fdf80bf7
03fef4fff50807f4f3f3080cf6f8f2f40b080f0cf4090f05f9
03f90bf4f5faf90cf4f2fdfafa0cf3f5f9f80d0df7fbfef20e
0ef80ef6f20d0af9f40cf5f3f8f6f6030cf20709fb0b0cf3fa
0b0b090e0af7f4f2f70bfb0b0af60df3f209090ef2fe0c0cf5
f5f8f407f3f20df4fbf4f505faf9f208f2f8f5f80ef905f306
fef3f209f4f7090a0cf6f50d0ef20c0703fafaf3f4f5f3f60e
fdfc0a0dfcf4f8f50c09f8f606f9f40cf2faf20df20a0cf605
fbf7fbfaf3f2f30e06f60af5f4f2060a0a0ef8fe0a090cfa0a
08f30a0cf90b060ffef9f2f3070dfafaf60cf80c09f5f3070a
f50d0af908f20e090cf6fb0cf7f5f3f907f9f30e07f5f8f209
f2f7f3f3f9090e0b05fb08fdf3f307f6f30cfcf3f90ef30f06
f2f7070cfb0d0b0c03faf3f2f4f4060dfaf9f80d0cf20bf9f4
080b0e030a030cf4f20906090bf7f3f802f4040cfa060a0efc
f903f70d06f3f4f606fc0c0efdfb0dfa0af3fe0bf2f3f7f30e
0307f1f3f9f9f2060af3f406fbf50dfc0cf3faf3fd0c08f207
f3f40a0a0a0503f5f2f7f50f09070a0c060bf30e0e0a060707
08fc03f3fa06f2f6fd0d0e0e07f3f408090bf1f5f40df2f60c
faf3f3050d0c08f507f3f4f60bf6f30bfb050bfd080df90d06
03f30d060b050b0d0404f2f9f40d07f3f9f80d0b090df409f5
fbf9090f0ef70ef8faf6f3f9fbf208fb06f204f8f304f2f2f9
0df9fb070f0efb05f3f80df2f30af2f7f3f2f807f6f5f8f60e
06f2f20e06f80efa04f2f2f2080cf50a0e0703f9060d0cf209
f50df3f20cf8fcf902f906f60c09f6f904fa0efa0af4fcf5fa
08f80dfa0bfbf308f90cf7f40ef2060ff4f10d030d07fd0af1
09f6f509060ef6f20406f6f80d0cf4f8f8f5fa06f5f9f20cfa
f40e090c0d08f6f2f7f9fb0cf20a0b06f80bf4fc09060408f3
0af1080af4f8fa0e1209f60ef110090c0dfb090af60ffe0ef3
0bf7ef0a0b0905f5f00a0f07f4f4f90cf6f7f7f20b07f20d02
f4070b03f40f0e0ef7f9f10cf8f6f4f2eff9f4f40c06f302f4
0c050afa07100cee05f10df50bf9070a10f90df606f0f1090d
f8eef1080d02eefafa0f09f5f5f0f40afef901080f06070af4
ff080d0bf4fa0f0efe101214f307f0080c080d0ff905fb0706
f60ff40cf1f6071201f7100d0f0ef8f9f20ef40ef90dfd0d0e
f1f1f1f207f3f70df2f40ef4f3f1fef5050ffd080ff60e0807
f20df30df2050dfaf2f50d010d050cf90d040d050d0ef20907
040e0ff50a0f0bf20a070ff5030ef50bf6f90708f5f0fbfdf3
f7f1fa08fcfb06f303fa0df9fbf2f70cf9f604fa0a07f80bf3
f3f9f70407f3f6f7f30803fcf70ef3f5f309f403f6f3f3f606
f5faf9fbf5f4f90efa0c0af50cf112fa0bf3f2f703f90a11f8
070efcf2f9f2f3f80c06f2f8f6f5fbf5090714f70df6f50d0a
0e0df40b0a08f406f3f007f9030b111107080f0e080af1fafa
0cf7f50a01f8eff7100df9050cf6030f0df307f2fc0a07fcf0
04f3fef20ef2fafe0f0ffa0af90c0cf6fef90709f2f0f2f30b
09f1050df80af9fdf2f605f3f606f30b060c09f8f3f3faf807
f4f308fe0b0707f30907f5080bf9fef80ffa08f4f20e110ef5
0ef2f7060ef20e0304060f0a05f3f70df9050bf20b0c0d0af4
0d0903eff9f2f00af30dfe0d100ef80bf708f3f5f8f3070af2
0cfbfc0d06030a0cf9fc0cf1f20b06fef9f8f3f004050afaf3
0af40c0dfd0ef4060d0f0e09f40afaf204f80cf20b0ef8f9f2
fcfef40cf6f803f3f8f60209f40c090efef3f7faf905f8f408
0efb08f4f4f2f60b0e0e05f6fd090bf9faf30804f40406f40e
f50d06f5fb07030df2f307f60af309fa0d10f80e05100c0df9
07f5f706f80ef30ff7080cf1f30df20b0cf4f1f1f7fa0df2f3
06f80d0e07090e060c0ef20c0aff090df8f3030d0af9fa07fb
070a09f2f4f90df6f002f7fbf1fb0ef40df2110906f0f40107
0f1008f2120bf3f3f2fafbf9f206060606040ef308f50909f3
0cf3fbf90ef8090cfb0d0e0e0ef6fa080d090c10f8f4f30d10
fcf80c080cf6f107f404fc0e0c0b02fdf20af2fafcf2fef40a
f31010fd0b08f40e0b060c0d08030dfaf1f006f40bf20cf9f7
08f90d0c0df50df9f5f8f20cf4f5fdf2f30ef5f2f311fa08f4
f2f70ef90cf90d020605f5fc0f0e0e0f070ef60d0ff4f8ef08
fbf30afa0ceff9080ff4f4f1f30ef7f40c07f6f20d0df4f407
09f30e0dfaf3faf21006fdf0fb02fdf4ed0309f6faf3110d0e
fbf8ef0a06f107f1ef09f4f6f5f20c07ef0cf3f9100a0ef4f8
0dfb10030bfaeff4f60ff308020e0efaf9fd0ef40d05030309
f906080e0ff90e0df2f3fbf5f5fa08f3f0f60c1208fefc1211
0a07f203f30e0cfe0cf3f2f50b0bfafc0906090ef6f20a100d
f6f5f4f2f5f9f807fcf408fb0108fd0e120bfa030d0df208f2
06f3040af90cf5f81011f50cf7fcf203faf2ee09f90a0a0f08
f20c0d0bf6f70bfaf2fefcfe03f1f2f6f3f7f207f5f3f70e0f
040ff90d0e080bfc040b0e0b0706f6f9f50206110204f2f310
fcf4f7090efef40e0402f208120d09090b10edf8f20e0dfc04
f702faf407f908030c08f40609f00205060af3f2fb0f0cf1f1
04f303060d0cf6f4fc02f90d0202070f04f50df9f3f807f0fc
f1f305fcf8f1f30c100df1f7060f070b0df6f7f3070f07f302
0d0e0bf1f4f20f070efa05fbfc080e0ef2fef6050ff209f7f1
0c070413f5f30c15120feff309f7fcf6f709f3f60dff0f120d
0efcfaf70e060bf1f1f001f8f90df8fbf80a16f6fbfa1112fe
08f00df2fbf7f2f3fa0f0c110b0e1210140df90bf50ff70cef
0e1001f4ef15fdf4e7f20b0cf707100ceff915fb0cf7080f09
06fd0402fa11160c08f5fe110beaeef40f13f415f2eef10d0f
0cf3f0f3f303f70f0c0cf90e0d0afe0cf30cf6fdf5f3f4edf3
0d0807f4f40bf608f10cf2f2f70df4fc0d0cf4f704f2f40c0e
0cf80c05030f0af409f30bf106fa08f3eff90d0def08ee0dfc
03fb05f805f2f30d070df6f106101106fc0df30df9fcf9f3fd
0ef207f2050c08f5f70809f40df8040b0df3f409fd0af9fc0a
0d080e1609f3f307150708e6eb12f4fdf70e15f5f9120ff0f6
0f0c0bfa0a0df9fc0e10f2e80d18f2f206070ff0f81513f1fb
120401120809efeefaeff4f9f711ef0c08f6060b0ef00c1010
09f9f40910f1f90209fdf0f1f3f8fb080c0ef1f2fcf60ffa0d
020bf30ef50908f40df1ff08f407f50a1006f9f10d08f90eef
feff0af3f5f0faed07080e10f3fcfaf306f6f0f8fafcfafafd
0d0ff308080f070d0808f7efeff50bf1f20a0609f009fcf208
0a0f12fc080efbef07f2fa020f06fcf8f4faf30deefef3f6fa
f2f407f10f07110df4f7f607feeef90d0ff2f2f10bfbf3f2f6
fc0e0cf7f10f11130b09f9fce8eef1f8f3f5140e07f4f70cf0
0b0ff4f4f811101504f8f4f3f5fa0d03ee08040e09f805090c
f7f7f302f4040c1106050e0d0bf0f10b0ff804f90c0ef3fdf7
f9030c0df60df6080b04fa0c0ef709f8f3060af3f2f3fef2f5
f50f11040b09f1080d0408ef0711f3f3f4ef040c0cf4f1f9fa
0a10070f11f2eef2edf7f6fcf30ef80d090d0ef9f4f6040b08
f2f809f40d0bf9f3070e0d0f040ef5f8fdf4faf30d09f8faf3
f2f707f5f60af3f7f6f9f5f408fb0df802fc0c0ff8fb1210f2
0d1009f3f6f1f5f8f80bf707f30ffaf1f30a0df0f30b100cf3
080e0d0f09f304f2f0f40e0df414f90df5f6f9f30ef3f7f208
0d03f60af60af40812f9030ff3040c0407f6f3f1fcf2f7f9f7
0df3eff9f0fb0df206f80f0d04fdfb0ef90f0cf40dfd0bfd05
faf9fbfdf50c09f307f4fe090ff4fdf30cf005020b090a0ff8
0c09fdf608f8f4f40ef306ef0806f8f4fe060ef208f602fbf1
0b1109060212120a0e10f2f9f206f2f50c0df3f3f70b0af4f5
0bf3f6f80b0e0bff07f70b0ff7f105f310f5f7080b0bf90d0a
0f040904f7f40c1111f91207f5f2f803f4f10e0cfeeff304ef
0a070c0d0808fb1307f5fdf0f70e110afa0608f5f40af3f40a
f8f6080cf6f5f307f90df5fb10f4fc0d0ffbf1f7f2f9f40df3
f809f70d070e060cf2f80af809f40706f7fc0ef4060c0ef208
1111fa0c060709050df7f4f7f2100df307f4f8f1fd05f90cfa
0c0df3f40df9f008f7110b0806f3f3fb090ef60ef7040906f8
0ef50df7f9f9f3f2f202fb0ef5f5fb08f3f404f6f20ef30cf8
0e06f1f8f4f709f8f3f20df90e06f8f307050808f311060e07
0dfdf209030af1f4f4fef9f10d0e05f7f6f7080ff90f0f0b08
110c0c070910110ef312f2f2fd0c0e09060706f2f2faf905f8
0cf1f8f4f2fd08f8fb0d07fbf50df3080902f8f4050b06f5f2
0407f8070ef9f40d08f606f9f2070cf209f8f90ef409f3f309
08f209f40f0e0af9f20bf6f8f4fc0a0f08080d0ef8f3f408f3
fd07fe0cf30c04f10a0bf3f6f5090efaf7f7f7f9090ef403fe
0df7fb0ffcf4f0f0f6f2f8050cf60a0dfa0df903ff08fb0d0a
fcf2f2fafc080a0a0e090efaf5f7f6f50806f9f404faf60d05
f6fdfb03060df90ef8f7fdfbf1f007080bf3f1fc0a06f8f809
f70cfaf2f30a0df70dfcfc09f6fafaf2f5f20bf30e0df2f208
090ff5f3fcf4f9f90d080af4f80cf50df1f7fb0e030a060a09
0cfff40df707f7f6f3040bf3f3fefdf3fe0e0dfc0ef8f3050b
f9f6f90d0df4fdeff60af905f30e0308f30f10f3f3f3f5f507
0c060e0e0df3090b0c0df6f2fd0b040ef4f3f90f06f9fefa06
f80c0ef2f308f30e0af30d08f20ef50804f207f4f50b06f1f8
f40bf1fdf60cf6f30af40ef5f3f4f20ef2060ef10cf90c0ef3
0afdf4070e0e0a04f40ffaf8fc0d10f2fff8f7fd07f90af608
08f70c0d0df902f6f6ef0ef7f2f4f30d0f0b0cf7f80e100d0d
f201fbf309f30cff0d05f3f8f2f10307f90df4f4050504f2f2
f4070d0f03f7fa0ff20efa0e080b07f5f304faf7f5f7080e08
f6f5f30b0bfafa0df5fd0cf30dfa0af40ef810f3f8090c050d
f6f20d0bfd0d0dfc0c07f3fd0bf2040ff30e0ff40d050d11f9
fd06f1fef4f3f7eff308faf5fa06f113120e03fffef808f409
0c08f50df9f20ef5f2fa07fc04f20706faeaf0f40af1f10907
060af0f80e090b0d08f2f6fdf70df10810f4f30b07160ff812
fbfc0d0604fdf0050af60efc0ef7f2fe0cf2fa0a0e0d030c0c
0df3f2f5f5f4f90cf10e04050b0d0cf2f502efef0cf804060d
faf205f405f7f2050af509f6f8fef906f20cf1060df6f20e0d
f50809f1f90afcf4f6080df4f0f9f5040d070e0c0a0af0f70e
fa02fb06030f0efa0df6040cf30cf4f3110bf90f0cfafb0bf1
f2f2fcfe0ef208060e0df2f4030e0a0dfaf40c0b0af70d0cf4
fa0e090d09f209060e0b070ef4fc03f30df1f5020ef1edf30d
07f6f60ff9f9fcfef5fc0d05f3f5f40a06060d0503f0f10c09
0d0af305f4010ef9f1f3f40b04f40809130b110ff606faf6f4
070bfb060ef3f3f90dfa0c06f4f40dfcfd07090f0df80c100b
f6f50710f5f2f1f9f9f8f60509fbf2eff4f102fa0d0bf90e09
090c0ef4f40b0f08f6f1060afbf60afbfd0e10f80c0f07fa0b
f50cf30209f3f7faefff0a060df8f70bf20f130a0ff3f406fb
050ff30cfcf0f30afaf3f905f80b0d0df6fd0b01060ff3f8f9
0a07f70b0cf20cfafd03f809f5f0ee0c08f00afe10f9f7fcf6
07fb0f0d110407f70f0d0d09070f05120ef305f1f60207f202
f50d1109fa0ef30b080e0a0d0510080d0b100df1080d0ff1f4
0b0bf5f10df8080d04090ef305f6090b050bf7f30af60ff807
f608f3090df3f70c0b0d05fdf6f8f20d04f9f4fc070108f6fb
f30c0bf2070d1110f9f1130df5071003f9080b090ef804fd0b
f3fc11f7f4090907f40c0b070df5f80d0df306f4090f110ef7
f507f504f3f4f806f3f5f3f4f30ef30cf908f4f2f2fa0e0508
0707f4f410f9fdfdf5f5f5ebfc07fbf8eff7f4f20603f208f8
f209f00b0bf1f706f4f1eff2f0f101f607f90906f7f60c090b
f7faf7fa0f070df2ee060b07faf40a0c07041016fa090a09f6
fa07f6f1f2f5fcf3f0f808fd0ef0f40e070afc0df909f4f1f3
0cfbf310f80d0d09fc090d070cf905fdf3f6080ef301f9f408
f0f10df4f1f7f50cf4f2fc080907f2050c0ef209030cf30504
09f50d07f7f3f5f0effd060e0dfc0e0d0a07f7fa0701f3f4f3
f5f0f10a0ff205f80d0f04fafdf70404f90afbf3f90d03fefb
09f8f40407f8ef0bfdf1f2f8f3f3f6f3f3f80b08090d140d08
0c0a0dfd0c0809070711040d0dfef2f6fbf708f4f4fa0a06f5
06f209fe0df7f0f4f70e0af1f0f30e0d0c0e06080e0b11f206
0a08f70f070307f3f6f803f2f5ee0905060bfd0d0cf5070bfb
0d0dfcf20a03f3f9f6090bfbf20cf80cfd06f4f305f70602f3
f5f30608fa0905100d0b0a0df30d0e0d0f04fcfbfd090ef20c
f008f40b0d0d0af8060409f40dfbf5f4f3f60b0efb02f20ff8
030e0df5fcf60e0ef60d0a0e050cf3f8f4f20e0df40ef50e0e
0b060a08040d0ff1f6fbf8080df3f3fdf20cee0efc06f1f209
0bf2f50bfa0d06f408f9f20b100b06fa0507f007f7f309100c
f9f8fc080df20c09050b0e0d0ef311ff0efcf410fafafaf404
0a0909fdf1faf20af1f810f804f90c0c04f401faf6f3f3fcff
faf30bf7fb06fe090c08f5090d12060b0d070e0ef4f7090d06
0c060710fbf5f8fe0e0e0b06f9f80e0705f0f10a070dfcfbf2
f20af90f0efbf60811f90c0ef50a0d0508fdf807f005f40c06
0f130d110e020af0f00e1102f2ef07f7f80c07f4f605f2f0fc
0b0cf2f4fcf207f6020d0d090d0c0dfd07f10c0af509f2f3fa
08f3f3fcf5fe0af40d0cf3f1f2f9f1f414fef80df8fdf1f3f0
090df2f9f707f40e06f30bf9f6f305110deaf2f7f0f1f6f8f0
f9f4f3080af8faf90105f5f4f209f809fa08f8070efd1009f0
0a0efaf4f7f3f8f4f20df809f3f40dfa0df3f3f2fa0df5f2f9
0b0e080c0df9eef1f5f0f4fa0805090b09fbf405f406fa0a04
faf30df81007fc0df8f60af9f3faf20c07ef0c09f8f3f2080d
f9f4f40cfd0e0ef408080c0a0b0a07f6fd0e0dfbfaf30df3fd
f60bf40e0c07f708fa0bf616140d13f60e10080cf10d0d1006
0e03f9f90ff70cf90d0410060ef8100df8f2f4f6f30408fef4
0c1413110ff4050af00cf3f4f0f6f7f2f5fdf2070b0601fef8
fa0d0707f9f3f20ff7fb0e12fd060ff006f30cfb0bf404f60e
f7fafa060c0ff509f3f6f3f10af308f812fafbf4f307f105fd
f70d0b06f7f5edf5100e0812f9f40bfdf90df7080708fc020f
090d09f5fc0a0e0810fa04110e0ef505f109f5fcfefdfa0c06
0ef1f5070505f60e0ff4f4fef4f6f0ecf4f90e0c070b110d09
f412130ffe02f60d08f6f6f1f3f4f8f6110d06f7fdedf3f9f1
f9f20a100ff6ee03f309f101faf00cf9ecf00d0bf4f40d1303
f308f008f6fbfa02060c0bf90c04fa09eff309f20cf9010ff5
120c0c0cf3f3f0f6f70cf1f4f3070e0b0f080af4f1ee01f208
f60a0a0a0209f30cf7fa07f7f4f8f90d0af30cf4f80e0d0e0c
f2f0f60b11080d080c08faf3f3f8f8ecf00f0d09eef7f8f90d
070d090b0af4ee040a05faf40c08fd050604f5fd0910f9f7f9
0a0af40d060ef30e0cf7f2060bf509060d0e08f9f80cf3f6f6
f2100e0e0f0d13fb08f60f10fbf70af1fa0f0df7f4120bee0a
0dfc110c0b07120ff5090cf3f7fcf4f7f50d02f50f160c09f7
0b0d0a0608100ef10ffb05f10f10f40af6f509f8f00908f5f5
050d02fd0df60efef2f2fbf010f2f807fb15faf50f09f9eff9
f7f30202060af50b0ef309f40b0ef6f2eff2f307f6fcf405f4
07f810f8f8f5110d0ff40bf60d0ff7f90607070b090708f10b
fcf10cf9f3f5f208050defebfc0a0a07fcfaf2f1f9f804fdfa
f80814faf6f9020909f20a0605f60ef1f31006080df2f20b0b
fdfaf8f60c06f3f60a0209f50e0c0ff4f40c0afe07f7f5f4f5
fd11fcfaf20a1411f50e080e060c0ff90d0ef708f0eef4faf5
04fe10f601080a0c0feff2f509f90dfa0f0f0b09f0070ef2f7
f0fe04f3f2f30b0e0cf9080df2040df0f3060a0e0607f9070d
0ef50df2faf906f9f3f7fef5f9f8f40ef209f4f4060cf5f609
1212f60f020808f0050b0a090707fb0104f609f00afeeff20c
f40e08f90bf7f00bf90d080310f6faf5f509fa0d0cfe040d0c
f8f9faf80c0d05f5f40d02f3f4fcf50cf4f80907f40c07f20d
06f3f1030cf7f2f1f015f2ededfd0d0a05fcf4f6fd09f5050e
0afaf106f3f6f5ea0ef4f4ebff1508f8f4020d0df5f0030505
070af60af80b01f00e0406f8fa0d070cfa0df6f20406f9f3f4
f9f6f0f3fceefbf4fcfbf5070609050209f20c050e02070afa
f1f8f4f4f6090df7f1f6f10a02f9f408070a0d090ff6f0f10a
07f0f7100ef0f8f7f80d0bf9f20c010cf308fb0bfaf70f0707
02fdeef1020b11f4f4f30e060a0af9ef080e10080907f303f4
f70efe0ef304f611fb0cfafd020c0ef6f4f3f50e07020c0c09
f102f5f70a0c060df9edfc0d0bedf1100c07f8f508f3fb0c0a
f2050c0b08f8f61118090c0df7f4f60df504f6f40e0a0cf5f3
f1faf50c09fb10f6f3140b0ef60806f7f4090af2f4f1f10bf7
04100f0c0cf5f0ed05f3f9f810f7fd100cf5fbfaf2090a070d
06fbfe0efafa05f1070df3f307f909f5f3070705f20df9f7f1
f1f1fcfdf70c0b0ff5090e0c030df70f070cf903f40b09100e
0808110ff505fbf4f3f30d0ff4ef030cf807fbf00810fbf708
fb0305f50d0bf2f4f30bfbf708ff0cf2f7f20a04f90b0cf3f3
090ef4f0f30b1008f8edf7f50c0105f3f7f403080e0e090c06
f20c0e0ef50f150aeef90cf30af2f3fb08f90c02f30efd0dfa
f80a0e0210f1120df5f5fbf3f9f1fd0803090dfaf5fd0f09f4
0f0e0cf7f8110d070df7f3f6100bf30af0f4f5f90d09f1f90d
faf6f5f2050c0f0d090bfc05f30f08f70f0707f3fcf60b08f4
fb0bf4f3040e06fb0df90ff2f3070bf2f808f60c06f1f7060a
f4f80b070cf3f608fcf4f908f90c060efd0c0b0ff9f4f910f6
0e0df508f004f30bf7f30307f8050b0df3f9f30df6f4f00bfb
f9f7f40df3f6f80e080bfaf70cf30e0d07f9090dfb0d0d0bf0
f7fbf50df9090df80c0ef509050dfa120f0df5f907f3ec07f6
0cfaf5f70cf5f90ef2f202f10d0bf5f6f7f90d0a0ff4050efb
f3f5f4fbf9fc060e0e060d0cf30dfaf20a0d07080e14060307
f7f20cf3f9f60c0d0bfa04f3fb0e0d050c0305f209f2f6f9f3
fb060df3f2f30cf708f3f6fef60df40bf0f3f3fd03f304f10c
0b06f7f2fcf2f5020a05f9f6f4f70d020cf80ffb05ef06f30e
f9f409f50cf7f3f9f80df6f6060a06f6f80efb0afaf90bf60a
fc0d09f4f5f20705f30cfb0c0c0c1007f70708070d0d0906f4
080a0cfb040c06040df608f9f9f3f4f306f110f40204f00709
f8f2080b05f6fb0ff5f10d0df2060c0c0cf607f8f409eff50e
09fcfcf3f9fa0df4faf8f408f00c0c0df009fcfaf3030c0e10
f5f50a0d0cf2f90d0d04fd03f10d100ef7f30508fdf20cfef5
f50bf9faf10b0d09f7f2f4f5f60bf20f0cfbf5f1faf3f205f9
0bf30e11f5fff3f40c0deff306f0f9040af4f0f8f80d0d09f8
060c07020b0ef9f5ed08f1f1f6eef00cf2fd10f30a1006050d
0a0f0bf5040e0d0e11fef3f8f107060306fc11050ff5f8f7f7
080c0f0f040508f106f6f50efc0708f008f7f2f8fa0a0afc08
0c070e06f70bf5ff14f0f9f3eff2f2f804f6f8f10cfa0cf2f4
0ef5f4f20a0e06040af50df7f4fafc080bff0df6f3070ef90b
f3080df30df5fb0cfaf50cfafbf809f80af5f50d0e0cf80df2
f30801f508090df1f5f8f2eff7f4f00e100304f3f3f5f40b0e
0c081408020df0fbf9f2fc0c060d0dfcfd08f50d0811fa070f
f4fb0df6f40c0cf4f9f3f6f2f70df8f4f9f2f8fdf5ff050bf6
ff05eafd14f3eef905fc0509f00e09f807f20712ff0c0afbf2
f1f6030d0bf3f2eef409f5f8080e080a0cf80f0cf90d0c0a08
faf9f30b1005f4ef04f4f20bf7f1faf60c02100bf3fd100df7
f5f106f808f80df10c0e08f8faf40ffaf5f70d080f0bf3f308
060b070e060a0d0afa0f0fff060d0cf5090c0ef009fb0b0cf2
f4f5eef4f9f90df3f90d0ef2f4f4f6f70d01f508f1f405020a
0d08050cf90b0ef2f50c0f0bfcf4060ef30c09f6f3f4040e0c
04efef0a060c0beef1fb0c070ef60dfbfb06f1fcf308090df3
f20b090e08f7fc050ef8f906f3f30b0807f3f2f5f306f407f1
f7f1f3f8f7f2fe04f00df308f5f8f3120d0803f2020df70a08
0a04f40707080807fd0906f4ef08f7f41111f4070d0bfa0a0f
fef20907f908eff40b08f6f7f4eef20d060c0b090c0c0bff0d
f40ef3f3f4f50cfd0e0e0a0df50d090b0e040b06090bf206f6
0806020904fe050ef6f0f4fa0c070af5f40b0d0af1f7f80a0d
04f5fef5fa01f4f6f30efe0907100df9f3fff6f60cf102f70a
f2f409fdfcf2f202040ef5fe0b05f808fcf20af40e0d030c0e
090a0ff2f409f80f0e05fb0d0ef40ef8fef30e050b0ef40df0
04f10cf1fa03f9f410f8fd0efa0df7100bf00d05fbf4fa06f8
0ceff4f4f80bf40ef1ee1012100df30ef5f3f70cf7f8f0fef4
f307fa14fb0bf2f4070cf5f40d0ff3f7f40cf7f5f8f2040af4
fc0b0a0bf80e0bf9f7080e0905fefc0c03f9f4f20ff908f8f2
f40603f80af407f4fc0df508f60605fdf30cf70df90b0d0c09
0df80b0c05f5fbfdf8f40af1050408f20af206f50dfcf70ef9
f9100a060af3f006fb08effdf7f9f409fbf90f08fe0e0f100f
fb0206f1f9111109f8f1f70afaf10af6f7fc0511f8f7070f07
10f808f2090af8f409f20cf3f9f70af8ecedf4f6f4fe0b0c0f
0af60ff403fc1107fb07fbedf3090cf4f2f3edf4f506f10e0c
03f8fafcf20ffa0f08f1100e0b0df90608040df60905f4faf5
f7f5f2fa0bf6f4f4f20a0508f4f407fd0df9fcf3080bf70a09
090a07f7f4f4f1f2f20c05eff90b0ef20e0f0ef5f208fb0ff3
f90f07f3f70c09f2ee0a06040af9fe070ff8fd0e080f0d070f
010e0afaff0705f40e0d0b0d08fff3f7f40608f4070afff3f3
f309080dfa0d02f1f3f30deff6f50d0df3f70e0c0808060af8
f8070bf6eff50dfcf9fff605f2f1f906050d100e0e0df80bf6
0e03070cf7f4f4f2080ef3f9f0ee0ef60710f409090a0a0b07
f7070bf50df0f5f30f0f0603f307f4fc030d07090d10f7f7f4
f7fe05f9f7f80df8f0f4f8f210f10cf807fe08f60a04fa04f8
0f090b100af1f810fef3f40a07f207f80a060e0ff4070f0d07
fd0bedf9f20df6f6f1090e15070c040e09100d0f0d0b07060c
06f9f3090808090f0b090e0b0e08f1080b01f30df40c06eef6
f3fc0a0e0d0403f00d0ef0f80dfef1f30a04f2f904f1f6060d
f408fb0602f4f1f80613fd0c0e11fa0d0507ffeef8f1fa0bec
05f5f3f7fef5eef4f00f1413fafc0c091205040af7f0f8eef0
f505f9f80af7f6030f0ceff3f20ef3fa08f3f5080cf2f40a0e
f3f60209f90c09f4f3060af9f5f3f2fb0af40bfb09fa0c10f4
f6f109f808f1f90ff6f3fc11f20ff60efb09050d100bf3f60d
0f0d060dfb07f70e0f0dfe0c08f6f8faf807edf4080b0f0af2
f30dfd07f5f3f3faf9f5fd080c080df40e07f407f70a05fb07
f20f08fe0a0d12fcf3030f0af815f7f8f1f3f80c08f010fa03
0af3f20efc091109090d0e0a0c11f9f7f103eef2ebf50d080c
050a0df9f9f5eff3070cfbf4f710f108f3f008090d0df5090d
f90c09eef3090ff4f0f20e0d0ff6f00cfc010ff60a0d06f30b
0df0f0f006fbfef8f40c06f1f2fb0bf4f4f30ef4f50e0bfcf5
f60f0e0df203fe0c0e06f30607f6090cf4f5f8f50706f4f60e
fdf20c0d09f4090c090dfb0bfef7f106ef0708faf203fb0bfc
f40efc0d07f8f3fbf1f2f90bf1f6f10d07f0f3f902f1f2060e
f202f4f9f703080a0df70ceef8fe0c04f10d0d070df80c0cfe
f4f90c070af1f4f6f7fe0a1108f609090a0e0b060e05f7f804
f3f6f30909fc02f5f7f80dfe04eff30407f6fbf10bfd03f40c
fb0c0b0b0907f6f00906f7f3070ffff40407f40cf40ef8fcf5
0d06fa0df2fcf90b05f2faf3f8f7f20402f407fa07f4f9fd08
09f307f8f40c0c0b04f7030df408050c0d0df2f509f902f8f5
0af606f5f10d0dff0df0f2f8f4f8f8f3f1f50cf9f7f80f0b09
fa0d0ef8fb0cf70ef3f204fcfe0407f4f9f7f3f9070efc0df8
07f7f0f50af2f306f70c070ffbf70ef6f8f60c0cf2f3f70e07
f1f9f6f30d08f80ef8050d0e090a04f905f30906f3fa0e0606
08040d09070d05f80bfdf803f0f90df9faf3f4f2f30207f40e
0dfc0806fb0e0df50c0a0ff5f10c0f07f00bfa0907060a090b
06f7f50f09f4f9090c0e0d0906f30cf7f1f5f5f7f30c080e08
040d0f0afafd03100e0707f701f6f3f4f30808f4f50b0e0dfa
0efef503f80b0df307060d0d04f3f3f90f050ef30809f4f7f3
08eff1090ef108fbf7f70e0f170ef7f407fb0ffdf80b0bf1f2
f60dff0ef4fffb080211f3f50a0a0f0809f1f1f40b0a0f06f5
0d0e04f5f30df40a07020ff610fdf90af2fdf8fdfd0d040bf6
020e0ff50c0e0b070e050e12f30f09f5fd13110905f408fbf0
f40d02fcf5090c0d0c0b0dfaf4f4100ff806f0f5f5f3f10cf7
f5f40e0af3f7020cfdf3fa07fff70c04f208f10cf30508070e
f9f4f5f60bf412110df7f9100e0e090e08f3060209f607f3fa
fa0ef2f1f007f6f50ff4f30dfd08f80ff2fbf9f8f90c0df2f9
f4f90d0ef4f8f90ef6f60d0ef308fcf5f3fcf809fc0c0dfa09
0cf307f90d0e08f4f20e0df3f8f5f60d09eef2fbf205070d10
05f5f0060dfbf7f80e0df30d0e090bf9faf3f4080af90a0a07
f307f4f9f206f4f7060af8fa070606f2f8faf8f8fef5fa080e
07f30ffa0cf9f8f206f209f30bf6f9050df7f3fa07f2f7fd0c
fa0e0e0ef308f2f6f9f207f4faf0f0f60df1fb090c0d0b0af5
f2f5f90d0cf4f6f2f4f0fdf4030ff9f6100c0707fd0cfa0d03
f6f70df6f9eff20cfa04f9f4f5fb090e05f70cf3f9f90efaf2
010c0c09f707faf6f9ff0bf005fc06f60f0ef1f3f2f30df70c
0bf80e081206091001090bf60eedf00ef5ef0a090b09f30df5
fcf00c100cf7080c0910f7f10df3ef0c080af7090a06f40d0b
f4f6f10d03f108f3fefcf2f0f40a0d06f3f4f4f70d10f3f307
0a0cfd0c0c090f10faf409070efcf7f8090d09080c090dff0c
fc0df606f8fb0904f106f60308fc09f2060d060ef709f2faf4
07fff9f7f50bf7f10d070501f8f406f806f2fbf3f6f10d0df5
f2fbfafa08f2f70ff407f9f9f806f0090b0bf3f4f7f4f4090b
0df6f50efcf80bf309f7fef7f3f905f606f3f3090d0bf40df6
0a06f9f7f1f1f70c0c0ef30e0709f3f41310f1f6f90e09f309
0af0fd100a08040ef6f4f8f513f70a0a0efe0c0dfbf7f9f9f3
05fbf10ef4f30908fbf705f30cf309eff608f7f2f7f5100af6
f509ff0d0c0b07f7f2f9f20bfb0df407080ef308f4f90bf50b
0a0b140bf60e09fd0b0607f8f00b0df4f812f8f5fa110deff2
f6eef40703f4fbf8f609fd1306fa0c0b081213f9fa0d03fdf1
0d100f07f2f7f0fc09f2fbf2ebf3f20cf10bf9f30a0e0dfc08
07f3f30f09fa0df308090e0cf4070c07fafb0b07f00d0f0e06
fe0d150b09fdf6fc0214030bfe06f90e13fceff2f1f3f6eff0
f3f40e07080d0f0d11060c07ebf302f4eef2140808f111140d
0d02090d080af90e0e0cefeeeafbf9edfaf7f211f50df61410
09faf8060af1f70a0d11fe0e07faf40808f8fc0deff2f7f708
0e07f4f4f30af4f9090c0df30e060a0a0e0dfbf60cf3030605
0af30e0bfe0e09080d0807fa0e0df5eeeef9f60bf607f6f3f2
f3f1f5f00f0ff50f0d1209090f0d0a0cfa140f0bfa060eeef8
f50e07f70a0ef5f50904f8f7f8f2f4fef4f80df801f5f3f20e
0e131211f3f50c1009f80cf3ef0af7f1f3f5140cf71210090c
fb0c04060c080cec0b0defeaee100ef4f61107fe0dfb12f6f5
0af2f9f70df909f10908f20c0d111005f4f80e0ef0eff2f709
f60df90d0efaf3020907f3080a0cfcf7021103f408f80efbf1
090afefe090c080a0efb0ef90d0bf1f5fa0b0a070c07fb0df7
f8f10c0efbf0faf4f3f80d08f0f5f50cfaf807fef3fbfe0208
07f40f0d0efe0b08020bf3f10a0c0e04f6f50efdf7f1f80c08
f308f60ff6f505f3f4f90feff40e0d0b07f410fe0a08f4f906
0afcf30d0a08eff2fcf7f90d0df4f9f911f6eef1faf2f9f7f2
f4f2f20efcf5f60afef8f7f907f8f403fa0dfdf90e0d100e0c
fa05f40cf5050cf6f709f8fafdf909f8fc0c0af1f40707f8fc
f4f3f80cf60d0efef80af207080c0b07f1f7f4050df3f2070d
060b0e0e08f3faf5f60d06f40bf9f503f5f6f6f4f80df90f07
f9f8f5070f08effc06f2f605eef30e0afa0c08f8090d0df4f7
0c0b080b0ef3fd07fcf8fcf2f4f2f7f602f4faf20af30af9f2
0df4090e0d0ef40df9f5f40e09070df7f6f7f70707010af20c
f70ef410fc08fef3110c0507f311fe0bf308f6f60610f10d0f
f9f1f4140f03f20813fdf4ef0907f9f4f302f1f40804f2080d
f8f50106f606eff009fd0b0eee0efb100df8f306f8fa08f7f3
f9f70d0607f50dfbfcf30c07110cf2fafb0dff0c0ef9080e0d
f8fffb0b0efe04fbfbf6f7f4faf50af6faf2f3f80afcfc0c09
09080af809f3f6f2f6f206f5fa0d05f8f5f5f9f1f30efe02f2
0df707fbfefcf8f90cf2f10505fdfdfaf3f2070af5f40c09f5
08f2070305080d0cf40cf70cfdf90e0906fef40af30cf80cf9
f7faf3f4f30e03f8f3f708f4f3f30af5070c07f2f705f2f50b
0df2040cfb0d070df90efd0df8f6f2fc0df20e06f10dfa0d03
f2f4f2f3080df50ef90cfb0d060df6040905f308f9f6f9f106
f8f4fbf8f3f2f20bf6f80b090df60cf3f40dfa0d01f9f3f20d
f30c0a040cf6fd0cf8f3f706f4f4f2faf608f7f20d0df2fe0c
03f6f50efaf7070d0e07040df20df709f7faf1f9f4f7f3090e
f40b070df6f708f3f408f50707f1f703f6f1f50ef60af8fb0c
f3f9f3f60cf30bfe0307040ef2fa0d0b0ef4f4f80ef3f9fef9
f60ef9f709fe02f803f6f20d0b0ef3f608fffe090cfefdf6f2
06ff07f3080af1fef30708fdf2080cfcf9f2f1f00c050cf4fa
0df3fa0b090dfb03f503f3fc07f7f9fefff90df2f4f506f4f5
0d0a0408f8f60d0cf20df90dfa05090df90df2f1070efc0e02
01f30df910f8fbf80e07f5f0f405f6f20d0510070e08010708
09fb0df4fd0f0cfa0b0d0efe0cf2f305f7fb0209fb0a05f40e
f80609f30df309fafc0d0df50dfbf7f9f4f2fffffff3070f0e
f3ee07eff2f7fa08ef05f81410f60e08f6f3090ef9f7f2100e
08060706080cfbf40603f704ee0c10f60e07fd0b0af30ff2f3
f5f5f6f3f4f0eef9f802f5fb0f0e0a08100ff907f407f0f8f5
f1f2080c01f0fcf2ed0a0c0cf8eff20d100b0af5f00207f408
0f1106f706ff02f30608f10af111f7fc100cf3fb100ff8f0f6
f805f8fb0a0708faf3f20cf40d0f0807f5f3f9f90ef2f80409
f7f2f4f5f2090ef702f8f5100b0bf50804f3f60cfaf1f10cfb
0b030cfbf3f3f50d04f60df8f3fa07f703f8f3f6f2ee0bf7f1
0d0d0d040b0df209f3fd0a0df401f6fcfbf3f5fb0ef3f308f1
f4fd09fb06f8fb0d0f15f2040bf712fa040b0ff9f3fe0710fc
faeffaf60307040f14010d13080e0707f1ed0d06f6070ef3f9
f2f70af4f808f5f1fa07050e0cf5f205f5f3f2f2f4f3f5f210
fcf80f0df5f60c070405f70bf305f4f2f30a0c10f20a0d0d0d
fa08fff9090ef90b04fa0ef90c07fff9f20d08f6f3f3f20a04
f3f3f2f6f50bf605ff0ef3f30d06f3f2f7f70c08f5f6f909f3
0ef7f7f3f60cf208f4fef30f07f4f3f2050ef2f80afb0f0bf3
f30b0a0c0409fc0efef50efc07f30704f9f7f80ef3f80d09fc
03f3f8070d0df3f8fff9fcf3f6080d0df4070dfa08fa060cf3
0b0bfbf2faf3f10df3f5f5f2faf4f207f703f3f40d0d0df3f5
09f20af2f5fef40cf2f4060af3f20af60505f9fbff0309f502
f5f9f20e0a03fb07f90c07faf4f7f2060c09f2fef40d0bf2f2
fc04f2f3f8010cf9050d02f4f6f90bf30cf306f3f2f8080bf6
fbf305f809f409f8f30b0604f20cf3f6060cf2f40bf3f3fb08
f5060ef403f20df7010cf8f9fc060df20a070bf709f3f60af2
f20ef9fc0d0b0d0cfbf703f7070df3f30b0c0cf6080ef50406
0ef9f708f10d0b0dfc0cf50cf306f4050df30806f4ff0af40a
f303f5f30bf9f4f3f8f309f407fa08f3f50df1f4f3080d0d08
0ef409f5f3f4090e0df8f30df60ef3fcf5f30cf20b0cf3f3f8
03f5f60ef8070b09f4f209f2f70cf4f3fd0df50ef8070e0cf7
f3f3090a090b0b080d0a0809f6f80c0a0b0310040af9090af6
fcf1f2030a0af8f8fa0e090af3080e06f40ef70b070dfbf308
f80c0c0c06fcf3f40d0806eff3090d08080cf10df2fd0c0dfc
070e0ef3f309f7f9faf306f80507f80e0cf9f20df3f4ef0b08
f2f5f8070ef4fb040f0cf8f2f3f00a07f9fa0f0e0ef10d0df5
0c0a06f4fdfbf5f6f9fcf1eff2f8f3100d1209ff07f2edf006
0b0df7f2f507080ffff2ed06f3ecf90a0f0ffefcfb0dfc0ffa
0906fbf80906faf5f9f908f4f2fff1f0f40d050c04060a10f4
f4f4f3fdf6050d0cf5f308f80ef3f30bf2f30d0b0e0e0b0bf6
ff0d050d050c0cf50d0a07fbf4fa08f4f7f2eff20df4ef07fa
0b0af10ffa0705080a0df30a0e13f8f90f0d09f80cf1f4f0f0
f80ef30e0c06f4f7090df40ef30af30df70efb05fb04f7f407
09f50dfd0f0ef1f60810090bf20e0e061006f40c0c0af312fb
f9f3f3f90bf201f91008080b090e0bf605040e10f9f2010cf2
f4f4f5f3f4f7f6f2f3fef3fa0f0dfdfaf3f9f0f40cf709f4f1
0dfdf3f306f1f0f40d0c0af5f80e0bf20d08f3f606fb070bf3
0b04fdf30c03f70a0cf9f905fbf70bf6f3f309f5f30b0e02f3
fd090e0ef80ef7f3f3fe0603f4080d0d0b080a0bf3fa0df204
08fe070df40d060e0efaf6f3f8f2070d03f5f204fdf4f5070d
f4f3fc020ef6f20af20407fc0a0c0c08fdfffaf8f20404f90b
0af3f3fb0bf4f30cfa0d0df609f8f608f5f2f3090b05f8080e
f206f3f4f50c060803f404f807f70af4f301f2f708fbf6f20e
f2f20bf3fbf3f2f60ef70cf3f90a0c0bfef407f7f6f3090909
0e09f4fa02f30e0d07f60df2fef8f8f7070d08f20707f9f2f5
0c07f4f3f4f30a0ef4f30308f3f3fc050df20cf30c0cf5f208
fdf6050ef50df3f60e0df906f5f30af5060809f206f2f30efa
f4fcf2f2fa06f204fef2f20b09f4f3f5f5f80d0d0e0903f3fd
f30cf2fbfb0cf5f3f9fc0807ff0a08f90ef409080df4faf4f2
f90a09f9f7f9fafb0c0d060d0af7f2fbf4f806fcfc0cf8f20a
0705080df20ef4090b0af3f7f30cf7f30102fcf20cf4f3f608
07f20609f80b09fc04fbf708f2f6fdf60dfbf90d0cf50af70e
f2f3f9fc0704f2f90a0af40cf2f3f90405060af2f3f7f20a06
10100c070f0d0b0ef8fff907f209f2f510f6f5060cf4f408f4
0cf20cf6fd0d05f2020d090e0ffaf5f30f050ff5fcfaf6f609
f6f3f80e0d0b0609f7f5f20af0ee05fa08faeff20c0ff9f407
f2faf4f507f9040407faf3f412fa0eeef206f6f9f9fdf80c05
0e0ef6080c09f207fa110d0a0cf90a090b0b0df2fef3f5eff3
0c0aef06f907eff90c0f0e0bf6f20907edf70f06f1fc0e0e0a
0bf409f1f2f7f20bf60d0bf20c0cf3f904f90310ff07060ef9
f20d0cf9f50ef9f808fd0d0c1108fff20ef5f40f05f30808f3
0df3f4fcf2f90b0df20b0cf80ef809050908f206f2f5f40ef3
f30604f4f70ef70b080cfdf60c07fcfafd0b0e0beef707fcf8
f4f9f00cf909101007f61204f80c070df209f302f7f3f406f8
f809f70e0b09f2f2f50ef3f6f70908faf304f2faf404f20efc
090a1203f4f30a03f7f9fd02f5f7fb0c100f040ff81109f307
05f3fbfcf8f40f0f0c0bf4fd11fd10080c0f12090d09f609f7
090bf306f90c0dfaf709f3050dfbfef4f10d0d0ef7f3090506
09f9040f0cf5f20e100707f2f8f2f0fe0f07f2f9fafcf2fef3
f6fff409f207070d0d0cf909f4f50af509081205f309f4f3f3
07ef0c0af6f30af405f409f0f3fafaf7fc0af20b0d06f30df6
0c050bfa0b0cf90f0afa09f9f4fb0dfaf7f30d0c0efbfdf8f8
eff3f0f9080df9f50e0c0e08f6f5f20b02f6f8030809f3fdf8
f80a0cf40bf3080f120bf8030c0ff6faf90c0bf30d0af6f3f7
02f7ecf908fdf3ee0e0f0bf7f9f6f712f8ff0ef40d030bf4f6
fbf9fa0bf5f4eef5f0f9f6f3f2060e0cf40df6f50f0bf90ff5
f9fd0efa06f4f7f40a0bf9f208090cf3f90d1009f40e070d0b
08f6f6f30bf8f70cf40e080dfe07f1f90603f4050cfdf70c04
f3f0f40df40509f4080e070a0af3fd0906f0f1f6f3f80cf2fc
08f2f90e0af9f8f90bf70cf60c0df7f90e0ef40af9f6f8f309
f2f8f20af80dfb0c0cf30d0af506f1f3fc0cf70ff9f80f08f3
0cfff80ffbf3f6ee060b0bfc0d110ef70d10f2f80cf6f4f1f5
f7f4edfa080df2f10f1009f4110f02f905f7f70a07f308fbfc
0bfeef0b0cfc0f0a120a100f0107f9f4f2f7f0f2f3f4f40a07
f3f409fd0d07f0f60ff706f3f50f0cfbf107f307f4fc08f1f5
070c0c0cf50cf20e0ff20ef0f608f206f4f00e0409f3f7f50e
f4f3fe0d0bf90efd0df3f5f0f80ff3f8fdf50f0ff20ef2f3f9
090e0f0cf5040806ee070df4f60cf30df9f50ef411f5fa0d0e
0e0609fd070408f60af50cf50bfa090f0e03f3070e0ef4f7fa
fc03f10e140dfef808f5f3f1f3f4f1f4f2f204f4fa07f70e0e
f905f8fd06fd11f60c0d07090c0afe0f0d0f0f0af8110c10f9
070cf7fcf2f6f5f0f5f90cf4fbf3f8f5f70a0af20ffbfefa07
f0fe090b0e0c0f0f10f4f3f5f1f1f80df3f7eff9f30d0bf207
f8f80408f3f8fa0709f3030a0df8f4f3f6f208f8f3f80d06f4
f305f2ef0708f2faf5f8090a0bf2f6140e0df20bfd0a07f20b
0ef509f4030bf20df5f4fa07f40af60af60cf9ff08f5f8f5fd
f5f2f3f70bfa060af2f30df3f4080cfaf8090e0b070c0ef30e
f7f6f20d050e0d07110efc07020704f3f5effe0ef8eff2f413
060ff20e0ffa060a0c10f5eef9f70dfaeaee0dfdeef5f80a11
0cf3f1f9efecf8f607f706fff80702fc0ff6fb040a040c0c0d
0f080a04f2fcf606eff4f20e11f2090af9f20c0707f9f1f7f4
0c0a090cfafc0f0c020ffd0d0a08f40905f20c0df70303f106
08f505fb090d0c0ef2f40e080e0d0ef504100af7fb050df50b
f9f10cf8f208f0fa0cf9f0edf0090ff80705fc0a0d100605f6
f7f1f1f3fff3eff4f5f709f20df301f4f40e0df8ef0d060e0f
f7080b070f0cf812070812f3faf1fa0a08ff0913f2f40dfaf2
07f40808110bf8f2f108f108f2f10bf3060e0f120af80e0e12
f30e060cf5f5070c0205f4f4f80c01f3f8f3070c0ff80e120d
f9080cfcf10f0f10fdf5fa0c040308f0f3f5f7070d03f8f8f8
fefef50df4f20ef9f7f5f6f30709f6f30df30e0af2f2f201f2
0c0d090ff3f3f9f6f305ee0b0ff905ee0cfd0f0f06f2f3f4fc
0cf2f5f90d070bfaf4f50b040a09fb0c0ff8110bfbf30606f1
0d0df908f3f70df409fafb0cf30e0b03fcf70df30e0d0df4f3
0f0e0b0b0c0a0b050afe0c0706f306020af909040c0c08f0f7
f30df2f9f2f40a030bf30f0e04f6060f061002fc0cf4f60b0d
f208fb07fa0c10f40a04f1f40605fdf809f8fbf1faf611f104
f60c0c0df4f4070afb0af5f1f80df8f4fdf80bf2f2f5090707
f7f8fb0ef2f30d090bf3fa0f0af20d09f6f60b0dfafbfb0b0b
fa0df4f3f60807f3fc02fc05040a0df709f4fbfe070908fa0d
f310f4f2fc0c0ef3fa0df4f10c0801f9f2fa10fc0a080b11f3
0b0dfbeff4fdf4f8f7f209f3f206f703fbf808f606fdf5f20e
f3090603f3f80d0df2f7f80d06f1f5100af20d0ffcf3f50c0c
faf9fe07f208f608f2f211f4fa05fa0ef4f009fa04f009faf5
02f80bfa04f80df4f5f10e0c0a05fc0dfe09f7f7f208f2f6fa
0a01fdfdf3f60e0f03f80bf9110c0b0a0afbf30df3f9fb080d
f2f8f9f206f803080a09fd0d0efcf2f3f60e05f7f40b07f406
0f06faf10902f70cf203060bf20e1007f7f310f50d080c0ff6
f80af205f703080df7f9f10908070df5f20a12110d0a010efc
f20ef408f2f5f509f3f20ef60c0ef9f8070e0b03f3010d06f2
f6f9fe11ee0e0c0a12f0050e18f2f5f905f90af40a0ef20708
f60509fa010bf1f505f4f4fc0a060df2f8f60b08f3f9f8ff14
07f4f7f5ed0805f4f5f209faf20f04fbf2fa10f3f2f20c0ef6
0af20bf6f40cf40f0ff3fcf4f4f804f50c08f6fcf40d070dfd
f30d0f07fe0905f3100a0608f5fa0f08f60efdfc0d060df80e
0bfb04f603040bf00cfc10f50e080c0c0cf0f3f7f6f3f50608
f50d09f4061010f6f80df9100a02f00cf4f4f20b08ee0d14f7
f2f6fcf5f307fef8f2f7fb090ef40ff6fbf6f0100df3f31110
fd0bfc1014f90ef9f213f6f9f003080cf4f00a1006fe0ff1f3
f9f0eef3fbf0f4f9f8f4040f0f0f0f0b06fbfa10f709f1f9f9
f5f2effaff0cf5f1f6f4f40c07f5f8fd0d0c0dfaf7f0f30bf7
faf6f5050a0a060c0ffa05f6080d0d0d14faf2ef0f0df2f2f9
f90cfc08f4f80e0df8f306f808f609f6f403f0f70b0e0f0cf4
0401f8f20d0c0a0d08f60a07f3f9fd0af4f0050afaf1f7fcf3
fa04f2f310f4fc02f0f40c0b0c12f90ff90f09040cf30df3f6
f3f40bf5f7f9090d0d0b0ef6f5ff0c0c0e060df2fa0df2f9ef
f40e0d0d0c04110607fbf30d11f20507070a080c0dfb170df9
0b020bf2f30e0d1808090d1204f8080806eb1009f3090f070d
0df603f7fd04f3060cf7f5fc050d0e08fa0cfaf0f309f0f410
0d0e06fb100710fa08f50c05090ff60ef3f3f60df4fd1011f8
0d0ef4f3f4f80d0cf0f60af5f1fbf7f7faf40cf2f7fdf40d04
08f6f204f5f10407f70d0c0bef0d08f2f9f30d070d0bfaf90e
0f0d0df20dfdf9f6f609100f010c08f50ef30df2f4fb0d08f9
070bfe0f08f107110c0a0ef30c0df6f5f3f702f307f60a0b08
f5fe0cff0df308f6f5faf30ceff209f3f208f9f30e0ef4fa08
070a0e11f506050cf30f0df3f60af3f3fa0a0af90905f8f3fc
07fa0c0b07040cf70d0d0cfe0c0c0d110c05f90df90cf5f3f3
0c0b0e0d03f90a0ff5f40b0c0af3f909f8f2f70cf40cfaf30a
0efaf507f6f20e05f5070af4fef2f7f4f9f90e0af50df90909
04f4f70608f1f4f3f7f4f70bf10df70df203030d0dfcf40af6
f20408f10cf20ef10afc07f4f3f30306f6040e0dfafcfa0cf2
f2fbf9030ef20c0ef3080906fc06f50ef9f20af9f8f507070b
050f0cfbf6f4f50ef10e0e0c10f5f50c04fd0a1005f9fa0afc
f50a060e0503110df5fa0bfaf1f3fb020aeffa0bf30cf1f5fa
f1f1f40af6f207f8ff0f0802fa0806f20bf3f30509f9080b09
03ff0bf2f2f80f0d0dfaf50f0bf5f3f1f3f9f9040d0cf3f4f4
09f609f2f30df8f2f60a05030d08f20cf80c030d0d08f7090c
faf5f1fa0e0402f60406090d0d0d06f3f10b08f509f20e0e06
090cf606050af30d040af405fa08f2f3090df9f5080efbf4f7
f3f9f8090e09f3f2fa0e040af3f407f8f509f9f4f20c0cf9f3
f80df8f606f3f4f70af30efcf8f50cfcf709f3f4f707f30cf9
0c0c05f4080a07f4f6f9030bf604f806f9f6f8f30df306060d
0ef9f6f4f2f4080af6070c0d08f20cf6fa04fcf202f3f30201
f2fbf30e0c06faf3f7f50b0cf1f4f1faf5f70909f50df70cf3
f2f507f3f3f3f3f2f4f806f20a05fa0df40606030df60a0d0e
f10d02f2f3070e070ef309fd06020af50cf5f1f208f6fdfb0d
0907f30a0cf30e0df9f70dfaf2070cf4f4f2f9f6f9f606fc0d
f8040c08f6030ef70c0cfb0c0d0e0ef5f30a0cfc0cf80ef50e
0bf20c0d0ef6f4f402040604f4f407f2f6f30c0c0cfb060e0e
f20709fff2f2f4f50cfaf6f4f4f3030908f2f6090cf5fdf60f
f4020c070c05f6f80d0e0a0704ff0cfdf30cf906f9f9f10df5
f2f3f6f70af3fafa0c0cfa07fe0cf50ef80dfa0df3f7070b0e
0ef706f4f3f4f903fd0afa0f0ef3080c11fff9f90af60df70a
f3f5f9f2fb0d0d0906fd07f8f7f3010a0c08f5020df306f90a
0df4f7f40cf3f1f2030af8f2f20201f3f407f2f00d100e0af1
f808f1f60907f10f10f5f6f00cf3f2effef0fbf6f10b0f0bf0
0efc0e0afc0b0612f3f60f010efafd0d13100d04fbf3f50302
0df2f0100ef3f1eef103eef3f5fbf4f6faf513f5050d06fc06
0bf8f20cf4f0f0f0f202f7ebf2f509fef308f404f90506010f
0d0c0d110c0d110cf6f506f4f7f9f6f602f1060f0df30cf40b
f4f50507fb08f6f8f80e0ef4f70202fe050ef20ff6f40df6f3
f0090d0d0ff0f30ff70ff0f0f10df1f8f10cf7fcfe070ef8f7
f2f4f70bf4f30df40f0d08080dfaf6f3060ff4f0fd090afa08
f40809050cf5f70ef1f7f70b03fcf9f50b0bfa0f04f6fefa0e
0c0f0a0efafaf70dfbfa06f810f70c080ef80e0df20af4f8f1
0d0d0c0e0af4060a110df80f0a0df6f50b0d0e0af70f0a0cf4
f6f1f5080d0a0c09130df8f30d0efdf2f80ef20409040d06f2
0cf4f4f30e010403faf8fb02f30ff20c07110107f909fcf607
0d0708f70d080e040af6f80b06f40d0e0ef10d08f2f80c08fa
0bfaf1f2f3f9f5fcf30103f3070d0ff5f70f0b0e0407f20c03
080ef90d0c09f4fa090af5f8ef03fc080909f50807f7f50404
f8f1f80bf9f3fcf3ed0d0e0807f1f60b0a0c0ef6fd02f3020a
fc05f8f70df5f3f80af810fef2eff10ef4f6040f080b010f0c
f30a0b0bf8fafb08f3f2080c05f2eef905090af6050707100f
f3f307f50dfa050ff303efedf0f10bf8f1f108fc0b0e0b0a0b
04f3f20e0a0f0af9fb0f0f0ef80a02f20d0cf5f5fa060ef3f8
fd03f40e090d0cfa0ef60bf30c0b0d0ef4fe0ef9f3f70d0307
f70902f10c07fef4f0f50bf2f90df2f1f8f70efcfa03f50b0e
f2f209fc0ef2f90a09ef08fff6f9f3f30a080e10080bfaf90b
f4faf2f7f7f703fa07fa0efe0d0808f9f6fe050703f8070bf3
f308f4f40b09f10ef711fdf202f60cff110e110c0a080b0a07
f407f509fdfaf2090a10f5fc120bf9f9f9f70d03f6f7f805f2
05f5fe0cf6f2f20506f309050dfbf2f3f3fb02090dfcf40a04
0a09fd10f7f1f40d0c0f0d0ef402f6f502f2f70af3f60ff30d
fa01f7f4f30b100a0afdf50b0903f3f2f1f50cfbf1f6f40afd
f20d07f2f3f4f8f3f0f602f205090c0e0df50df1f3f3fbf9fc
fa0ef8f3070d09070a0908f8110ef7050e0e0e0b0cfa100cf2
0f0d0bf3fafaf3f60d040cfaeef109100efaf9080c110c0308
f3f50d0af4f90ef2fbf309edf4f3eff3f2eeecf909f3f50b0c
fdf20a0af7f10b0d0afbf7f508f2f10b080b09ef0e0f11fcf2
0809f8f9f50cfb0d0f0f0d08f5f4fb09f8f306f20df90bf009
08f4f90e0a0df802f2eff0f8eff2040beef9f30904ff0dfe06
0d09f40bf80bf7f608f7090cf2f2f2f6f807f7fdf6f6fa0df9
070df5080df9eff00bf6f408f7f3050d0bfa0cf80e0cf3f4f5
f70d08f0f9f305f101f1f5f3f2f3f509fcfa010af2f6070509
0b07090af20606f40ff40ef9f3fc040ef40df2050e040af404
08fd0bf3f9f9ff10fcfdfd05110ff4f7f9edf90ef2f4ef1203
f30d0f10fa0d0e10f20cf3fdf9f9fcf206f90ef309ea0908f1
0c0dfbf0f904f00c0f07fb0cfef90af70e090b0e0df60f0b07
090d04f80c0ef7f50c060d06110c0cfaf608f60ef209f503f9
0b0d0b07f50a03fbf8f4f40ff406faf002f60d05f2f512fdf6
070ef7f0f60df610f70708f8f50d0f0afd0cf10a05f1fdf3f5
0607f4f6f9f3f4040fefeff7faf807eff60806f3f2edf505f8
090d09f0f90cf70af2f9f4f20b0c050b0ef50cf6fffcfc0df8
f40d0708f508fdfb04070b0e0b0e06f5fbf3fc080c0e130cfc
f6f407f0090d0f09f1f5f8050d0d0a0f11f90c1009f0f501f2
07faf2fefdf6f3f1f3f6f3f10cfaf2030e12fbfdf408070c0f
fe08fc0906f90d100a070a01f9f60df8f40a09f40cfa110b05
f7f5f5f8f30e0c07f9f7f9f3060bf6f2f20b06f6faf3f4f6f9
0bf6f50d09fc08f3f70ef3f3f205f8fc0a05fb0a0d0a0d0cf4
fe05f906f70ef407fc0ef7080611f3f3f408100a0af20f0909
08f30bf405f508f8f4f50d070f0df4f307f70d0b07fc0c0b08
fbf90810f3f60b0410110c0b0b07f90bf2f5ff0d0cf0fa0605
f3faf7f4fbf9f60206f7f309130d06f8f5eff9fbfffa040e08
0af6090bf9eef1020cfbf3f1f40d0af7f7f4f2f210f8f2f3f4
0af9f30d0dfc07f3f7f4f5f40dfaf407f6eef4f6f30cf1fc03
f50f0ffdf70ef3060d10f3f709f70f0b0cf9f50df90808f505
f3faf7f30cf2f4f7f5f2f20af8f208f50805080d0e09f30dfd
0e0cf30d0df405f9f8f8f3f2f5fa0ef0fa0cf9f60df709090b
040af6f70ef4f4f1f5040af1f109f504f60df9faf6030df7fa
0e0bf8fb0408f412f8f3f4f8f5070cf3f1f1f404f10d08fc0f
f20e0f0d0e0af90402f30710f8edf6f5f2f0f1f70d0c0df9f9
0b07f7080606f5f50cf90504f9f0f306f3fef4f4f1f5f2f10c
0e0d06080ef7f60e0bfcfdfd0d0d0a0d060e0d0b0608f40cfa
0904f3fcf908f2010df806f4f3f4fef2070d0a02f30603f6f8
040cf90604f9f6f4eff3fceff60d0a0e0809f704f60cf8fc0d
f20910f30808040e08f6f906f40a0d0cf6040f08f60af50ff6
0ef70b07080af4f4070ef30bf7090b0bf3f5f3fafbfc0efc09
f30e09070e0d0b070df8fa0c0df7f80b0604040c0af4fc0c0f
f606f6060e06070af4f7f4f10bfa0c0701f8080d050c11f80a
0ef808080b0c07f7f7f4f507fef2f80df90906f3fbfb0d0ef3
f3f90df809f3fef80d0bfe0e0d0a1007f90afcf505f704f50c
0dfaf40cf30bf3f60d0b04f103f4fb0a080cf8f30bf5fb0c0f
02fb0af5f6f40e120df5f00c0f0df6f5f20d0cfe0ff7f20404
f20b0d11f9f3f4ff080ef4f9f4f8f1f20e080cfc09f308f7f3
fa100b08f601060df3f904f80cfc05f9f30a0cf70f0df3070b
f3eeeff6f40bf3f41011f8f4fd0d0cf1f3f4100b09fa12120e
0ffa0bef0a0906f7fa080f060c07050cfb0d100afcf90bf2f4
110efaf809fd0c0df7f0040804f80ef50b0d110bf507f6fbf5
0bfbf3fdf709fbfb0f08fdf6fa0a0e06f9f3100ef7fcf40ff5
f50cf706f1f7f209f80d0d08fb0903f3f60806f705f309fd0e
0f06fb04f40df9070cfe0e0d0b01f3fe0e0407fb06f609f80c
f7f3f1f4f005f40d07f80df5f9f50e0bf5f8f80d080903f80e
0a0df5f7f90c04f3f7f907fd0d0b0a0e0c0df2fa06f50dfb0f
06f8fc0e0807f9ee0709f6f4fb0ef5f80c08f1f90ef0f20ffc
080df2f2fcf2faf00a10fef2110b0c07f4f6f3f5fdf5f60708
0e0d0d0ff8f4f4f40df50407f30d0df3f9f007060d0bf009f9
0807f2f2f7faf2f3f40801f4f3eefb080df3f10bf30a0ef6f8
f2f70af50b0d0309f00d100704f5140b0df2fa090bf3faf607
f1f3f30b08f4f9f0f50df2f3f3fb0df7f6f7f40d0a08f40a0b
f6f90cf707f306fa0511f9ed0805f6f4faf4f7080704f006f4
0f0c0b0ff7f8f6f7060cf2f2f6f60d09110bfc0d03f1f9f90e
0d07f6f2f30d0c10f2150c100e0c0906f4090c0f0f130e07f4
f8fb0bf8f4090b0f0d1006f806f308f3f6ebf40df6f7f80ffc
010e0e0ef50c030c0ef30b0b090a100508f1f1040cedf20e0c
eff3fb0efdfff506f40b0f0f0a0b04f30d030ef90af406f7f4
030af906040afc0d0605f3f7f9f209f7f40cfa0b09fef4fa02
f6030710faf7fc03f0f3f4f1f7fa08ff09f6f9fbfaf1070bf1
f8efeff2110ffc060c0e0afaec0f0b0508050b060409040af8
06f404f7080ef3f2f3f8f40604fbf70e08070c0ff60e0cfa07
f50f10fceff50d03f2070f0404f003fe11f4ee110b100bf20c
f8f3f8f40b0ff6f3f409fb0df609120f11f60b0e0f0ef30ef6
fef8f40b06f80d120e0a0afffafcf306070af80610fafdf2ed
f5f90d0b02f6fbfaf9080a060707110df9f9ff0e060bf90d08
f8f8f0f1f20ef7f108f80bf8f70ef7f4f9f5f20e0d0b04f3f8
f611fd0c0af8060d100dfd11f7f9f3f2fcf1fa07f20a0ff4f3
f4f3ef0af60ef40cf80208150f0dfff4f30b110ef202060af6
fa0d0df60ef3f30df3f4f90d02f2f7f0070c0e060bf4f9f20c
060ff8f5eef80d0a060302070d0f0d0f07fc0df70e0bfa0bf6
0ef80ffd09020a08f10c030813fcf5f807f4ef070df2fb04f2
f3f6f706090cf3f4010c0af9f707090103f807f6f20a04f0fe
f90df40cf10df80909f2f2f3f108070d070701f40bf40bf6fb
f70cf9faf70d0cf40ef202f20d0d070c0c0e0a08fbf2f3fe04
f2f5faf20e060309fdf80cf9090dfa0f080d0a0a0d0d0e05f5
0e0d0b0ef30e0c08f8f0fe050bef02f80f060afcf80b0c0ff7
f90a06f80bfaf2f60bf40e030b070f060afa08f70dfbf3f3f2
07ef06f10af50f04f70707f7fb0bfb080df3f0ef0d0d0bf70b
f9f7100a0bf1130ff107040df50d0cf50e060603f914f2f40c
f8120df8fd0bf5f7f5040d09f4f7faf7f20b06f407f71011f6
0d0cf3f40d0f10100805fc0afa0cfe050f0bf5f30903010e09
09f3f9f8f70df7f4fb0607f90d07050cf311fdf80df2f9f107
f30cf3f3f3f80ef2f4f3f8f3fa0d10f80efa05f30d090bfaf6
f6f4f4f1eff5fbfcf8f0f60ef210fa0708f7f30cf7fff7f20d
f40e04f3f0070d120d0b0d0c0ffb0d0b0a09f4f5f20e0b05f2
090ef00af4f3fc05efedfdf811f5eef70e021008fa1010120f
f5f70d0e0f0a0c120c13fc100209f9040ef3f20ff30601fa08
f60a10050df40e10f2100504f40612f90707fc0f100c0cf80d
fff5f4f40cfe020cf1080e0ef2f7f4f4f90e0f1106f31207f6
0cf7f2070e0df9f5f7f309f40cf30e0909f8f90df9f6f606f7
f1f3f5fdfbf3f9f90d0e040dfaf8f90a08f4f8f2fb0d04f7fc
f1fd0a0e02f8fb0ff7f6fafa08eff7070ef403f30dfaf90e0c
f40afcfef3f20ef20c0cfb0e09f50afaf80df4020e06f7f5fe
090e06f0f1fa080d04f6fff0fcf3eff2090ef5f40bfdf8f50a
f30a0ef4f30df6f607ee0afa05f2f1f3f41109f4f3f30d0dfe
f7090ef2f10308111210070ffb060df20b11f40ef20c090f08
f306f20d08f3f30cfc080809090c0d0cf7faf1f9f4f5f6f9f5
04fc03f6f4f60bf2f0fef90f06fb0ff5f60bff0e09ee070f0d
07100b10f8f1f30b0cf3f3f30e10f3fa08f10d0f0a0af6090d
f2f1f3fa0df3eef30f02f60bfe070e0f0709f90a080ef307f5
0f120d0a0c090c161007f3f4f4f8f50df7faf4f2101107eff6
f210f2ecef0afe08f8ecf1f0140df6f8f20e0df6faf1f3f9fc
090e0a080c0a0a0d0e110afd0cfc08ef0a05f1f00ef2fdfaee
04fff50f0607f3070d0a05f7080d120d0af309f4f60f07f3f3
f90e05f0f2fe01f308f1f20d060209f90bf4f5080bf70c0eff
f6f20b08f9f6f3fcfaf801f5070a020a0ff203f8f40c09fbf3
060f0e0f07f3f5f70dfd0cf9f10ef90f0efd0afe050d0e0dfd
0d0e0afdf10cf4050ffdee05f3f7010d0af4f3f3f5fa0e0a0a
fbf50c030af3070dfb0bf8f1f4f70e0e0806fbf3010bf40f09
f4efefec03f5f6faf9f40f0cfaf508f80907f9030bf4fa04f7
f4f6f30408fe0efaf2060f0e0cf7f4fd0e07040f08f60a0b11
0d11120b0df009f8050df8f3fc020bf5f4f1f2f4fd0d120df2
f40cf1f2f4f40506f8f1f60807f502060df20ef50b0205f4f7
f6fe0c0a090d0b0e0af601f3f4f30cf80ef8f3f60e0df3f20d
07fdf2fbf8040afd060cf90cf6f6080a0ef3f40dfe07f80a0d
f30d0ef6040df2f5f90bf3f30cf20ef707fa07f5fbfd08f3f3
f20cf7f80b0c0404f7020efdfcfcf60ef4f8f6f9f40d0bfffa
08f5f90c0ef60af5070b0cf90cf2fcf50af5f3030bf2fb0c03
0bf5f2f30805f7f1f90d08f405f20df70c0a0704f4f40d0cf9
0bf20bfe04f8f50b0c0e0b0d0e0df60d060df7fa0a0807f3f4
0c08fd06f7f9080a090df50c08f801f4f5f9f90df3f3f805f8
06f20cfc0cf20c04f7fb0d060df5f6f7f3f3f4f70efdf30709
0df7f2fb09f4fcf7f2f2f6f8090cf2f80df40c0e0c0df7fd07
fb0707f2060af8f6f203fd09fb0afcff0d0bff0df20df304f6
0df3f8f70af7f208fef6f20bf2f306090df30b0a08f4f8fd0a
f4f4f20ef30bfbf108f9fd09f807f607f409f8f3f70d0b0cfd
0cf4f6f7f80af5f3f40cf30df2f8f7f3f3f7f40ef4f5f308f4
f9f107fbfef30bfc09f5f5f3f5fcf40d0a0b070af7f30a0e04
0c0d0406f3f2f604090df30bfe0c0308f5f3f2f2fef4f304fd
f4f8f60907f4080e070df2fdf9fbf609f3f4fbfcf20f0cf404
0e04f207f2f5070af50ef1090d0df90ef8f50df208faf3f704
f3f10cf809f7f50ef2f50ef2fa0df2f6f709f4f2fa0b050bf3
f70e09f508faf70af6f20c0efafb0c0607f7f3f10af60d04f8
f408f7f30cf2f70ff202f5f3060e0a07f20a0dfdf8f4f309f5
0a050c0b03f30d080d0dfa0cf306080e0df3f209f8f5f2f6f7
05f9faf70e09f3f70a09f5f3f509f80c0b0b09f70b0cf7f40c
f8f90af30af8030d08f30bfbf2f603090e030ef20a090df2fd
0c070ef50907f4f70c0d0af806fa0c0b09f2fa08f70e0c08f9
0a0b06f4f3f90bf6f3f7f40d0e05f5f50d04f20dfafafa0e04
06ff0dfff3f70df2060b0af8f7f9f305f2f8f405f20b0d0df4
fd07faf8f2f70b0bf3f4f4f8f4f8fefc0704fb0709f80ef2ff
f20df7ff0f0af7f40cf8020afff4090afa06f3f8f5f9f5f601
0a0d0e0d07f202f9f40502f4f306090ef6090b090efafcf5f7
0c0d08f3060dfef0f3fd05f3f809fcfc070cf3090df3f707f2
f6f8f4f5f60c0d030af40df30904090a0cf2fc0ef20bfdfcf4
f90cf4f909f5f20e0f09f807f610070df5fcf907f70ff40af2
0e0b0cfa0707f90f0df209fd0b0cf6f9f2f80a0cf3f209f409
f90d0bf8f5f8060dfa0bf90c0ef1f30e03fef3f7fdf8f70c0c
0d0bf3f00bf20f070301f6f2f7f30bf40ef20cf90c0d0f0cfc
0df70208f20d08f8f9fcf5f309f5f6fff50ff2f9f30af4060c
030cf2f3f8f7fa0c01060a09f6f90a0cf3fe08f309f80af2f2
f808fa090cf80cf107f10906f80bfa0af004faf8030dfc0a0d
0efaf6fc07fdf9030af10a09f3f4060df80a10f2fef210f8f2
f3f70efb0cf408f607f5fd0d0cf8f4f5f2f608f4faf4f40a03
0b0dfb0a0c0afaf40dfbf60ef3f2f3f5070c07f7f70bf2f503
f1f8f8f509fa05f9f4f9f80cf8f3f2f8f8f2f20e07f60af5f5
f70b0e0c05faf607f2f2f9f2f2010709f60e0cf7f50d07f50c
0bf7fc0cf10af308fcf3f2f5f20b0609f40a0ff8050b08f804
0df3f4f3f00df105f4fa0e020d0af3f6f20d0b01f80dfaf2f7
0dfaf909080a0dfc0c080ef7f60605f8f30ef8fdfef2f410f5
f2f3f20503f70e0a0e0cf909f80bfbf8f4fcfcf2f4f809f40c
07f5f2f2f30706f20b03070d0d0afa0e0e0d0e04faf6f3f20e
0df2030909f4f3f40708f70bf5f8fb0e0af80c07f70608f6f5
f7fc01f30709f5f3f40b0cf4f30e0bf3f303f30df9fbff05f6
0d0e0cf60b040df30d0a0df40c0d04f307060ef50c0af90ef4
090df60e0cfbfaf204f307f3f3f20e0bfbf60d04090709f3f2
f70df40d0a050af6f6f70afa0cf8f9fff3f7f4f30df80d070d
0ef40e0c0d070efaf2fcf7f1f8faf3f10dfc0df3f6f30708fa
0d0d09f8f2f407f209f5f6f3f6f60bf30b0b0c09f3f4f8f20e
030d06fc0df3f80dfe05f2f2f908f5010ef3f9090cf80af70d
05090df70b07070b0bf4f5f801f207f5f50df3080df806f407
fb06f703f60d06f907f4fd07f3f6f30608fc03f8f3f705fd08
f306f60df60d070e07f3f6f80202f201f3f4f70d070cf20607
f4070e0bf20d03f8050606fef708f70109f2f9090bf20d06fd
09f6f4f2f7f3faf3fdf2f7f80ef4f2f3f2f5f2f6060df2fa0d
f2f808fb06f80b04f3f9f90c0ef4070a08f3f5f2f30cf4f307
fef905f3f9f9f3f9f70c0203070cf8fa09f6f209f9f3f2f40d
0af2ef0d0706f7f5f1f4f2f5f304fef1f80e0e09f4fd04f9f4
f60e080df40cf80f0df8f4070c04f3fa06f3060e0a0ef70e0e
0b060907fcf8f3f0f3050e0e09fbf810edf810fb0ef6070f08
f7f7fc0efcf30e0efdf4f20d0d10f1110dedfa0f0ef40c0df6
0b130df9ee100b0afbf6f1ecf6f6f20afc030bf2f30813fbfc
f60d131609f808f80d0df50912f4f3f4080af1f10cfa10090c
f1f30bf8f8070d0408080911f60df40909f4f9f10a04f70d08
1011f704f3090df804f2fbed08faf4f601fc0d0df40f08faf5
faf509fc1009f7f80a090bf3f307050408040e07f30af705f4
f6f808f0f5fd0a0e11f3030c04fb100c0e020b06f909f4f60e
f4060cfaeefaf5f303f00ef10705050ef40b05f606fd0e0601
fb08030b0b0e030b05f30e0af4f30af20d0af5f106f203f4f6
f105edfaf8080bf3f8f10ff7fa0ef9f3edeb0c0bfd05ee06f3
f0f9f2f403f2fafbeef4fc07f1f7f6f8f6f20af9f6fa0e090d
020906f2f70df6fc0d0e0ff60c09f90e1203f8070d0afc0707
f3f207eff1f8fa0f05f10ef6f80af3040e040c0c0df4fd06f7
f7f6f6f30dffeff3010601f2f40e0d01070bf10c0e06f3f3f5
07030e0e05f913fe0e0f06f80cf7f9f6f908080a0bf80bf60a
f207130ef6f2091510120503f4fdf30af8050809f80ff50a03
0d0a0ef40c0e090feff0f2f408080bedf8120d0d0ff8f9f60c
09f8f3e7e806fcf5120cf6fa090b0afff5091405f3eff7f9f3
070a0fecee0d10fbf4f208faf309f7fff30a0d0df2050ef40a
0d10100cf50e0f0f0bedf10c0ef1f10c0cf3f40cf30dfaf90e
0df4feeef20c0df5f6090a090c0c0ef4f90cf60bf5f20bf80e
f8060e0af0f30e05f4f2f7f9f90ef5f10cf40e0b020d0c0c06
f904f40bf0f8f4f10cf9fdfc09f3f3fbf60b0af3fa0efa08fa
060df4eeed10f20cf8fa080dff040f0af4f2f70a0d11f4f307
fefa080a0cf40df20a0df3fef80f0b0e0d0c08f3f40cfc0df8
0beef7110d0ce9f0050bfbf7f5060ef9f608f7f5030bf4f107
f4f80803f4f3f8eef4fa0cf20c150f0dfb080e0f0ff8f0f80d
fe0e060f08060c0dff0e0efb0af6fdf40d0ff50d0e0e0f090c
f3fa08090a07f70609faf4f9f0f8f209080bfaf7fdfa0df406
f8fa0af3f3f9fa02f80df90afbf40bf5fc07010f0d0e080bf6
f506f10df9f8f1f90e0d05f7060807090ff1f5f40c0a090d09
04f2f6faf8f2f80cf60ff415070f0c08f6f509090e0dee0d08
f70e0b040ffc090cf50c0a0e0cf1f80701f6ef0ef4fd04f309
0d09f2f8070a05faf00cf8f3fef5090e0cfd0d07f3f30df7f2
f2f6fcfbf708edf9f2f404fc0df0080206f8f80f0d09fd08f4
09f504f7fc02120afaf404100804f302f3fff7f507f4ef05f2
f90e0ff3f404eff00e0cf3f9fbfaf30f0f08f5fe0af8f30e08
040a0e080e0b0d08f3f10dfe0a02f7f4f50ef20303f6f50ef6
06070f080af00cf4f60af309f50df1030efff803050308fc03
0efc0af60af5f0f706040b0408f6f5f5f6f8f5f30bf70a01f2
0af404f80d060e0efe0c0df30cfbf6f9f60e0ef4f501f4f2f2
070ffaf3f3f50b0ff90e0c1008f2f40c0f0f0d0b0d0d1013f6
f5090bf50d07050d0b07f4f7030710f3f5f40503fa1310fd0c
fa070ff5f8f70d08f50efdf60f05f005f20df3f4f503f3f40d
f3f5f70c09f6100e08080a06fe0e0e0e0804030c08f5020dfd
0cf5f8f3f20af40c0af30ef20cf5f2020cf2f60e04f6f7f302
f2f5fff2f204f4fe04f50df3070df6060702f703f5f207f8f6
08f7f2f30204f20e0804f3f30908f7f4f8f20ef4f308f9f402
02f7f7f30e05050cf30cf3f3f30cf4f809080df708f3f90907
fc0df20a09fd0cf808f7f2f4f4f9f20df7fd0a0df40c0b07f2
0df20a0bf8f60909f90dfa040ef7f3f6f4080bf20df6f8fcfa
fff30df3f90a08080cf30efe0df3f90c0e0bf6f306f5f90af9
07f4fb0b07f207f707f30c0cfdfd0409f8f70702f8f70df30b
f309f303f3fb0c0cfb0df307070dfa0b0ef4f306f5f20a08f4
0d0c0d0aff07f3f504060e0808fd0e07f9f4f60a0ef3f2fb07
f2fb0df4f509f2f8040bf60e0b0bf5080d060cf2fb0df2fd04
f208f9f209fcf30efb06f5f2f7fef807f7f50e0df70b0ef406
0af408f308f3f9f305f9f903f2f1f30309f30df3050e0a0c06
050bf80a0d0df3f106fd0c0bf5090d060df4f5f9070a0807f3
08f4f4f7060efcf2f40cfcf70d08f60901f206f30a0af2f80a
fcf5030c0a0e0c0afc0b0901f70df205f2f40b04060708070d
0cfcf7f3090ef5f2060c0e0c090df20df20af6faf304f9fc04
f6f5fafc0ef2f4f709f30d0cf30a0d0608fa0c0cf5f5f7f90e
0d0df80d05f3fbf3f4070a07f8f4faf70df3f2f4f90df6f70e
f40609fafb0c090cfff9f5fa0b03fa090cf4f404f8f5f30d05
0b0d06fcf30bf2f9f20cf30dfc0a0cf3f90c05f8fa0c0df906
f8f8f40bfa0c0909f7f60e0af2f706fbfcf307f6f3f306f90e
0a040c0ef4f409fdf4f2f3f50e06f507f4f4f20e030d090e03
fcf8fa090a0cf409f40bf3f70b040cf4f40a0b0a080cfaf40e
f3f3f70707f6f5f8fbf50c0af6fc060c02f20bf50ef4f5f70a
09f90df507f60d0cf4fa0afff2f7030a0bfafaf6f30af70d0b
f7fdf8f90e06fafcf3fafcf209f30b0ef8f2f306050e09fc07
f6f707f70d0d09090d06fcfc0df60c0df5f20d0606f9f807f5
f2060c0af90e0df6fcf6fd0c07f2f50c0e07fff1f80cfbf4f5
f3fdf50df8f2f4f6fa0a05f4f2f3f4f7f3f407f50ef807fa06
f3f4fbfb0df3f309fcf506f3f2f8f204070c0afd0df30209f6
03f8f70cf9fa08f705fc07f7090b0c050bf50e0d09f404f90a
f90c0d04f50b0c07f9f6fbf6f6f4f20dfdfa080e0b0ef207f2
0ef2f2f8f2fef4f4f70bf3f807fdf30b0cf1fb0a0ef50c0505
f2070bf2f304f8f3fcfd0e0df70ef4f3fb070d05f40a0afa09
f30bfef309f2fdf1060af3f40c0a0cf9f306f20ef6f4f30d0a
f50d0df6f5f50e020e0af3f8fb0b0e0a0b050d070df20bf7fb
0df6f5f209f2f8070c040e0af9f20b02f9f3f70df907020808
0d07faf2f5f20a0bfd0709f3f3fd0af406faf5f3f2f4060cfb
0d0a0c0d0dfbf40af608f3f50ef20d0ef6f4f20d0e0df5f6f9
0d0c0906f3060df3f906f90ef50e06ff0df30e0d0b0908f3f4
070e0cf8f6f50a0af90a03fb0cf7f10bf6fbf909fcf306f4f7
fbf208f3f209f307f3fb020706090b080609060cf5f40a0af3
f5f4f3030c0d080d0af8f90a0b0e0b0c08faf40bf2f70dfc0e
0ef5f8f203f3f3f7f9f5f2f2fa0c0308fc0e0bfcf906f4f3f4
f30dfb080c06f7fdf3f40df2f1f2f3f30906f8060908f407f8
fef5fb0cfb0c0a070bfa0d09fff5f6f70df10bf1f503f2f404
f20b08090df7f50b0a0ef5fb0a0df7f4030308f20905f4f9f8
f90c07f30c05f5090c0af3070ef5f5f30906fd0d07100ff304
0bf0fb0b0407f609f20df3f6f1f90708050c07f00c0a0909f3
f6f7060af8f30309f8fcf6f3f7f30e090ef509f50803f40e0c
fa08f40706f3f2f6090a0df8fb06f803060df7f209faf2f9f8
070b0b0af907f80d0d0ef91010f809f8fefef2f3f3f70d0cf1
f7f7effafbf2f4f00b10f3f5fbf5f40f07f3f2f30ffd0c06f2
f4f50bf7fc0903ef05fdf408f8f30d0c0d0af7f5080c0d0df9
ff0f0d0c07f50af2f3f0f403070f0ef1090efb0cf3060af5f2
0af2f7f6f7030b0c05f502fc0df3f3f7f6f407fa0e09090ef3
faf0090d0df5f3f7f6f40602f0f1f30d070c060af2f4f80309
f2eef2f408f9f5110c0ff50707f506f2f902f20e0af70cf602
f40d070bf8f303f30df70d07f70d08f4090ef40c0ef4f6fb0c
f70df410f30908070bf403f50efd06f5f1f810f7f70d070bf4
0cf107f6f708ef090e0ef703070c0909f4f810f0f9f30ff808
fcf5f8f7faf90c030cf1f3f4f20a06f90b0710fe020df50af6
fef4100df8f30b080e0a0af9f608f7f409fa0a090a08f906f3
0c06f602f3080d0904f908f5f80c090df5070cfaf2f2f4080c
06080ff60ef40df6f4070907070c0d0e0e0bf2fa0ef4f40df8
f10e0c0f0ef40c05f80df3fc090d0b030dfc04f70efef5f007
f304fdf40df8fbf2fefbf4010602fb0d0d09f3f4f3f70df60b
fb05f1f50a0ef3f2f50ffaf5fa0d080e0c0b06fa0afd020708
f2f50af8f70d060dfc0bf20cf4f40e0bf3f510fa0cf7f904f3
f50dfc0c0506020cf4f7fa05f3f4f9f2f905f7080ef5f50806
f3f709fdf9f80af30a090a0e0ff409f508f30d06f30b080f08
f403080ef30705fa03070df8f40c08f7f3f20bf9f7f20dfcf2
f8f60c10040df4f5f3f70bf3f8f208f40ff9f50e06060df50c
f8f0f9f7fcf60e090911f6070a080b05fa0e0707f7f4f7f60c
0af7f3f6f409f90c0bf8f6f4090b0ef6fe0e0e08fa06f9f80f
0cf3090cf8f30e0b09f207fa08f4f0fb0cf9f4fb0a0ef60af3
f8ff060d0e0a04090cf50ef70ff10d100cf4f4fa0cf30cfaf5
0df6f4f6f5f80cf50ff9f4faf2fb08060af30cfe0d0f0bf9f7
f4050608f50809f5050c0bf40ef3f60cf30bf609faf1f30c0c
faf30e0df6f90cf20dfc0b0d1006fdf6f7f7080e080bf51107
f4f4f6f3f3fd0e0efb0cf8f5f3070df80cf40cf90f0df90d07
0f040e0b02f50e01f2f10cf4fe0709fa1008100ffcf7f2f2f0
0f1008f2f1f10a0b110df3f205fcf9f3f809fa080ffdf3fe0a
0ceef708f7faf6f4f80f0b0a08030af7f5fbf2070d0d0b0d13
f7f40cf2f11308fe09030bf8f3fe06fff1f9f8f50905f5f2f1
0d0d10f8070811fa0cef100c110a07fcfef4f60cef03f2f6f1
f103f0f70cf211f806f9f4130c0bf70d0c06f70e0c0ffc070c
f2f4f6f70b08faf3f90df6f30b0ef409f4f9f3f40c0d0af4fd
f5090af6f7f50a0af9f7020af6f70df80d0e07f30d0bf9f808
070904f1f7fbf407fe09fc06f2f1f2fcf4f3f3070ef80c0a07
0b0802090e0e05f4080a07f2fc05fb0b0d0ef404f30b0ef3fe
0e0d0c0607faf7090f0a0ef70af60ff90c03fcf2fb020c0d0b
0d0efafbf9faf5eef30f08ef13fb0ef4f71003f3f6040b0813
1210fa0c0d07f20b1008f70805f2fdfcf7f8fb0c0e100d05fb
f7fbf403f5f7f3f50df3f40a0cf8f8f2f80df4fa04fbf40b0d
0cfb0bf40902fd07f00110120ef2f80a100310f3f6f8f7f7fa
0b05f8f8f501f9f2060efa0a060cfa0f05f0f40af7f7eff8f4
f60cfa0f0cf1f60a0f1003ec090f010e01f3f6f90b0df5f0f9
01f80cfff5f2f00a0ef90bf4080507ee10f9edf007f90cf10a
0ef613fa0b0a0e090e0709130ef809f910fa0c0cf4f4f1f30c
f2f90c0a0df3f2f3f1f2eaee0203fdf5ef0af708f1f1070cf4
f1f5020f0bf2f3f206f7edecfaf70bf4ff05edf80f0ff80e0e
090611f908f40f0cfa0af2f50ef9f2f10bf80d05f7f7080507
0807f208f3f5f60ef3fbf20dfa0ef6fcf605f9070bf50a0804
0d0e07110e0807060608f5f4fe0df3ec0a03f10df00904040c
f9fef3f8f8f5f807040a0d0a0d080d07eff2fa10f2f4f8eff0
f408f8f20d04fcf5f20df8f20b0cf7f90805f30bf70c0e0d0c
0e10070af3f205f7fb0df7160e080404170df901fa0e0affec
f50c10f3f4f70d100f0efe120d0c09140ff6050f100a080af3
f4f20d10100a08fe0f0ef0f40bf6f3f5f1f6fdeb07fd0af2f2
f7fef20cf7f3f9f9100afc0d0ef7fdf8110e08f50efaf3f2f3
f40f0f0808080a0707f2f20ff7fa04fa04faf0f90ff40df20a
06f2faf20f0e10f1effc0f0cfd01f1f6100afc0df4f40a0bf4
0d0307f502080df1f2f01111f6f6f3f5f710f90efefaf8f9f8
07f305f6f80f09f1f50af913150e0ef2080ef50bf3090e010c
f30b0b1011f90cf70a120c0df80a080d0b0df2ec04f4f8f9f4
f1f00d0ef9f8f9070b0d0412010c0d07f404f3ef0cf70d0ffd
0708f70bfa0cf6f6f10b0c08f310140914faf60cf2f7f906f1
f80d0e100ff3f10a090ef41004f0070e1107f0f7f3fd0a0b07
07f2090f0dfbfa08f70df9f9fcf108f40af6f4f7f6f40c0ff4
f7f8fafdf60a11f9f4fb03f60df91008fe07fa08fc0b070f0c
f50aeef21107fff5fe040b0c070cf305fc0b0ceff210100cf4
0cf3090b0ff8f2f9f5f60cf9fef30a0e0af6fcf90c0e08fa0d
0d0903f2fbfa0e0b0aeffa0911f4f0fe090706f008fd040404
fb0a07f4110a0f0d0af70a050407f0090a0809f0f4090d04f8
f20af504f90c0df9f3fb040713f4f3f3f4f406010a01f2f5f6
0f051212f7f8fb04fdf4fc0d0e0c0b09060d06faf008070909
f308fdf307fa0308f7f7faf3f2f1f2f4f7f503f60d10fa080c
06f8fbf3f6fdf3060ef00c0ff90bf1f3050f0af3f5f6f4f8f2
faf80709f6f307f2f80df2f8f6090df40606f3f4f40a040af3
f2f1f5f9f9f3f70701f2f2f90d0d0603040efb02f1f20af20d
f50f04f5f3f9060df7f6f5faf5f30d0b0ffbf8f4f1f3fdf5f5
06fd10130f0cf2f8f409fc0b070f050504090df5040f07f70e
0504090d0cf8f2f50510f7f404f20a0b0b0cfcfe0e05f4fb05
02f70d0cfb080b0c08fc0af80cf30e08f3f205fe0cfa09f4f6
04f20d030a0df8f3f601f6fef1090cf40d08f406fcf9fcf6f7
fef208f3f9f3f80e0b09f9f20c0d09f2080d0eff0cf8f6f80d
f1f70d09f6f9ff0c06f4f40411fd0d0d0d0cfdf5f6f8f0f3f9
f4020df4fcfe08fc0c06f90df40df5f308f3f309fb03f9f505
0ef307080ef705f90c0e0ef9f8f206fdf8f7f2090af40df4fd
06f5faf9f8f20806f40af3f8f2f40b060b0bf10df8010af9f9
f5f306f4f3f408f6f50bf3080b0d0f05050d0e0e0c070e0cf2
0df3f50d0d0ef80af108f30d0b0cfcfe02f8f30d0e070c0d05
f20af20b080f0cf60c090dfc050ef211110afb0e0cf6eff4f3
08f1f8fa06faf2eff90f0a08f9f7f1100bff07f8f906020bf8
0904fe06fcfb0d0ff3f9070f0d0707f5faf5f3fdfb120bf40d
f8fd060e0e0a0c0eeff70c1210eb0cf1f2fcf20df407fb0ff9
0409f8f6f5f502f70aecf3f5fa010a1116060a09f3eeedf409
08f40f0b08efea070bf3f6f20af40ef1f2f0fa100afd07f50a
09f1fdf1f708f4f30c100a040ef6100e06edf5080e0c0d03f7
0e13f90afb02f2eaf8040bf40205f4100c0b0a0508eef3080c
090e0d0d09f502f30afb0df5f7f40a060c09f2f2f20b0a0e07
f60611090bf20d0ef2fc0e0d0ff8f4f3f7fdf50a04ff13f608
fa11140ffaf2f30a06fc0efa04070cf30ff20e08f7f3f1f20a
050cfafcf5f80e030d04f3f3f9fa0c0608f9f10bf2f4f306f6
0df2ef040af2140ff3f0f109f506f60b0a0cf70ff2fd130904
f8ff0c0bf70c100ff3f6fb0df909f7fa161409f70d14f20dfa
f4fa0f030d0a1009fd0bf50d0ff403faf50ef309eef40ef60f
f7f90b0cf21012100c0af706fbf6f30a02f7f4f4f70c0df6f8
f907f60cf30e0d0a07f3f2f2fe0cf7fdf60205f609fc020905
f7f8f306fd0cf4070df40bfaf6f9f8f60ff508f608f3f20ef7
070c09060606f3f70d0bf8f50ffff5f9f6f9f2f4fe09090df4
09f70806f20afaf30708fef80a07f30bf30ef00c0af4090cf8
0e0c0204010f05f1f0fb0af1f604f9f604ff0ef7f9f3fc0af8
0a0ef4f3f1f407f9f8f7f40f0d04070a0af4f30df40df8fc06
f40a03090d0cf60205f50f0e06f4f1f3f009f6f40df20bf8fc
0c0af60d040c0cf5faf1f307f9f3fff5f407f809f8f707f606
0e0808f20af30d09f3020ef4040dfa0c0cf90efa0efb09f308
06f2fb0ff3070903f908f8f2fb0af1f3f4f9f90d090508f2f2
0f0e0cf1f30df4f8050dfaf2f2f7fdfff5fb09fc0ef40e0a08
f2f8f2f608f20e0ef3fb0c0ef4fe0ef908fbf308f702090ef4
f8f10af709f6fc04fb09fafb0d0b0afd0e0ef60e0efd06f4fc
0c080d0df2080af5f8020af4f9fb0af20b040e0c09f3f5f606
06f80ef9f8f4fdf608060cf109f40c0c050b0d0bfa0909fef8
0a030b080407f906110d0d09f810f6f304fbf2040cf4f609f4
fd0d0e06f70ef5f50af80ef4f6f5f906f50407f40cf6f7080c
0df1f3f9f30e0afbf4100d0f030d0c0702090af8f307060bf1
f406f208f4f30a05080ff8fa0ff8f7f301f7f8f90d09f8f108
f0f4f3ef0f0f0e040af4100c0e040ffcf106fd0df3f60502f9
07f80c0b0d0901f31005f306f2070ef90c140a0aeff1f6f3f4
f4f6050a1109efeefceffdf3f608f8f1f710100af604110d04
100ef609f7f408ecef0df30906faf9f20df80f0ef9060b0e06
040c0cfdf4f909f6f9fd0cf90cf00e070ff40c0ff1f3f10e0b
f5f4f9f2060e07f90cf408030cf4f60301f6f3070dfbf40cf6
0a0703f20cf90f050af8f20c0f100feff6f6f8f9060bf8f507
08fbeff4080c0707f508100d140b0cfa0c080afbf409f1f7f4
fc0e09f205fbf306fafd08f2f8f8fe0ef3f30c060507f2f50b
090d13fa0d090ff90d09f703f40df2f10712faeff61009eef9
fc090ffe0ff30e1104fe0c0e10f70d0d12180d030e0ff6f0f2
0d06f4f00d0c0d0212fa0ef50e120ef1f710f30606f6f3eefd
f2f90ef9f70bfb0b070c0d08faf0f20b07f6f10cf9fff10608
0e01f1fefcf305050806fd0907070c050a01f1f7f8f2f2060a
030e0f07f30ef6050af90ef40cfb0b09fef30b0cf3f9f1f5f8
0df9f50e0d07f30807f80907f5fbf50804fa11f310f2f9f3f3
f1060bf3f9f9090d08f5f2f4fb0f0cf7faf309f7f8fbff0807
fa0106f3f0f5f2f7f1f50ef9f504f60812f5f70af706f0070e
0cf406f10e080ef5f7f905f20d07fe0d0b0e0f0af6060b0ff5
02040cfcf50df40a0df705060ff4f6f8090e1110110c060e10
0bf4f30b05fc05f20c070ff3f10704fa0af7fb07f30bfc0f0e
0af30e0b0af8f8fff40df8fd0c0b0c0d0e0d0af40bf2f7f40b
0ff9faf4f40df3070f0f0ff2f60706f20c070e09fefd0c0df2
090f0bf2f8f30d090cfa0c0906f506110df6f1f10ff401faf5
0c040a060a08f9f8f60cfa060ffdf50df5f7f8f405fdf90d0e
f5f90dfc0d0bf20d0df4f8fbfd0cfefb0a0cf6f9f806f8edf4
fdf506f70a0b0afc0d0df309f6f7faf9fb08f30d0d0aecedf2
0af0f3fff50a0607f60a0ff6060efb0cf30efc0e0c06f409f1
f20bfaf8faf4f9f6f809f3f3fdf0f50711fdf1f30c0c0402f3
0cfc09f6f9f7f6f80508fafc0bf8080c0bf1f20d09f9fff80c
08f7f9f30c0608060df305f9f7020bf4050cf70af40e010609
0706f4f9f20209f2fa06fc02fbf30cfdf30c0f0b0b090ef40e
f705f40209fc05f6f5fb0709fb0e0a0309faf508fdf705f5f3
0e0cf3070df3fafb06f4f507fa09f9f60e0a0706f509f40ff6
0af8f6f2f3f9030bf3f109030f0e0408fb0d0cf90df4f609f7
0cf709f9040e0ef5f3f30c07f80ef2f5f4070c0e0b0bf9f40b
08f6f60df3f308faf40cf3fcf80c090bf608f3070d070bfff3
0b0df4f40b0cf2f504f7fef4f4fb0bf4f3f7faf70208f60e0a
f208f3faf3f3f5f8f30e0905f5f8f9060a0a070cf9f9fa0b0a
0f0407f30e04f30e0a0a0c04f1f20df6f4fcf2f70b0d01090c
fef409090e0e0b0d0ef8f8090df2f3f30cf9fc08f305f9f701
f506fffe0c0b0b05f508f2f40f07f306090af9f3f7f307fafa
f409f906f30df2f9f3f1f20b05f2fff4f6f5090c0df9fbf40c
f30ef60e090d0df7fcf3f208f3f6f4f20df90c0d0cf20f06f2
06f60ef4f4080a070bf407fafcf8f6f309040c0a060df4f3f5
f60e090e0a0ef9f7f1f30a070d02f9fdf807f4080e0df2f9f8
f3fd0c09100c060d0dfc0afd0ef804f2f4ff080afdf310f80d
110f060ef2fa12f4f2f00310f305f1fb110bf70df70df90bfe
f0f0f8f6f9f7fd0e110d0a100e10fa07f10d1007f0f7f7f6f4
0ffdf41107f9f701f3100a100f0ef80f1311f2f4f6f2f3f110
f4f3f8f709f90afa050902ef020910f9ed03fdee0cfe1110f6
0f0f070df90c03f1f80ff407f2f704f9f20bfd0c0f07f412f5
f608f70dfbf2f3f4f90cf90c0cf911fcff06070aee07f009fb
080b0efb0c0afb0a0df505060bf1f30cf4f9f3f2f9f3f50b04
0cf10bf30808fb100e02f5f1140e0c03f40813090c0cfdf409
05fdf0f3f2f30b10f6030efe0af6040e0f05ecf9f50fff090e
0909060bf3f60dfcfb04f3060cf4f9f3f80ef1f3f4f6fafc0d
081215100e030a0ef9f107fcf808f30e0b0b10f8f20c05f1f4
0dfe0b10fbf40efc0707f8f50df907f30e0f0bf008f80df30c
f3f6f0f40efb02f40d060ffc12f2fd08f20f1212f009fb0a0b
0cf412100c08f70af4fc0dfd0805f30df511f3fdf20df0f6f3
0a0df80e0c0cf104f60d07f80df507f1eeef03f7f2f9040ffa
fa0e0a090d08110df1f20af30d04f3080d0907f5fa0b08f50d
070e050ef9fb0bf1f1f8f6f309f7f10ef70d070f0d08f5f606
070b0ef307f40cfaf5f40df60c1008faf90bf0090ff9f7f109
fef207f4f90af008120c0a0d10f4f1eee8eef4ee03f416f910
0f060e0af2f9f6fb0b12070b0a080bfcf404f0030e100af006
0df6f50df3030305f60d07f4f8130ffefe0cf6f3fcfbf5f208
f7fbf60e0a07090dfd04fafaf306f7f5f3f0f8040df20a0f11
f40e07030cf50ef506f507fafb04030e0ef808f7f3fa0a0f0c
f3fcf6f20d0505f8f2060ff7f807f70c07f8f3f9060b07f2f3
0607f1f6fafa0c100b0df3f4fdf9ef0e0e0dfbfb0cfdfa110d
f8fef80d04f705fbf4f5f70d0df207090a0ef9f306f4f3f9f9
f4f3f3faf3f3f2f20b04090af80df5f6f607f7f90b04edfe11
0cf5f6f20805eff20d0707f71306f7f80608f6f70cef0511fa
0bf909faf5f0f70cf1020ef9faeffa11080d0ef8fb0f0df3f2
f3f1f9fc080bf6f204080cf7fef9fcf608f4f5fa0df50bf30d
0dfc0afc0dfbf409f309f30df30df9f409070cf40df40c060e
f5f7f8f20ef7f20bfa0ef2f40af50a0efaf6f5f70909f4f80c
f3f3f207f308f30df5f50b0b06fb05f90d0df30e0ef6f2fcf7
050df7090b0af309f4f3f209fe0a0d0cf60bfdfaf4f3f40cf4
f9f8f2f509f40df3f605f807070cfc08f706090b0806f20e0e
0efaf30ef9f403f4fa0206f5f709f7f3090ef702f306f6080b
f2f50efcf3f6f30afc0e0ef9f80c0af3f3f2f3fbfff8f3fb0c
f2f30df7f3f70cf70b0509f504f30909faf7f3f508090b0af4
fcf4f70df3fa0b040ef6f3f60607f2fff40d0d0b0af9f5fa08
f6070cf2f4080efbf5f7f901faf5f90ef5f80bf3f90cf8f307
f4f30df8f4fdf3f6f4f40d0cf5f30807f9f70d0c08f80d0e07
0cf4f80df40e09f20609f5f7f6f8f707f808f40af5f8f905f3
09f3f609f3f808f4f207f3010d0df3f709f306f3060d0ef5f2
0d06f4f804f30a0cf4f20bf909f40bf5040606f2f2f6f207f2
f8f602f4f70b0e0ef7f80a070b07f70df306f20e0ef9090df8
0706070d0ef3f4f90808f80cf30ef90cf60cf6f6f3f60e0e0d
f3f2f60b01f50d05f5f6f8f60e0df4faf5fa0b090e03f202fd
05f9fdf40df70ffe02f10b030afaff0c0b06fb08090ff70efa
07f6090d0df30d0ff3fb0b07090ff40cf504fd0ef909f30dfc
fd06090dfbfa0f0ef2f20d0df708f70d0d0f0804100af30af4
0b0ff8fa04f4020ef1fa0af5f1f307fcf2f0f40c07070805ff
09f40f06f70cfb02fdf7fdf904f5f1081210f807f813090bf6
f2070df7f90c0c080cf5f8f9f20ffcf4070ff60c050d080b10
08f3f405f7f20cf3f70708fbf2f4f80e0cf60cfbfb0805f9f2
f80c0cfdf6f6fbf6f40cf807f9f9f7fcf4090a0df9fa050a0e
fbf2f2f10c0b0afaf1f3100cf6060e0d120df606f709f6f40e
0d0908fb0603f90afcf80cf2ee0509f707f0fc0e0ffa040c0b
f803060d08f2f9f8f7f809f3f9f2f90df30bf2fa0d02fd0a0c
f4fdf3f2080d0a0c090c0def10f1fcf2faf8f3f706f8ed080b
f10c03fa0d0bf10af20a090cfaeff30bf30df5f20a05090bf4
f7fc060df90b0c0ef3fc060705eff3100a0e080f04100f0cf4
07f7070bf4f5f90ffbf1fa05f60bf908f604fafa070cf1fef2
0bfeecf0f0f10d060908fc0d10fef9f2fdfc0c0df7fef4f3fe
0c0d12090af0f2fb040df20a0ffe0d08050c07100b0c100608
f4f3f2f005f50a030a0ef90eff11050a0af5050ef309f40d0c
0c0c1010f50cf811f40c08fa07eef710f2f5f5f60afd090f0e
f3f806efeff60ef8f5e7f2faf9f9050c0411100a030e060e0d
f3fb1507f5fbf90f100e0f0e13fbf0f914f5f307f4fcf5edf7
f7f9100e0f090f140f0cf70f08110f0a09fbf3f40d1204f5f4
07060607040d0df00907f3f1f30e0f0903f70af7040a090809
f907f3f40c0205f2f6f5f308f2f9f5f8f3f30b02f20cff09f5
0b020c030906f3fb110b0e1210f4f40f110ef90d0a0c0f0efc
04131412f0f5fa07f3f70b0ef1f1f20e04f5f7f3fbf908110b
fb0809fc0ff807fbf3fc0d09080df9090df70c0c0e05f407f4
f9f2f0f2fafcf0efeffc09f2f8f1f40cf0f40bfcf305f9f9f2
fa0bf3f4f9f211f2ece90af509f6f2eff209f8080c0d11100c
07fb0d0c0c07f2f6edf60d04f8f2f203fb110c0d0a09110c13
0afcf6f5f7f70f11f2f305f60cf40e0d0df3010d0ef8f9fff7
f5f50e0e0cfa0508f2f50ef9f2f8050d0cf2f40ff7fafe050d
f6f4070e0c0cf3f90d0e07f30b0b0b0ef8fa10f4f2f70e0e0d
0d0a08f80606f4f6f4f2f4f60b0b0e0d090ff8f3f9f8f40a07
0af3f6f7f50d0df5f90df909f20c0109f90e0df40afa0c0b08
0df404f7f80df209f1050ef8f80cf6f9f7f6fffcfaf6f40c0f
f9f8f306080d0c0c06f3070f06060b0c0af0ef040b0df6f4f6
f30ff30bf50cf5f40c0af50ff6f80e070cfc0c080dfcf1faf7
050ef4f5f3f0f1f2faf7f3fdf20d0c0f0c0cf7f7fd0706f4fb
f4f7f2020c080d040af20cf402090ef8f3f404f30afb0ef2f8
080dfe08fcf70c0ff80ef20afc07f6f20bf407f4f30b0cf706
0efa0cf3f408f70bfaf208f6fbf20e0df3f20e01f6f40908f9
f2f80d0cf9f4fc0ef4f70d0804f3f204f9fdfbfdf50df2fd0c
0ff7f40a09f711f9040cf506fd08f90902f5f70dfcf8f5f207
fef9f70bf6f8faf7f3f9f7f6f5f10a07f1f4ff10f8f7f80dfc
f9f3f1f1f505fd0bf30e070df6f80dfb03060ef4f3f1f9020e
f306f60a0707fc0a0eff0e09fe0ff304f40df60308f8f20d05
f8f5f5f8030d0810fc06f8fbfc0bf10afb04fb0c080cfa0af0
f304f303f9f804f904f8f2fafe0bf20cf6f6f30a0a080809f6
070c0406f9f3f8f50606f8f604f509f20a09f40b050110fa05
06f6f30f0e0df4f4080b0ef4100df7fafdf8f80ef50a0af60d
f308f6f706f00508f206f70ef8efeff4f1f3f3f30cf3f7f907
0bf7f4f91204ec040c10f3f609f6f40bfa0a0207f60cfb0e0b
f7f6f30908f2f30d0d0cfbedf8f7faf7080dfff30b0f0df3f4
f2080f1010f40403f4fcf9f3f5fbfc0cf3f10cfbf50dfcf808
0b08f2040bfc0c0c0b0af80af3f8f90df5f20c0c0bf8fd0a08
efeef2090df8f80409f203fbf30e0807030ef70807fa0b0bf3
f2f3040d0efe10fc0df104fb0306f8fa05f606f2f7f8f3f609
f2fef2f7f7f6f20df50e04fc0efc0ef4f8f3fafef60df2f7f9
f9ff0c0bf8f4f20707f608f713f3fc0c04f1f9fa0bf6fd0ef4
f6f102f7f309ec110d0d07f51209f20a06ef10f303f7060d08
f1f7f7f4f809f60e0cf6f4070a0911fa0d05f90cfcf6f2f9fa
05050d0bf4f2020ff4f4f10af9f6fcfe0905080cf5fbf20c09
fa04f80cf3f50f05030c100df7f9f5f6090905f80f070208f0
f3f8f1f8fd0b06f40af50107f0f2f4030afa04fe08f206f1f5
fd03f1ee0a100e0cfcf20e09fb0cf903f108f107f7fcfb0ef5
0cf20c080b10030f0907100f12f10df7f1fbeef70b0ef3f90d
0a0bfa070f0707f702f4f9f9030208f8f5070af7f711f40af6
eff2f7fcf2fbf3110ffa0b141013030d110af8f8f406f70aee
f9f306060e0e0ff4f0f70b150f0cf1fbfe100f0ffdebedf405
030df3f90dfcf2f2f0f8f5f0f20e0610070a08020d0a0d0cf0
0b0df40df2f6f60df409f5f2f8f3f60bf2fc0dfaf6f70af90f
f7f3050e0af80efaf91006f6f205f7fd09f2f3f3f0eef6f3f8
070df8f60af7f6f8f6f8f605ef0b05f5eef5110bf3f1f40af1
0ef20bf406f30e0d07f5f4f8f80ef30dfbf3f6f7f5fb0bf3f4
fa0d04f9f60d0f0d0c100d09f7f1f40805fef40708f91410f3
f8f507f30b0b0e0e0df411fbf0f9f7f9f4e8f4f6f40bf706f0
06fa10f20f050af70ef8fa07f20bfaf20df8f2f0fff3f30a02
f7100dfb0cfd0f0e130ff7f9f01010f2f9f30a0e03f3f70f08
f3f4f2f70f0b03f50c0cf8f1f213fd04fc0e070c050f08fa09
0c0606f509070bf90d0afd0b0ff50708f20bf50df8fd0c060c
eff10d10f3fcf30e15f7f7eff5f1f30df60305040bfd0c0c08
f7fa0a0ff3f2f7f7fa060d0df20a090d09f80f06f30a120f0a
070f0ff2eaf5070e06fdf9f4f10911faf6f8111205f4fafaf1
050f060cf20dfafceeeaf206100ff3f9f8f0f1f2f41302f411
f406fdf40a0a0ff513f3f41009f4f2f7040df3f20808030c0b
07100df7ef0df3f70ffb09f1070c0b0df7f80af10d0608f0ef
f40609f9f7f60df40e06f208f9f703f40cf2f509f3f205f4f6
0df80af4f50e0ffaef050a0e0af202f4faf7f310f4f90cf8f9
f710f9f4ecf6f6f4f5f00d0d0ef70d0d08f9f5f60bfd06f10c
f30e0af307070cf20909f6f2f4ff0b0efc06f2f30dfc0df4f4
f5f2ed0c12f8f0f108f8f4f1f2060e06f60405fc0e0ff607f0
fc040703fbf6f6f3f1f0ff0cf80efdf3fb0d0df805fa0b0708
07fa0cf8ff0d0cf5f2f40c0df9f3f30f02fe0d04f7f50f0a12
0bf7edf408f50f0dfcf2f8f2f4f0010b070b0d070710f50af3
0ef6090c0405f8f2120805f90f11f50d0c0c0df10ef209f90e
f3f1f90810f7fbf30d0a0e06fbf7f2f4f9070e09f3f3f30cf1
08100dfd0f07090b07f90d070e0cf80c0af3fbfaf4050404f5
0d07f90d0e0b0beef30bfdf1f9f10c09f7fa04fd0c0c0308f1
0bf6f40c0ef609f3f110f41104040e0ffdf30407ff0df70ff6
07f30a0406f709f9f8040e06f1ef040c0ef20df9130cf3f20b
f20bf10df4080af8030b0f0e0e0b0ef50ef2f709f3f3f1f0f7
0b0b0bfa0c07efebf80bfef1f2020d0a0c07f6f2f80d050a0c
09f7fcf507f4f5040cf3f2f2f5fb0cfa0e0a0af3f705f40cf7
f30c070cf703f7f3f1f9060df80cf7120dff0a03f6050af207
fff80e0f0ff9fd0ffb09f10bf309f50ef1f203f50ef709fbf3
fb0efb060cff0e0df30d0d0af4f408fbf2fbf9f408f4f7080b
f30cf30efd0df70d0d09f20e110b07fd10f60e0bfd120304f7
0cf1fc0c0efdfe0d0f0ef40b0bf802090a09f7f00ff910fd02
05faf80e07fb07f307f20f0e04f50b06f4fa0af50e0df00ef3
0d0f07f7f5fa0d03f9fe030d0b120df6f6f7fd0f060208f9f7
03f4f71007f302f9f30df80d07f4f6080e0d08070cfb13faf2
fe06f9f4f2f3f8f20a0d0df6f2fc0c0af6f2faf40ef1f4050c
0c0ef4fd07f303f3f4f6fceef7f20b0e06fef2f707091213f7
05f905fcf4f906fc0a08f6f3ef06f305f2f503f5f4ebf811f4
08090b1104f2f20c0805fff1070f110ef80cf2060408effbf5
09f1f6f304f60d13fe0bf7fb0a06f80ff4eff60ff9f8f9080a
f3f30c0d09f3f90a0ef20d080dfaf8f605fa08fa09fb0f060a
0bf8fa040ff207100807f70d100ff9f406f9f303fa0f06ed07
f8f5f40e0c09f5fa0e07f4f8f30df90dfd0e0a0af2f607f2f8
fa0df7fa080bf50cf408fbf2f10906f0edf50303f5f2f3040d
f60410f4f507f30ff3100a0e11f810080afc11f404ed060708
0dfb090cf40c0e07f30df206f709060cf4f70a07f2faf6fbf3
0a0908f4f1f20e0af9f50d09f50c0f03f4f70ef904fc140cf8
f9f1fa03f3fd08f80bfd0efe06120d07f40b0b0808ef110ff3
05f4f4f9f10911fd0f0d07f4ef0e0b070ffd0ff2faeef8fa0d
0e0a090bf10303010af3f108f2030bf8f7fc08f40af60e1109
f7fd0d0d0ffc0e0c0ff40df80f09f90af810fff3f70ef4f4f2
0c0409f8fa0b0bf90c0ef610f4f8f21008fbf2f90a07f9f607
09f5f409f3f20ff9f6f509f6f2f2f7f3f8f1ed0cf7f7f7f50b
0d0af1fd0f0908faf8f909f3f3f00c0503f20af3f8f40c1305
090d05f810f30f11f30cf6f407f90cf50a04f3f91111f8f1f7
f7f00a060c0d0f050cf30f0ff00bf6f6f2f6100c0af6110df3
0d08fcf6f9f5faf206f70f0807faf209f3ecf20ff2fe09f90a
0efa0ff9fbf30af4090ff8f9100d10f5080df8f1f20af8f2f1
f506f60e06f90efaf20df90df30609f2fd0b08f60e0efef50c
f2f90af70cf205eff0070df5f1fafc09f50dfa07f0f30efa0f
f2040d11100d060906f70af2f7f50f0b05fd0cf4fa0d0df1f5
0d0e08f2f4fa0df5f4f4f8060df50ef7f3f20ff2fe0405fc0b
f90c0af7f3f7f4100c080af50c0e0b03f6f912f00e0f1206ef
070d01f7f4090e100afa0807f6f8f3f50c0c12ee060713f6f0
f6f6f8f308f8f707f8f6f6faf4f7f10f06fc06090bf30f0e10
0ef40b070904f312faf2f107f70cf9fc0b0ffbf70e0d0f0109
0d0f0b0408f7fcf60a0a08f803f603f60ff7fa020d10080c02
faf305fc0afa0df304f20705f70d0203050d07fa040cfd04f8
f60d0ef60a0d110805f7f50ef306f5f00d0ef306f4f3f10508
0efcf2f1f810fff3f90ef7f6fc0f110cf2f9080e07f1f20d08
0dfbf5f5fbf2f6f4f1020ffaf70afaf70704fb09090f100a0c
f307f1f2f201f007f1f90b0e1105fa0e0a10140df8f0ebeef4
08f60903f80c0f08f1f4f4090bfefef40b1807130807f2fef4
f1f3f60ef9f3f6040cf90c0df4f4f10afa0efb080f1009f7f4
f2f4f307f40ef30ef3f408f9f6060b0d0ef30707f9f4090bf3
f5f507f3f2f6fd0e0305f5fc05f50d0af2f50b09f408fe0ff7
fd0b08f6090b06f90b030b0df711f3f306f9f80df509f40df2
080a0ef2f507f8f2f3f30cfef2f2f806f902f6f6f40df9f90a
f9fc0e140a07f0130f0ff2f0f71005f6f309fa010b09050fef
0a0df7070bf7f0100dfb0af61005080cf7f1fdf0fd05f9f208
08fc0cf3f30a0e0d0efbf3050711040c07eff9f10c0308f20c
f50f1009f3faf2070ef70909fcf6f3f1fbfb0df3f8fa0e0df8
f3060df1f20c0e0c0807060b0d060bf2fc080ffc0af6f406f3
07f8f9f5f60af3f8f509fc0af2fd02f90cf4f7fa0df8fa03f3
f30deff603f41007f3ff0d0f10f2fc0ff20ef3f4f80bf3f80c
fdeffdf3f9f5090bf2f709f60308f510f6f6f7f00a0b0a09f3
f6fb050c0604f1f310f4f1eef80ef1070cf905fa0c0e0d07f2
f1eef50e0df3ecf30c0e01f00dfd04f304f3f8f103f2f10cef
0aeef4f80ef2f7eb060807f80dfaf9090df50af00b040cf4f8
f90ef8fa0c06f6f4f10909f1f90dfb0b0efa0bf4fb08f90df6
f308f3020f0a0b0a07fff5fbfc0dfaf80806f60b0df90efb02
f7ecf30efcf80af2fcfe0df8f905040efa0bfaf6f50efd06f6
f3f6fc070ef00d090a05f50d09f5f7f709f6effcf505090b0e
f509060af90b09f209fb0d0cf9fc0705f70b0cf907fb04fef4
09f20bf2eff411010a0afe090c110cf30cf407060af80d0e05
09f30ff2f5f21012f8f5f3f508faf8f2f3f406f3f40d110b03
f8f5f4f80e0a0b11020a0af7f3f1f907fc0c07fd0df207f6f7
fe0afaf40df5090c0d0bf20d07fa07f7f609f9f20d0ef3fb0d
f3f8f2f20e07f80df70df2f60bf30d0d07070c0907f7f809f4
f8f708f5f8030d050cf30d0df4f5f9f607050e0dfaf2f20df2
0f0bfb0704090ef70d08f6f1f708f2f4fcf3f907f90ff3090d
0e0e02fb07f5fb070c0b0a06f2fa07fb070af30ef30c05f4f3
060bf40af3f5fdf1f60b060b0ffaf203060df50d09f4fdf8fc
0b0d0efa0bf2f6f6f3f4f70af9fc0b0907f30af6f30cf40df9
f9040afa0b06f30af1f4f60df3f8060c07060202080bf3f4f3
0c0d0b0d07f40b05f3f40ef60ef3f30cf40d0af203f3f70b07
f3fcf90d0d0d010d0df30df3f20d09f3fa070cf304f406fb0b
f4fa0f0a01f5fc0af202f7f5f20cf6f2f3f30e0bf6f607f4fa
f60df3f40df8f30df2f20208f9f7f20d0c0df20cf20bf307f4
fef6030b0a03050df808f307fa0e050df90cfaf60a02f3f4fb
0e03fcf7f2f3f40c0bf7f506f8090d07080ef4fa0df306f30c
0d0cf406f8f3f708f20d09f9f2f3f10ff50df70d0c080d0709
faf40af4f3f8f20c08f5f50bf407060dfafafd09070d07f3f3
f20c01f20d0df70e0af8f90df5f20af6f5030af40b0d0a0d0f
0708f20bfcfa0ff10d0a070a080df3f4f20bf409f7fbf3f606
0bf3f204f8f3050bf50df80efa0c040b0cf8f8f90e0b0e06f8
09f20df3f4070c09f80309f1f4f3f905f908f4f8f307f6f1f5
fa0ef6fef70c050f07f90403f2f40e08010d0efa0cf606faf3
080b0af8f70d03f2f3f90ff6f1f4f5f6f2f4f3070c04f2fafd
f3f30e0a06f40f100df7080b0ffafb0d0ef9f8f407f4070c0f
0d0ef40e0a08040e0d0e0609fd08f30ff2f9fb0e10060df601
07f80dfd030df8080b08070ef40cfaf409f402fa0807f4f3f7
f6f5f4f609fc0cfcf4f90af5f307f30c0dfafbf4f7f9f90b0d
f60ef1050d0afcf506070af404f80d0e06080e0df8f7f7f309
090f040e0d0cf409fa0bf8f2f4f9f409f4f6f505040c0e0e05
0d0a0cf4f4fa080bf7f6fcf4fa0609f60cf5f408f2faf306f4
f5f506f2080bf8fcfefcfbf9f9f3f1070ef9f8f209f3f4f109
07f6fc08f6fafcf5f3f9f70ff9f4f90dfb08f3f907f7f4f70d
03f808f1fc0df9f7f2060c020f0e080a070d0ef70ef60bf5f4
0bf9f4f8f3f5f80d070d03fbfa0ef90df20ef3f3040e0af7f7
f5f2fa0e0ef3f7f4fb0af3f00c0c06f7ef0e0d0df50514f504
081111fcf3f507100b0ff80711f2f80df4f7040af5f8f8f3f5
f00b0e0709f1f40714fc0b0bf8f2f4f40dfdf90b0dfe06f5f7
0ef4f70f0af3f509f0f30b1710f1fefcf3f6070d0ff105f810
05f6f6eef00d0cf40b11f205f30c180a01f3f30ff80bfafe0d
0ffaf6f0f3f908f0ebf9fb0a0d1310f5060e0c0f0df9f0f0f3
0e0ffdf40bf4f70d0ef30c110ff0fa0b0e0b0c0a030dfbf2f6
0e09f4f3f3f8fb0d0a11f40af0130f0c09080fef08070708f3
090e0af4fe0af205f3fb04f20e05f8fbf4f3fe04010704f0fb
f60ef3f5f60c0afff1f21107f60afb02f3effa03fbf9030c0c
fdfe11f0eff30907f30df60f0e130bf9f4f9f4f306f0030609
01f8f40c0ef8f6fdf9f1f9f2f8f8010d0d0c0c050bf5f507f3
fcfaf20d11f6f8f10611f3f3ef03f50f0af20df60df709120c
f2f90cf2f7fbf90cef10f40df2110903f9f306fef30df90211
f904fa0d080cf4ebf412f910040af70f07f10df70ef4ee0e07
f70a0507faf209faf210f9f2f0fd0df4f8f808f6f4f70911fd
090af8f90c0a0df90ffdf9f60af3f609f70cf7f6f10e0bfa06
0bf20afaf30b010ffef3f808f2f20b05f5f70df30c0d08f2f3
fcf60cf9090bf1f3f3fd0eeef5f30d0df3fcf3f0f20b0d0705
0b010809f3f50df4090e08f4fdf1fd0ffbf70cf70df50ef3f3
fb080df3f90d08f30d0ff9fc0d0efbfa0b06f3f90d100df9f2
040af201f60e11050c0e0e110d070af60609f5f5f7f9060a09
f601ff0e0bf4020c09fd070b09080d09fafb0a0df1090803f9
0ef6f3f90ef40f11f7f9f40df6fa0ffa0b02090d10f404f409
090c070ef8f60df4fbf6fa0e0efd0cf90c020d0e0df3f40bf6
03f3fdf4f70e08f3070ff6f0f8f0f4f3fbf40bfcf6fdf3080d
0d0afa0af5f7f5fc1107fc090ff907f1f70f0c08f408faf40d
09f4f2fef2f30e08f403f20a0cf4fa0bf3faf90d04fe0cf20e
f20cf3ef0cf7fef5f2f505fbf0080cf6f10cfbf1f2060ef1f9
0b08f407070909ef0e0cf2fdf0f7f3f9f5080bf7f30507f0f8
f4f2f3f40ef2f7fef30e05f5fcf3f8fd0f07f807f6fdf3f2f4
0b0bf3f80303f5f80a0af40808f5f5f509f4f209f106f7f5fd
faf80d08f3fd0c0fee04f5f40c0bf4f8f90f0ef5f1effa0e0c
f9f80dfb0b0708100df3f6070cf0f304eef80e0ffbf4120cf7
04f90cfa0cee05f30cf10d0d0cf6f2fc0d1213f2f7f50b0cf1
f10b06f30df7080f0cf50812faf3ec130d0a090d0807f1f304
f50cfcf2ef080e0804f7eeef1012f2eff6faf7f8fe060af70c
f80cf8040f0bf21010f9f5f7f305f2f30d08eeed110af4eefc
f310fd0205f90a031006f9090f11060c0f060ff40f1111f3f3
050ff1f3faf50f080ff4fc06f8100608f0f10df807fdf71107
0a08f3f80df6f5f4070af30af708f70df309f6f80d09f80df6
f2f50803f206fb120bf8f70d0207f50508100c030c150d080e
0d0f090cf4f90df2050deef2fa04f5f2f30cf105080f0ef80e
06f707f7f8fa0cf2f60f0d0ef8faf2f304fdf8f5f40c08050f
fa03f3f4f1f5f4f304eb0ff9f20cf0f6f6ee0c0dfaeee9fc0e
f204f80d0def0705f3f2f9f9070b020bee0605f3f2f00c07f9
f4f4eff2eef2eef1eef808f8fff2f00d0cf2110ff4fa090f12
faf9f3eff10b100af0f6f5f613f3f70e0cf6f20d0bf8070d05
0e0d0d050afb0cf30cfb0df6fb02f5fa0cfbf5fb0b0d0a0ef9
eff0f7f9fa020af6f2f90ff50e0b04f20404f107f40dfaf20d
faf6f5f404f3f1faf10cf4f90b0e040d08fc04f2f60b03f30a
eff306f803060704f80e0ff8100a0a070c0ff10406f3f70807
f306f90d0a07f80c10f6f8f3f9f2f7f6f2f90407f3080ef608
f10bfa0e0d0afb03f70ef20c0cf20c0dfe0a0b06faf60d0bf3
07ff0cfc06fa08f2faf7f2ed05f503040bf30bf0110ef40bf9
0b0c0a0d0af4070a08f202f2f6f4f0f4f1f80e0602f4100c0a
0e07f30908f6f90d0cfdf5f8fe0df9f30d0efbf90ef2fd06f3
f006f40ef2f40ffafe0df105f6fafbf8f8fdf908060cfaf40e
f9f2f50e08f70cf3f90e0c0d0d0e0bf80bfcf7f1090b06f20b
0b0807060cf4f7f2fd0bf30df20df1f6fcf90df4fb0c0d06f8
0e0706f6f707090af6f2f6f510f403fe0704f40bf8f3f30bf5
f3f40a0609f3f90f0c060f090d05f4110ef60a08f1f9fc080a
01f9f1f4f7f1ff120a09f7f9030af6f90e09fa0b0df7f9f8f1
09f6f40ef90bf409fdf20508fa0d06f70ff40d06fa0eeff20c
f3fb0df9f50af3f50cf30df3f4f9f8fc0ef70df4090cf2f80e
08f30ef9fa0e06090608f2020e0df7faf8f206fc0df20c0bf4
0cfe0e0cf5f4f4f3f305ff06f2f2050b04f4f30708f30cf204
08faf609f4f4f3f6f4f5fcf8f30d0df4f3070efaf9f8f3f40c
f307f80ef3f90d08f8080bf6f4060ef3f8f80303fcf8faf9f8
f90ef3f2f2f306f3f7030cf60bfe09fc0a0bf60ef2f9f908f1
060d0cf403f3f7f6090609f80a0704f506fbf7f30e0dfbf3f8
0dfef70dfdf5f40ef5f9fa0df5f4f4f6f70ef8f7f30108f507
0e08f20cf2f8f3fa0af40af80e06f2f4f30c02f20ef3f3f806
f80a0e0df3070cfff805f9f2f8f6f40cf7f40d0efdf208fdfc
f805f60e0cf40e0df307070cf8f5fd0e0e0e090cf80a050c05
f4f7f3f4f30ef7fbf80df70e0c07080c0808f6f40cf6f40ef7
f70308f2f608070a0df2f8f905f30709f40b09f50ef7f50d0d
080dfaf20bf4f2f2f2f30cf5fbf4f3fe0c0a0df4f40e06fc07
050c08050ef8f70b0b07f7f2f8090d0c07f3f9f403f6f40c08
f4f804040a0ef2f6fa04f4f2fb0df5fb0af60c0ef80cf60ef9
f80c0cf80af5f40b030cf30c020a0af9f5f108f8f1060705f3
f9f6030b0e0efa090d0df7f60df108060808070c08fc100ef4
0efd08fa0ff20df3f90ffa100df9f9fa0d100807030ceff107
0cf90f100ffdf3f309f4f504f9f3080b09f2f1070c1002f708
0df7f4f108fdf5f20e0ef80812100df0050af2f7f6f4fa120d
f307f10603f701f1f80df308f80904fa0cf509ef060af4f7fe
f8f50d0805f3f0030cf20bf40d0dfcf80af90d0b0ef7f6fc08
0f0404f9f705f4fbfbf7f3f80a0b10f3f602f4f409f10ef7f9
f308f9f705f8f2f70c08f5f6f2f4f3f3f40ef70af207050afc
0609080cfcf30c0808090af6110407f80c060afa0a130ef6f6
f7f30af4fa0ffe050e0c06fef1f0f808fcf9f1ef0bf70b0ffc
090b050dfaf80405f20e0d0cf20df4060d030d08f5f70c0d0e
f2f2fc10070cf908070ff307fb0d0507fd0bf80e0a0cf0f104
030e080106f9f505080e0a0e0df7070df50ef0fdf6f9f001f4
f4f70b09f9f3faf1fb07f10e0ff90b0d08f30c0ef210faf5f7
f3f20c030a080ef6f2faf50211f1f80c0df50c09fef1f607f3
0efcf7faf8f5f4f70df50ff405f40608090c0c0df7f308f80c
f4f20b08f8f80af3f20dfe0df5f20c07f90af40bf9f2f6070a
f4fbf412fbf9f70d0c0908f7f1f1060e090bf20a0a0ef20b0d
fc0af307f5f4f20af4f3f409050b0c0806fff8f20e09090cf2
0a04f4050df9f4fb13100d050c0804f2f70e0809f0f2090706
f309f60df6fbfaf40bf9f508f307f90bf3fef60ef50504100d
faf30cf7fa0b0af90dfbfaf1f1f8faf4fc0bf5f40d0ef3f510
060307f60804060d080ff2f2080df809f1fef905f504f40c08
0d0d0cfa09f70df6f80205f5080af40dfc04080e0d0e0cf4f3
fb02fb060ef50cf4030efe08060b0d0a0bf40ef3fff4f3f203
f8faf20df8f70dfdf70df9f7f80ef3f3f9f309f5f2faf3faf6
0df4f8f5020cf2f808f3f4fb06fa080bf2f70cf60ef3f6f3f4
0cf408070cf70cf6f80ff207ee07f5f50f0ef8fbf912faeef0
f7f3080ef5f10df6fd0bfc02061406080efbf2fc08050cf1f2
fcfa040e0bfa0cf6f80cf30d0807fa090308fdf3f70e0309f4
0d0df705f70dfcf9f6fc0307fc0cf7f30ef3f208f7f4f8f8f1
f504f90d040b0afe03f3f705f70e06fa02f3f9f1f3f008f60d
0f0e10fcfbf0090f0ff8f0fcfaf9fef008f60bfdf511101001
0d040af303f8ec090c0102f808080d0b030f03f4f209f9070d
0c0d12fcf2eeee04fbefedf7f4f20af6f2f30ff4071209060b
f513faf5f20b170909f5fa0513f8f0fd0810f9090d070a1308
f60c1011f30e100e09f2f10304f1f4f5f0f5ecf3f0f4f2f1f4
f80e07fb06f3f911fe0ef406f2fdf206f5f5f8f6f3f4f3eff4
0403f3f0f2f80f10f9f70d02fcf90d0cf20efbf6fbf50cf6f3
f7f708f2f2f30e080ef207f40d0d02f9f708040bfd0d0cf908
0f040ceef5f106080ff4f207f3f0100f090dfc0e0afa0f06f7
06170d0ff1f6f1f305f7f6f00df3f10b07f3f7fc040df9110c
05f2f4f90b03f3f5020a0d0c0808f807f202f7f3f70af704f8
f5f9ec0c120ef0edf4f50ff4f7060ff306fd0f100c04031112
0d04f30c09eff905f1f2f208f11507eff90f0cfc09090e1112
09020f0ff2f0eaeceef407f1ee07f90d050e09100b100f14f9
f204f1ebf4f70504faef0204f706f60d1107f907f70c06fa0b
040df30a0908f60dfc03090d0506f3080c0b0a0cfd03fffdf3
fa0cf509f90cf4f7f2f50903f2f20af50cf3f3070ef7030c03
fc0bf9f6f5f606f4f307fc0bf10c070e0c0bf80df5f3f6f3f7
04f106080df3f202f507040908f2f40ef50df20df505f4f90c
0cf808f6fbf2fdf4f20e0c05f5f20d03f2f4f50af9fa08040a
f50a05f90efaf709fb0e0efdf70ef40cf3f4f20d0bf509f306
09f3f90d080a080903f2f50d090909fb0a09f3faf7080909f4
0d0d0b0b05fb04f8f2f9f70e0d08f4f409090709fafc0df20c
f708070dfd060efcf50408f2fa0bfc0cf5fd040bfa0bf50905
f70cfa0af404f20bfa09f2faf90bf4f3f7f70cf30d0d0df90d
070af3f3f2f307010b0afc090d0bf3f2f20c07f2f4f3fd0cf6
f9070c01fd0708fb0503f6060b080d0dfa060bf5f7f2f4fdf2
0e01090af2f4f8fcf3f3ff07f206f5fdfdf6f8f40cf4f7f20c
f5f4f308f40df8f2f5f9f602f503f8f80afd0ef3f80ef2f4f8
f20cf20808090d080afe03f5f10d04f3090d07050d0d0d03f2
f80d08f802f4f80e04f8faf309f3f4040a0afc0df2f4f80d0b
f3f4f2f109fb08fcfb07f90ef2f509fef309fdf40d040ff406
f2f604f4080cf80c0906f1f5f7f9f20d09f303f90e0bf4f50b
fe0df6f30e04110af0040f0f10f10af1f2f6f508f2f1f00806
0406fa09f5030c0cfdf40ff7120a0e070af1f3f60cf4f7f309
f70af40dfdfa09f1070ff9050d11f308090df7f2f50d09f206
0e040707f60df2f4f8fcfa0f14110d0e0cf80b0a0aefeaf6f1
f9f4f809fbfaf7f6f5f907100d030efa14090a04faf307f3f5
05ff09fb0f07f1030e07080ef3f90af90d100e09f6fa10f302
090cf20606f3f4fc0b05f9f606f30e0c0e0d08f50c0e09fbf8
f4faf30af3f7f5f2f70af9f504f9020df1f20d0c060c02090c
fc06f6080808010b0ef80a090807f2f2eff3f10d06f007f205
0c0e09f3030c0c09f90a030606fc0d0df40d0ff30cf9f90208
0e060af4eef407070cfb0efc04f7fcf5f40efbecfaf20902ea
f8f8f5f10cf20f12100d09f8f40209faeffa08070cf310f8f0
f7fc04f309f2081012f9fffcf205f10af2f0efeefaf4020608
f406060cf30d0cf10d0cf20df9fbf3f3f00df5090df60af301
f104f3050904f9f7f303f4f60e0a0602f401f9f905f9f80d0b
f2f1f5f2f6080cf3f9f1f20c05f20ff2f5f3f404090cfb07fa
0e0c050c0c070d09f9fc0a02f80ef5f4f8f5f70af8fef10b01
f4050a09070d0604f70b0b101110110cfd0af7f203faf70607
0ef9f40cf6f1f3f3f3f403f8f7eef40ef80c0cf604fcfb0aef
f20c07f8fb0dfdf3f410f90e0ffef509120e111006f3f1f6f1
0ffbf8f308f408fc0f0df2080cf5030f0a1405f8f6f5f30c0c
08fef2f4f2fcfaf909f10df9f1f409f20e0206f9100b1008f0
f20c0c0f0a0c0cfa0a07f40ef20a08f806f30d03070c040cfc
0b0c06020df6fb0bf80df70ef81007f20403f1f6f70808f8fc
f3f3f0fa03f60c0e0a0d0912f8f4050cf4f40df7eff4f6f307
08f2f2f5f4090e0bf709f3f8fffc0d0c03f7fbf3fa0cf30bf4
0f0c0eeff30dfa08faf40a0203f90e0ef204f70df9fc0ef708
070deffcf1fcf10e0cf3f907fdf4f60bf5f30cf403faf40df6
0ceff105fe0f1011010d0a0c07120ff607060bf20af7080c0a
060af60e03fc040a100e0c0e060b090807f3f3f2fc0ff00f08
0af2f2fd08fdf2faf2f40c060f04f7fa09100807f30c150afe
f20c100bf8f6faf7fa0af3f4f8f8f50d03f4eff50c0df50bf2
03f802f3070ef8f70cf9f8f3081106f507fcf00808f0ef07f2
f2f80f14fa0807f4fcfdfaf1eef4f206f3ee04f20efbf0f3ef
0cf109f90b08f4fb080809f30e150ff9fa0e100bf9090c0df2
f207f6f3f70cf5f10d11ee05fd0b0d0609fafb0c0aeef6f5f1
f20bf9f9f3090bf4f80f0d0ef2f7fd07080705f6f4f6f3f0f2
f80b070bf30d05f20dfef30a09fd0f07fb0d0f040e080ff404
f60efc08f20bfcfcf803f90afe0ffdf90df906f5f4f4f30bfa
f7f1f00c11020c09f904f4f3edf80410fe09f9f50d08fcf6f9
0a09100c0af4f708100bf709fcf1f9f7ef0bf7fa06fefcfb04
0b030bf7f909f9f90d0d04f90c06f3f6fcf3ff020d070d020d
f7f0f0f1040ef4f0030c0c020d140ef40df215f8f8f80f13eb
0df6fa090ff20bf4f40df7f8f608f8fa06fb06f4f1070cf9ed
f2f4f7110408f30903f5f308f50deff3faf1f5f30911eef3f1
f4f5fbf1f3f410f707f4100bfc0703f9fc0cf40f0bf30d06f3
0df20bf60efc0a0d0a0bf8f2f70cfaf2fd0bf9f4090df4fc06
f6f4f909070c0bfb0e0b0ef20cf30d0ef4f709f4f5f3f4f402
03090604f3f7fcf6f9f90e09f3f30d0bf6faf20c08f607f30a
f6f5f4f3f3f5f7f3fa0d08fef6f90c02f6060efef40df40bfa
0709faf303f30e0efa09090304f40e0e08f9f509070efb0ef9
faf8fcf3fe0e0dfa040df70cfcfaf2faf4f2f3f30906f30af9
f7080df807090df7f2f2fa0d08f3f50509080d09f2f3f4f3f2
0c08f8f2f7f2f70d0a09f20af9f2f9f50cf5f807fbfb020cfd
0e0b09f80df70bf5f3060b0bf606f30df8f2f8f8f30a01f4f2
f80dfbf20df8f3f4f3fc0ef9f30b0904f7fd0ef4f3f9f50e04
070e0af9f30efbf6fdf9f608f3f50f0df80ef209040cf5f4f9
0d05f30a0a08f304f601030c090e0df2f5f2f9f3f604f80706
fef2f5f5f9fb05f6fb090cf409f4f3f20ffa0205fb06f6fdf6
f60c0c0df5f8f90af208f7f3fa0dfa06f3f3f20309080bf80d
050cfff9f309f809fc090b0e09f90df9f3f808f209f206f80c
f4faf604faf20df30e070c0c09f7f703fb0a0506060df6fefc
0df20df40e050a03f5f70d0af402fcf60f06f2f80df30905fb
f1f403fb090802f90603f9f308fd070ef90c0ef1f209f9f4f4
fbf7f80d010c0ef40a0d0bf3f5fc0c08f6f30ff1fd0c0dfafa
f0f1f5fbfa0f09fbf309fdf10d0708f70efafa020efaf3f3f2
fb0d0509f309f007fbf4090e0b0b0df10df8f608f1f0fa0d0d
fc0205f2f50a0cf3f30c08090bf6080a0af10cf4f20f07f30b
0f0d03f30a0cf50d0e03f80e100cf3f9f1070b0a0af5fb0c0b
0709f40cf508f2fdf706f6030af3f4fafc090d0806f3f5f8f8
090d0d09f7f90d0cf307fc0af6f9f8f2f30df30d0e080cf7f3
0df9f50d0e08f50ff3f407f20809f3f4f20b0b03faf5f3f5f3
f4f20b0afbf5f3f50ef3f9f1f7f20ff5f20d0a0af70cf5f30a
0dfa020bf90ef90df3f30807f5f2f7f504f303f9f4f30d06f5
0af30ef8f00e09f40a0ef2f3f9f50e0bfffb0c0df30b04f206
02f4f3f0f107f60d09f40b020bfff4fef60ff6080f0b0a0dfa
070bf1070e10080cf60df50cf40cf808f3f8f20cf3f20df407
07080709f60d0bfc06080efff3f2f7f90cf503f6f9f408f8f4
0f0d0ef2f30a1009f3fdf612f8f0f90410f9f2070bf60df808
04f0f009f80efd05f20d090cf20ffdf3fc0d0df2f3fc08f408
f3f9f7f60e0a0ef7fbf60b0205f60df70d09f3f6060b0ff9f3
0b0402080c0a0708130ff6f00e0ff4f2f60af2f1040605f5f2
f5f8060efe0af6100610f5090d0b0a0ef50cfdfbf1fdf408f4
f4f7ee0df7f909f60f0ef3f3f701060df5fb0dfa0bf1f80af0
f50afb090af403f306100e06050f0bf2faf0080609f3fbf6fb
09f4f90d0df6f2f4f308060e0eef0df3f4effbfbf70907fc07
fafbf70d0a0efa02faf9f3f50df6faf40af50bf607f50407f2
0d100e08fbf408f90c0af2f0fe0cf5f406fa03fbfcf10d0608
0bf3eff8fe0e0c0411100c030b0cf40a0c010efe0b010d0d07
0df50906f8f60908070a0e060d0c0c09f4fef2f3f8f3f8f30c
080e10f1f9fd0513f3f1f3060c02fb0d120bf40bf20c0afc0a
0f0cfa04fd0e07101209fcfb0ff3f5fcf80cfbf9f106f90ef1
f6f90ef40af8021407090bfdf70a0cf5fafc0cf20df709fb05
f4f50c0df2f70b0f090a070e0df6faf20d0cf70cf5f4f3f6fc
0dfcef0c0e0af609f5f7f8f2f1f5f20b080bf4f4f60af2030b
f40d1208f50d0bf80e050c1412f0f80e0c0d0c06ef09f5070f
f6f3fcf90cf005071003f60b0df1f210f8f4080d0df60bfa11
06f6fffe0305f40bfcf802100ef108f3f10afa0eef080d10f5
0df707f2f0050d0f04ecf8f7f11413060f0410f1f3f2edf4f6
f7f4f809f4ecf2f904f4f0fb09fa08fe0bfcf4060e0e0cf0f9
0804100bfaf0eff80d10f9f703050706f70c0e0f110b05040d
0614f5f3f6f80209040d0efef0f9090b0df112fa07fc09f8f6
f206f7f307f30bf305070ef4f1f4f6f5f30efaf10804070808
0803ff0802f9080e030f09101202fbf70c0b070df80efa070d
06100e0ef0f3f30cf1f910020d0ff60df9eff2fcfb07edf90c
f40bfe0d050a0bf30df9f4f30df2fa07f80d0607f8f7fbf5fd
f7f3eaf0060c0a06f7f0f3f3f509f30af3f711060d0f09f3fd
eff3f4fff90c0a0ff6f7f315090f0f0c130f06fdfc0df9f7f4
edf207f0040d0f01f00bfa12150ff7f2f1fe0d0df3f50cf80f
f10d09f1f908f70c09fffdfdf6f10d0c12f8f4fc090df4f80f
0cf2f20a0cf606090df30afa0d0d0d0cfcf3f1f50ef3f7faf3
0ef405060e0b060cf4f30e0c070a060ef70efdf4f40d0df4f7
fd08f9f608f306f40df3f10ff7f6f406f3f6f40e0610f20d05
06f20cfaf90b0c03f4f30d0304f2f608f8f5f2f50ef708f20a
08f3060dfbf7faf40df4fb050b0d0c0c020ff2f4f60ef40df8
05fcf3fbf30b0e0ef3f4f1f106fa0d07f2080d100a07fafa03
0e0cf20e0e060ef7f607f10dfdf302f70bf70b0c03f4f2f9f6
0c0bf9fcf40cfaf2f7fc0f0806f60707090df3f50ef30e0e0c
f20d07f2f407f20d09f2fa01040c04f9f606f7f8f7f90af7f6
0b0b05f4f50b09f90202f709f2f9090c070f09f7f4f5fbfe0e
0ef40f0df3fb0904f6fa0af30df3f3fdfb0f070ef8f5faf3f6
f70bfb0cfcfd06f40e0cf7f9f2f40df30ef6f70a060cf20df7
f3f9f9fa0f0ef10a08fd08fcf20ef7f6030a0ff309f80df304
0ef70df4f9fb030cf5f30305f1f4f3f3f2fdfff50e0710f40d
0cf8f6040c0d07f307faf30b0cf3f806070ef20d0c0d06fa05
f7f5f6f4f50cf70bf9f7f2f8f20a05f408f20af302f909f10b
f2f9f7fa0c0d0d0d0908faf8f40204f6f1ee0b090df5f40e08
f1f40df2f7f2f90ff0f8f5fc0d030efc0b0efcf3f601fcf3f6
